{
  "version": "1.0",
  "truncation": null,
  "padding": null,
  "added_tokens": [
    {
      "id": 0,
      "content": "<s>",
      "single_word": false,
      "lstrip": false,
      "rstrip": false,
      "normalized": false,
      "special": true
    },
    {
      "id": 1,
      "content": "</s>",
      "single_word": false,
      "lstrip": false,
      "rstrip": false,
      "normalized": false,
      "special": true
    },
    {
      "id": 2,
      "content": "<unk>",
      "single_word": false,
      "lstrip": false,
      "rstrip": false,
      "normalized": false,
      "special": true
    },
    {
      "id": 3,
      "content": "<pad>",
      "single_word": false,
      "lstrip": false,
      "rstrip": false,
      "normalized": false,
      "special": true
    },
    {
      "id": 4,
      "content": "<|conv|>",
      "single_word": false,
      "lstrip": false,
      "rstrip": false,
      "normalized": false,
      "special": true
    },
    {
      "id": 5,
      "content": "<|turn|>",
      "single_word": false,
      "lstrip": false,
      "rstrip": false,
      "normalized": false,
      "special": true
    },
    {
      "id": 6,
      "content": "<|end|>",
      "single_word": false,
      "lstrip": false,
      "rstrip": false,
      "normalized": false,
      "special": true
    }
  ],
  "normalizer": {
    "type": "NFKC"
  },
  "pre_tokenizer": {
    "type": "Metaspace",
    "replacement": "▁",
    "prepend_scheme": "first",
    "split": true
  },
  "post_processor": {
    "type": "TemplateProcessing",
    "single": [
      {
        "Sequence": {
          "id": "A",
          "type_id": 0
        }
      }
    ],
    "pair": [
      {
        "Sequence": {
          "id": "A",
          "type_id": 0
        }
      },
      {
        "Sequence": {
          "id": "B",
          "type_id": 1
        }
      }
    ],
    "special_tokens": {}
  },
  "decoder": {
    "type": "Sequence",
    "decoders": [
      {
        "type": "Replace",
        "pattern": {
          "String": "▁"
        },
        "content": " "
      },
      {
        "type": "ByteFallback"
      },
      {
        "type": "Fuse"
      },
      {
        "type": "Strip",
        "content": " ",
        "start": 1,
        "stop": 0
      }
    ]
  },
  "model": {
    "type": "BPE",
    "dropout": null,
    "unk_token": "<unk>",
    "continuing_subword_prefix": null,
    "end_of_word_suffix": null,
    "fuse_unk": false,
    "byte_fallback": true,
    "ignore_merges": false,
    "vocab": {
      "<s>": 0,
      "</s>": 1,
      "<unk>": 2,
      "<pad>": 3,
      "<|conv|>": 4,
      "<|turn|>": 5,
      "<|end|>": 6,
      "<0x00>": 7,
      "<0x01>": 8,
      "<0x02>": 9,
      "<0x03>": 10,
      "<0x04>": 11,
      "<0x05>": 12,
      "<0x06>": 13,
      "<0x07>": 14,
      "<0x08>": 15,
      "<0x09>": 16,
      "<0x0A>": 17,
      "<0x0B>": 18,
      "<0x0C>": 19,
      "<0x0D>": 20,
      "<0x0E>": 21,
      "<0x0F>": 22,
      "<0x10>": 23,
      "<0x11>": 24,
      "<0x12>": 25,
      "<0x13>": 26,
      "<0x14>": 27,
      "<0x15>": 28,
      "<0x16>": 29,
      "<0x17>": 30,
      "<0x18>": 31,
      "<0x19>": 32,
      "<0x1A>": 33,
      "<0x1B>": 34,
      "<0x1C>": 35,
      "<0x1D>": 36,
      "<0x1E>": 37,
      "<0x1F>": 38,
      "<0x20>": 39,
      "<0x21>": 40,
      "<0x22>": 41,
      "<0x23>": 42,
      "<0x24>": 43,
      "<0x25>": 44,
      "<0x26>": 45,
      "<0x27>": 46,
      "<0x28>": 47,
      "<0x29>": 48,
      "<0x2A>": 49,
      "<0x2B>": 50,
      "<0x2C>": 51,
      "<0x2D>": 52,
      "<0x2E>": 53,
      "<0x2F>": 54,
      "<0x30>": 55,
      "<0x31>": 56,
      "<0x32>": 57,
      "<0x33>": 58,
      "<0x34>": 59,
      "<0x35>": 60,
      "<0x36>": 61,
      "<0x37>": 62,
      "<0x38>": 63,
      "<0x39>": 64,
      "<0x3A>": 65,
      "<0x3B>": 66,
      "<0x3C>": 67,
      "<0x3D>": 68,
      "<0x3E>": 69,
      "<0x3F>": 70,
      "<0x40>": 71,
      "<0x41>": 72,
      "<0x42>": 73,
      "<0x43>": 74,
      "<0x44>": 75,
      "<0x45>": 76,
      "<0x46>": 77,
      "<0x47>": 78,
      "<0x48>": 79,
      "<0x49>": 80,
      "<0x4A>": 81,
      "<0x4B>": 82,
      "<0x4C>": 83,
      "<0x4D>": 84,
      "<0x4E>": 85,
      "<0x4F>": 86,
      "<0x50>": 87,
      "<0x51>": 88,
      "<0x52>": 89,
      "<0x53>": 90,
      "<0x54>": 91,
      "<0x55>": 92,
      "<0x56>": 93,
      "<0x57>": 94,
      "<0x58>": 95,
      "<0x59>": 96,
      "<0x5A>": 97,
      "<0x5B>": 98,
      "<0x5C>": 99,
      "<0x5D>": 100,
      "<0x5E>": 101,
      "<0x5F>": 102,
      "<0x60>": 103,
      "<0x61>": 104,
      "<0x62>": 105,
      "<0x63>": 106,
      "<0x64>": 107,
      "<0x65>": 108,
      "<0x66>": 109,
      "<0x67>": 110,
      "<0x68>": 111,
      "<0x69>": 112,
      "<0x6A>": 113,
      "<0x6B>": 114,
      "<0x6C>": 115,
      "<0x6D>": 116,
      "<0x6E>": 117,
      "<0x6F>": 118,
      "<0x70>": 119,
      "<0x71>": 120,
      "<0x72>": 121,
      "<0x73>": 122,
      "<0x74>": 123,
      "<0x75>": 124,
      "<0x76>": 125,
      "<0x77>": 126,
      "<0x78>": 127,
      "<0x79>": 128,
      "<0x7A>": 129,
      "<0x7B>": 130,
      "<0x7C>": 131,
      "<0x7D>": 132,
      "<0x7E>": 133,
      "<0x7F>": 134,
      "<0x80>": 135,
      "<0x81>": 136,
      "<0x82>": 137,
      "<0x83>": 138,
      "<0x84>": 139,
      "<0x85>": 140,
      "<0x86>": 141,
      "<0x87>": 142,
      "<0x88>": 143,
      "<0x89>": 144,
      "<0x8A>": 145,
      "<0x8B>": 146,
      "<0x8C>": 147,
      "<0x8D>": 148,
      "<0x8E>": 149,
      "<0x8F>": 150,
      "<0x90>": 151,
      "<0x91>": 152,
      "<0x92>": 153,
      "<0x93>": 154,
      "<0x94>": 155,
      "<0x95>": 156,
      "<0x96>": 157,
      "<0x97>": 158,
      "<0x98>": 159,
      "<0x99>": 160,
      "<0x9A>": 161,
      "<0x9B>": 162,
      "<0x9C>": 163,
      "<0x9D>": 164,
      "<0x9E>": 165,
      "<0x9F>": 166,
      "<0xA0>": 167,
      "<0xA1>": 168,
      "<0xA2>": 169,
      "<0xA3>": 170,
      "<0xA4>": 171,
      "<0xA5>": 172,
      "<0xA6>": 173,
      "<0xA7>": 174,
      "<0xA8>": 175,
      "<0xA9>": 176,
      "<0xAA>": 177,
      "<0xAB>": 178,
      "<0xAC>": 179,
      "<0xAD>": 180,
      "<0xAE>": 181,
      "<0xAF>": 182,
      "<0xB0>": 183,
      "<0xB1>": 184,
      "<0xB2>": 185,
      "<0xB3>": 186,
      "<0xB4>": 187,
      "<0xB5>": 188,
      "<0xB6>": 189,
      "<0xB7>": 190,
      "<0xB8>": 191,
      "<0xB9>": 192,
      "<0xBA>": 193,
      "<0xBB>": 194,
      "<0xBC>": 195,
      "<0xBD>": 196,
      "<0xBE>": 197,
      "<0xBF>": 198,
      "<0xC0>": 199,
      "<0xC1>": 200,
      "<0xC2>": 201,
      "<0xC3>": 202,
      "<0xC4>": 203,
      "<0xC5>": 204,
      "<0xC6>": 205,
      "<0xC7>": 206,
      "<0xC8>": 207,
      "<0xC9>": 208,
      "<0xCA>": 209,
      "<0xCB>": 210,
      "<0xCC>": 211,
      "<0xCD>": 212,
      "<0xCE>": 213,
      "<0xCF>": 214,
      "<0xD0>": 215,
      "<0xD1>": 216,
      "<0xD2>": 217,
      "<0xD3>": 218,
      "<0xD4>": 219,
      "<0xD5>": 220,
      "<0xD6>": 221,
      "<0xD7>": 222,
      "<0xD8>": 223,
      "<0xD9>": 224,
      "<0xDA>": 225,
      "<0xDB>": 226,
      "<0xDC>": 227,
      "<0xDD>": 228,
      "<0xDE>": 229,
      "<0xDF>": 230,
      "<0xE0>": 231,
      "<0xE1>": 232,
      "<0xE2>": 233,
      "<0xE3>": 234,
      "<0xE4>": 235,
      "<0xE5>": 236,
      "<0xE6>": 237,
      "<0xE7>": 238,
      "<0xE8>": 239,
      "<0xE9>": 240,
      "<0xEA>": 241,
      "<0xEB>": 242,
      "<0xEC>": 243,
      "<0xED>": 244,
      "<0xEE>": 245,
      "<0xEF>": 246,
      "<0xF0>": 247,
      "<0xF1>": 248,
      "<0xF2>": 249,
      "<0xF3>": 250,
      "<0xF4>": 251,
      "<0xF5>": 252,
      "<0xF6>": 253,
      "<0xF7>": 254,
      "<0xF8>": 255,
      "<0xF9>": 256,
      "<0xFA>": 257,
      "<0xFB>": 258,
      "<0xFC>": 259,
      "<0xFD>": 260,
      "<0xFE>": 261,
      "<0xFF>": 262,
      "\u0002": 263,
      "\t": 264,
      "\n": 265,
      "\r": 266,
      "!": 267,
      "\"": 268,
      "#": 269,
      "$": 270,
      "%": 271,
      "&": 272,
      "'": 273,
      "(": 274,
      ")": 275,
      "*": 276,
      "+": 277,
      ",": 278,
      "-": 279,
      ".": 280,
      "/": 281,
      "0": 282,
      "1": 283,
      "2": 284,
      "3": 285,
      "4": 286,
      "5": 287,
      "6": 288,
      "7": 289,
      "8": 290,
      "9": 291,
      ":": 292,
      ";": 293,
      "<": 294,
      "=": 295,
      ">": 296,
      "?": 297,
      "@": 298,
      "A": 299,
      "B": 300,
      "C": 301,
      "D": 302,
      "E": 303,
      "F": 304,
      "G": 305,
      "H": 306,
      "I": 307,
      "J": 308,
      "K": 309,
      "L": 310,
      "M": 311,
      "N": 312,
      "O": 313,
      "P": 314,
      "Q": 315,
      "R": 316,
      "S": 317,
      "T": 318,
      "U": 319,
      "V": 320,
      "W": 321,
      "X": 322,
      "Y": 323,
      "Z": 324,
      "[": 325,
      "\\": 326,
      "]": 327,
      "^": 328,
      "_": 329,
      "`": 330,
      "a": 331,
      "b": 332,
      "c": 333,
      "d": 334,
      "e": 335,
      "f": 336,
      "g": 337,
      "h": 338,
      "i": 339,
      "j": 340,
      "k": 341,
      "l": 342,
      "m": 343,
      "n": 344,
      "o": 345,
      "p": 346,
      "q": 347,
      "r": 348,
      "s": 349,
      "t": 350,
      "u": 351,
      "v": 352,
      "w": 353,
      "x": 354,
      "y": 355,
      "z": 356,
      "{": 357,
      "|": 358,
      "}": 359,
      "~": 360,
      "¡": 361,
      "¢": 362,
      "£": 363,
      "¤": 364,
      "¥": 365,
      "¦": 366,
      "§": 367,
      "©": 368,
      "«": 369,
      "¬": 370,
      "®": 371,
      "°": 372,
      "±": 373,
      "¶": 374,
      "·": 375,
      "»": 376,
      "¿": 377,
      "À": 378,
      "Á": 379,
      "Â": 380,
      "Ã": 381,
      "Ä": 382,
      "Å": 383,
      "Æ": 384,
      "Ç": 385,
      "È": 386,
      "É": 387,
      "Ê": 388,
      "Ë": 389,
      "Ì": 390,
      "Í": 391,
      "Î": 392,
      "Ï": 393,
      "Ð": 394,
      "Ñ": 395,
      "Ò": 396,
      "Ó": 397,
      "Ô": 398,
      "Õ": 399,
      "Ö": 400,
      "×": 401,
      "Ø": 402,
      "Ù": 403,
      "Ú": 404,
      "Û": 405,
      "Ü": 406,
      "Ý": 407,
      "Þ": 408,
      "ß": 409,
      "à": 410,
      "á": 411,
      "â": 412,
      "ã": 413,
      "ä": 414,
      "å": 415,
      "æ": 416,
      "ç": 417,
      "è": 418,
      "é": 419,
      "ê": 420,
      "ë": 421,
      "ì": 422,
      "í": 423,
      "î": 424,
      "ï": 425,
      "ð": 426,
      "ñ": 427,
      "ò": 428,
      "ó": 429,
      "ô": 430,
      "õ": 431,
      "ö": 432,
      "÷": 433,
      "ø": 434,
      "ù": 435,
      "ú": 436,
      "û": 437,
      "ü": 438,
      "ý": 439,
      "þ": 440,
      "ÿ": 441,
      "Ā": 442,
      "ā": 443,
      "Ă": 444,
      "ă": 445,
      "Ą": 446,
      "ą": 447,
      "Ć": 448,
      "ć": 449,
      "Ĉ": 450,
      "ĉ": 451,
      "Ċ": 452,
      "Č": 453,
      "č": 454,
      "Ď": 455,
      "ď": 456,
      "Đ": 457,
      "đ": 458,
      "Ē": 459,
      "ē": 460,
      "ĕ": 461,
      "Ė": 462,
      "ė": 463,
      "Ę": 464,
      "ę": 465,
      "Ě": 466,
      "ě": 467,
      "Ĝ": 468,
      "ĝ": 469,
      "Ğ": 470,
      "ğ": 471,
      "Ġ": 472,
      "ġ": 473,
      "ģ": 474,
      "Ĥ": 475,
      "ĥ": 476,
      "Ħ": 477,
      "ħ": 478,
      "Ĩ": 479,
      "ĩ": 480,
      "Ī": 481,
      "ī": 482,
      "ĭ": 483,
      "Į": 484,
      "į": 485,
      "İ": 486,
      "ı": 487,
      "ĵ": 488,
      "Ķ": 489,
      "ĸ": 490,
      "Ĺ": 491,
      "ĺ": 492,
      "Ļ": 493,
      "ļ": 494,
      "Ľ": 495,
      "ľ": 496,
      "Ł": 497,
      "ł": 498,
      "Ń": 499,
      "ń": 500,
      "Ņ": 501,
      "ņ": 502,
      "Ň": 503,
      "ň": 504,
      "Ŋ": 505,
      "ŋ": 506,
      "Ō": 507,
      "ō": 508,
      "ŏ": 509,
      "Ő": 510,
      "ő": 511,
      "Œ": 512,
      "œ": 513,
      "Ŕ": 514,
      "ŕ": 515,
      "Ŗ": 516,
      "ŗ": 517,
      "Ř": 518,
      "ř": 519,
      "Ś": 520,
      "ś": 521,
      "Ŝ": 522,
      "ŝ": 523,
      "Ş": 524,
      "ş": 525,
      "Š": 526,
      "š": 527,
      "Ţ": 528,
      "ţ": 529,
      "Ť": 530,
      "ť": 531,
      "Ŧ": 532,
      "ŧ": 533,
      "ũ": 534,
      "ū": 535,
      "Ŭ": 536,
      "ŭ": 537,
      "Ů": 538,
      "ů": 539,
      "ű": 540,
      "Ų": 541,
      "ų": 542,
      "Ŵ": 543,
      "ŵ": 544,
      "Ŷ": 545,
      "ŷ": 546,
      "Ÿ": 547,
      "Ź": 548,
      "ź": 549,
      "Ż": 550,
      "ż": 551,
      "Ž": 552,
      "ž": 553,
      "ƃ": 554,
      "Ƅ": 555,
      "Ɔ": 556,
      "Ǝ": 557,
      "Ə": 558,
      "Ɛ": 559,
      "ƒ": 560,
      "Ɠ": 561,
      "Ɣ": 562,
      "ƕ": 563,
      "Ɨ": 564,
      "ƙ": 565,
      "ƛ": 566,
      "Ơ": 567,
      "ơ": 568,
      "ƣ": 569,
      "Ƥ": 570,
      "ƨ": 571,
      "ƫ": 572,
      "Ƭ": 573,
      "Ư": 574,
      "ư": 575,
      "Ʋ": 576,
      "ƴ": 577,
      "Ƶ": 578,
      "Ʒ": 579,
      "Ƹ": 580,
      "ƺ": 581,
      "ǀ": 582,
      "ǁ": 583,
      "ǂ": 584,
      "ǃ": 585,
      "ǎ": 586,
      "ǐ": 587,
      "ǒ": 588,
      "ǔ": 589,
      "ǝ": 590,
      "ǡ": 591,
      "ǣ": 592,
      "Ǥ": 593,
      "Ǧ": 594,
      "ǧ": 595,
      "Ǯ": 596,
      "Ǹ": 597,
      "ǻ": 598,
      "Ǿ": 599,
      "ǿ": 600,
      "Ȃ": 601,
      "ȃ": 602,
      "Ȅ": 603,
      "ȅ": 604,
      "Ȇ": 605,
      "ȇ": 606,
      "Ȉ": 607,
      "ȉ": 608,
      "Ȋ": 609,
      "ȋ": 610,
      "Ȍ": 611,
      "ȍ": 612,
      "Ȏ": 613,
      "ȏ": 614,
      "Ȑ": 615,
      "ȑ": 616,
      "Ȓ": 617,
      "ȓ": 618,
      "Ȕ": 619,
      "ȕ": 620,
      "Ȗ": 621,
      "ȗ": 622,
      "Ș": 623,
      "ș": 624,
      "Ț": 625,
      "ț": 626,
      "Ȝ": 627,
      "ȝ": 628,
      "Ȟ": 629,
      "ȟ": 630,
      "Ƞ": 631,
      "ȡ": 632,
      "Ȣ": 633,
      "ȣ": 634,
      "Ȥ": 635,
      "ȥ": 636,
      "Ȧ": 637,
      "ȧ": 638,
      "Ȩ": 639,
      "ȩ": 640,
      "Ȫ": 641,
      "ȫ": 642,
      "Ȭ": 643,
      "ȭ": 644,
      "Ȯ": 645,
      "ȯ": 646,
      "Ȱ": 647,
      "ȱ": 648,
      "Ȳ": 649,
      "ȳ": 650,
      "ȴ": 651,
      "ȵ": 652,
      "ȶ": 653,
      "ȷ": 654,
      "ȸ": 655,
      "ȹ": 656,
      "Ⱥ": 657,
      "Ȼ": 658,
      "ȼ": 659,
      "Ƚ": 660,
      "Ⱦ": 661,
      "ȿ": 662,
      "ɀ": 663,
      "Ɂ": 664,
      "ɂ": 665,
      "Ƀ": 666,
      "Ʉ": 667,
      "Ʌ": 668,
      "Ɇ": 669,
      "ɇ": 670,
      "Ɉ": 671,
      "ɉ": 672,
      "Ɋ": 673,
      "ɋ": 674,
      "Ɍ": 675,
      "ɍ": 676,
      "Ɏ": 677,
      "ɏ": 678,
      "ɐ": 679,
      "ɑ": 680,
      "ɒ": 681,
      "ɓ": 682,
      "ɔ": 683,
      "ɕ": 684,
      "ɗ": 685,
      "ɘ": 686,
      "ə": 687,
      "ɛ": 688,
      "ɜ": 689,
      "ɞ": 690,
      "ɟ": 691,
      "ɠ": 692,
      "ɡ": 693,
      "ɢ": 694,
      "ɣ": 695,
      "ɤ": 696,
      "ɥ": 697,
      "ɦ": 698,
      "ɨ": 699,
      "ɩ": 700,
      "ɪ": 701,
      "ɫ": 702,
      "ɬ": 703,
      "ɭ": 704,
      "ɯ": 705,
      "ɰ": 706,
      "ɱ": 707,
      "ɲ": 708,
      "ɳ": 709,
      "ɴ": 710,
      "ɵ": 711,
      "ɸ": 712,
      "ɹ": 713,
      "ɺ": 714,
      "ɾ": 715,
      "ɿ": 716,
      "ʀ": 717,
      "ʁ": 718,
      "ʂ": 719,
      "ʃ": 720,
      "ʅ": 721,
      "ʇ": 722,
      "ʉ": 723,
      "ʊ": 724,
      "ʋ": 725,
      "ʌ": 726,
      "ʍ": 727,
      "ʎ": 728,
      "ʏ": 729,
      "ʐ": 730,
      "ʑ": 731,
      "ʒ": 732,
      "ʔ": 733,
      "ʕ": 734,
      "ʖ": 735,
      "ʙ": 736,
      "ʚ": 737,
      "ʜ": 738,
      "ʝ": 739,
      "ʞ": 740,
      "ʟ": 741,
      "ʠ": 742,
      "ʡ": 743,
      "ʫ": 744,
      "ʹ": 745,
      "ʺ": 746,
      "ʻ": 747,
      "ʼ": 748,
      "ʽ": 749,
      "ʾ": 750,
      "ʿ": 751,
      "ˁ": 752,
      "ˆ": 753,
      "ˇ": 754,
      "ˈ": 755,
      "ˉ": 756,
      "ˊ": 757,
      "ˋ": 758,
      "ˌ": 759,
      "ˎ": 760,
      "ˏ": 761,
      "ː": 762,
      "ˑ": 763,
      "˒": 764,
      "˓": 765,
      "˖": 766,
      "˗": 767,
      "ˬ": 768,
      "ˮ": 769,
      "˴": 770,
      "˸": 771,
      "˹": 772,
      "˺": 773,
      "˼": 774,
      "̀": 775,
      "́": 776,
      "̂": 777,
      "̃": 778,
      "̄": 779,
      "̅": 780,
      "̆": 781,
      "̇": 782,
      "̈": 783,
      "̉": 784,
      "̊": 785,
      "̋": 786,
      "̌": 787,
      "̍": 788,
      "̐": 789,
      "̒": 790,
      "̓": 791,
      "̕": 792,
      "̗": 793,
      "̘": 794,
      "̛": 795,
      "̜": 796,
      "̝": 797,
      "̞": 798,
      "̟": 799,
      "̠": 800,
      "̡": 801,
      "̢": 802,
      "̣": 803,
      "̤": 804,
      "̥": 805,
      "̧": 806,
      "̨": 807,
      "̩": 808,
      "̪": 809,
      "̫": 810,
      "̬": 811,
      "̭": 812,
      "̮": 813,
      "̯": 814,
      "̰": 815,
      "̱": 816,
      "̲": 817,
      "̳": 818,
      "̴": 819,
      "̵": 820,
      "̶": 821,
      "̷": 822,
      "̸": 823,
      "̺": 824,
      "̻": 825,
      "̼": 826,
      "̽": 827,
      "̾": 828,
      "̿": 829,
      "ͅ": 830,
      "͆": 831,
      "͈": 832,
      "͍": 833,
      "͎": 834,
      "͏": 835,
      "͐": 836,
      "͒": 837,
      "͕": 838,
      "͖": 839,
      "͗": 840,
      "͘": 841,
      "͙": 842,
      "͚": 843,
      "͛": 844,
      "͜": 845,
      "͝": 846,
      "͟": 847,
      "͠": 848,
      "͡": 849,
      "ͥ": 850,
      "ͦ": 851,
      "ͩ": 852,
      "Ͱ": 853,
      "ͱ": 854,
      "Ͳ": 855,
      "ͳ": 856,
      "͵": 857,
      "Ͷ": 858,
      "ͷ": 859,
      "ͻ": 860,
      "ͼ": 861,
      "ͽ": 862,
      "Ϳ": 863,
      "Ά": 864,
      "Έ": 865,
      "Ή": 866,
      "Ί": 867,
      "Ό": 868,
      "Ύ": 869,
      "Ώ": 870,
      "ΐ": 871,
      "Α": 872,
      "Β": 873,
      "Γ": 874,
      "Δ": 875,
      "Ε": 876,
      "Ζ": 877,
      "Η": 878,
      "Θ": 879,
      "Ι": 880,
      "Κ": 881,
      "Λ": 882,
      "Μ": 883,
      "Ν": 884,
      "Ξ": 885,
      "Ο": 886,
      "Π": 887,
      "Ρ": 888,
      "Σ": 889,
      "Τ": 890,
      "Υ": 891,
      "Φ": 892,
      "Χ": 893,
      "Ψ": 894,
      "Ω": 895,
      "Ϊ": 896,
      "Ϋ": 897,
      "ά": 898,
      "έ": 899,
      "ή": 900,
      "ί": 901,
      "ΰ": 902,
      "α": 903,
      "β": 904,
      "γ": 905,
      "δ": 906,
      "ε": 907,
      "ζ": 908,
      "η": 909,
      "θ": 910,
      "ι": 911,
      "κ": 912,
      "λ": 913,
      "μ": 914,
      "ν": 915,
      "ξ": 916,
      "ο": 917,
      "π": 918,
      "ρ": 919,
      "ς": 920,
      "σ": 921,
      "τ": 922,
      "υ": 923,
      "φ": 924,
      "χ": 925,
      "ψ": 926,
      "ω": 927,
      "ϊ": 928,
      "ϋ": 929,
      "ό": 930,
      "ύ": 931,
      "ώ": 932,
      "ϗ": 933,
      "Ϙ": 934,
      "ϙ": 935,
      "Ϛ": 936,
      "ϛ": 937,
      "Ϝ": 938,
      "ϝ": 939,
      "Ϟ": 940,
      "ϟ": 941,
      "Ϡ": 942,
      "ϡ": 943,
      "Ϣ": 944,
      "ϣ": 945,
      "Ϥ": 946,
      "ϥ": 947,
      "Ϧ": 948,
      "ϧ": 949,
      "Ϩ": 950,
      "ϩ": 951,
      "Ϫ": 952,
      "ϫ": 953,
      "Ϭ": 954,
      "ϭ": 955,
      "Ϯ": 956,
      "ϯ": 957,
      "ϳ": 958,
      "϶": 959,
      "Ϸ": 960,
      "ϸ": 961,
      "Ϻ": 962,
      "ϻ": 963,
      "ϼ": 964,
      "Ͻ": 965,
      "Ͼ": 966,
      "Ͽ": 967,
      "Ё": 968,
      "Ђ": 969,
      "Ѓ": 970,
      "Є": 971,
      "Ѕ": 972,
      "І": 973,
      "Ї": 974,
      "Ј": 975,
      "Љ": 976,
      "Њ": 977,
      "Ћ": 978,
      "Ќ": 979,
      "Ў": 980,
      "Џ": 981,
      "А": 982,
      "Б": 983,
      "В": 984,
      "Г": 985,
      "Д": 986,
      "Е": 987,
      "Ж": 988,
      "З": 989,
      "И": 990,
      "Й": 991,
      "К": 992,
      "Л": 993,
      "М": 994,
      "Н": 995,
      "О": 996,
      "П": 997,
      "Р": 998,
      "С": 999,
      "Т": 1000,
      "У": 1001,
      "Ф": 1002,
      "Х": 1003,
      "Ц": 1004,
      "Ч": 1005,
      "Ш": 1006,
      "Щ": 1007,
      "Ъ": 1008,
      "Ы": 1009,
      "Ь": 1010,
      "Э": 1011,
      "Ю": 1012,
      "Я": 1013,
      "а": 1014,
      "б": 1015,
      "в": 1016,
      "г": 1017,
      "д": 1018,
      "е": 1019,
      "ж": 1020,
      "з": 1021,
      "и": 1022,
      "й": 1023,
      "к": 1024,
      "л": 1025,
      "м": 1026,
      "н": 1027,
      "о": 1028,
      "п": 1029,
      "р": 1030,
      "с": 1031,
      "т": 1032,
      "у": 1033,
      "ф": 1034,
      "х": 1035,
      "ц": 1036,
      "ч": 1037,
      "ш": 1038,
      "щ": 1039,
      "ъ": 1040,
      "ы": 1041,
      "ь": 1042,
      "э": 1043,
      "ю": 1044,
      "я": 1045,
      "ѐ": 1046,
      "ё": 1047,
      "ђ": 1048,
      "ѓ": 1049,
      "є": 1050,
      "ѕ": 1051,
      "і": 1052,
      "ї": 1053,
      "ј": 1054,
      "љ": 1055,
      "њ": 1056,
      "ћ": 1057,
      "ќ": 1058,
      "ў": 1059,
      "џ": 1060,
      "Ѡ": 1061,
      "ѡ": 1062,
      "Ѣ": 1063,
      "ѣ": 1064,
      "Ѧ": 1065,
      "ѧ": 1066,
      "Ѩ": 1067,
      "ѫ": 1068,
      "Ѭ": 1069,
      "Ѯ": 1070,
      "Ѱ": 1071,
      "Ѳ": 1072,
      "ѳ": 1073,
      "ѵ": 1074,
      "Ѷ": 1075,
      "ѷ": 1076,
      "Ѻ": 1077,
      "ѿ": 1078,
      "҄": 1079,
      "҉": 1080,
      "Ґ": 1081,
      "ґ": 1082,
      "Ғ": 1083,
      "ғ": 1084,
      "ҕ": 1085,
      "ҙ": 1086,
      "Қ": 1087,
      "қ": 1088,
      "Ҝ": 1089,
      "Ҟ": 1090,
      "ҡ": 1091,
      "Ң": 1092,
      "ң": 1093,
      "ҥ": 1094,
      "ҧ": 1095,
      "Ҩ": 1096,
      "Ү": 1097,
      "ү": 1098,
      "Ұ": 1099,
      "Ҳ": 1100,
      "ҳ": 1101,
      "Ҷ": 1102,
      "ҷ": 1103,
      "Һ": 1104,
      "һ": 1105,
      "Ӏ": 1106,
      "Ӎ": 1107,
      "ӏ": 1108,
      "ә": 1109,
      "Ӝ": 1110,
      "ӝ": 1111,
      "ӡ": 1112,
      "ӣ": 1113,
      "ӧ": 1114,
      "Ө": 1115,
      "ө": 1116,
      "ӯ": 1117,
      "ӳ": 1118,
      "Ӻ": 1119,
      "Ӽ": 1120,
      "ӿ": 1121,
      "Ԁ": 1122,
      "ԁ": 1123,
      "ԍ": 1124,
      "ԏ": 1125,
      "ԛ": 1126,
      "ԥ": 1127,
      "Ԭ": 1128,
      "Ա": 1129,
      "Գ": 1130,
      "Ե": 1131,
      "Թ": 1132,
      "Ժ": 1133,
      "Խ": 1134,
      "Կ": 1135,
      "Հ": 1136,
      "Ձ": 1137,
      "Մ": 1138,
      "Յ": 1139,
      "Ն": 1140,
      "Շ": 1141,
      "Ո": 1142,
      "Պ": 1143,
      "Ս": 1144,
      "՞": 1145,
      "ա": 1146,
      "բ": 1147,
      "գ": 1148,
      "դ": 1149,
      "ե": 1150,
      "զ": 1151,
      "է": 1152,
      "թ": 1153,
      "ի": 1154,
      "լ": 1155,
      "խ": 1156,
      "ծ": 1157,
      "կ": 1158,
      "հ": 1159,
      "ղ": 1160,
      "ճ": 1161,
      "մ": 1162,
      "յ": 1163,
      "ն": 1164,
      "ո": 1165,
      "ս": 1166,
      "վ": 1167,
      "տ": 1168,
      "ր": 1169,
      "ց": 1170,
      "ւ": 1171,
      "փ": 1172,
      "ք": 1173,
      "օ": 1174,
      "։": 1175,
      "֍": 1176,
      "֑": 1177,
      "֙": 1178,
      "֠": 1179,
      "֡": 1180,
      "֥": 1181,
      "֯": 1182,
      "ְ": 1183,
      "ֱ": 1184,
      "ֲ": 1185,
      "ֳ": 1186,
      "ִ": 1187,
      "ֵ": 1188,
      "ֶ": 1189,
      "ַ": 1190,
      "ָ": 1191,
      "ֹ": 1192,
      "ֺ": 1193,
      "ֻ": 1194,
      "ּ": 1195,
      "ֽ": 1196,
      "־": 1197,
      "ֿ": 1198,
      "׀": 1199,
      "ׁ": 1200,
      "ׂ": 1201,
      "׃": 1202,
      "ׄ": 1203,
      "א": 1204,
      "ב": 1205,
      "ג": 1206,
      "ד": 1207,
      "ה": 1208,
      "ו": 1209,
      "ז": 1210,
      "ח": 1211,
      "ט": 1212,
      "י": 1213,
      "ך": 1214,
      "כ": 1215,
      "ל": 1216,
      "ם": 1217,
      "מ": 1218,
      "ן": 1219,
      "נ": 1220,
      "ס": 1221,
      "ע": 1222,
      "ף": 1223,
      "פ": 1224,
      "ץ": 1225,
      "צ": 1226,
      "ק": 1227,
      "ר": 1228,
      "ש": 1229,
      "ת": 1230,
      "ױ": 1231,
      "׳": 1232,
      "״": 1233,
      "؀": 1234,
      "؇": 1235,
      "؈": 1236,
      "؊": 1237,
      "؋": 1238,
      "،": 1239,
      "؎": 1240,
      "؏": 1241,
      "ؑ": 1242,
      "ؒ": 1243,
      "ؓ": 1244,
      "ؔ": 1245,
      "ؕ": 1246,
      "ؖ": 1247,
      "ؗ": 1248,
      "ؘ": 1249,
      "ؚ": 1250,
      "؛": 1251,
      "؜": 1252,
      "؟": 1253,
      "ء": 1254,
      "آ": 1255,
      "أ": 1256,
      "ؤ": 1257,
      "إ": 1258,
      "ئ": 1259,
      "ا": 1260,
      "ب": 1261,
      "ة": 1262,
      "ت": 1263,
      "ث": 1264,
      "ج": 1265,
      "ح": 1266,
      "خ": 1267,
      "د": 1268,
      "ذ": 1269,
      "ر": 1270,
      "ز": 1271,
      "س": 1272,
      "ش": 1273,
      "ص": 1274,
      "ض": 1275,
      "ط": 1276,
      "ظ": 1277,
      "ع": 1278,
      "غ": 1279,
      "ػ": 1280,
      "ؼ": 1281,
      "ؽ": 1282,
      "ؾ": 1283,
      "ؿ": 1284,
      "ـ": 1285,
      "ف": 1286,
      "ق": 1287,
      "ك": 1288,
      "ل": 1289,
      "م": 1290,
      "ن": 1291,
      "ه": 1292,
      "و": 1293,
      "ى": 1294,
      "ي": 1295,
      "ً": 1296,
      "ٌ": 1297,
      "ٍ": 1298,
      "َ": 1299,
      "ُ": 1300,
      "ِ": 1301,
      "ّ": 1302,
      "ْ": 1303,
      "ٓ": 1304,
      "ٔ": 1305,
      "ٕ": 1306,
      "ٖ": 1307,
      "ٗ": 1308,
      "٘": 1309,
      "ٙ": 1310,
      "ٚ": 1311,
      "ٛ": 1312,
      "ٜ": 1313,
      "ٝ": 1314,
      "ٞ": 1315,
      "ٟ": 1316,
      "٠": 1317,
      "١": 1318,
      "٢": 1319,
      "٣": 1320,
      "٤": 1321,
      "٥": 1322,
      "٦": 1323,
      "٧": 1324,
      "٨": 1325,
      "٩": 1326,
      "٪": 1327,
      "٫": 1328,
      "٬": 1329,
      "٭": 1330,
      "ٮ": 1331,
      "ٯ": 1332,
      "ٰ": 1333,
      "ٱ": 1334,
      "ٲ": 1335,
      "ٳ": 1336,
      "ٴ": 1337,
      "ٹ": 1338,
      "ٺ": 1339,
      "ٻ": 1340,
      "ټ": 1341,
      "ٽ": 1342,
      "پ": 1343,
      "ٿ": 1344,
      "ڀ": 1345,
      "ځ": 1346,
      "ڂ": 1347,
      "ڃ": 1348,
      "ڄ": 1349,
      "څ": 1350,
      "چ": 1351,
      "ڇ": 1352,
      "ڈ": 1353,
      "ډ": 1354,
      "ڊ": 1355,
      "ڋ": 1356,
      "ڌ": 1357,
      "ڍ": 1358,
      "ڎ": 1359,
      "ڏ": 1360,
      "ڐ": 1361,
      "ڑ": 1362,
      "ڒ": 1363,
      "ړ": 1364,
      "ڔ": 1365,
      "ڕ": 1366,
      "ږ": 1367,
      "ڗ": 1368,
      "ژ": 1369,
      "ڙ": 1370,
      "ښ": 1371,
      "ڛ": 1372,
      "ڜ": 1373,
      "ڝ": 1374,
      "ڞ": 1375,
      "ڟ": 1376,
      "ڠ": 1377,
      "ڡ": 1378,
      "ڢ": 1379,
      "ڣ": 1380,
      "ڤ": 1381,
      "ڥ": 1382,
      "ڦ": 1383,
      "ڧ": 1384,
      "ڨ": 1385,
      "ک": 1386,
      "ڪ": 1387,
      "ګ": 1388,
      "ڬ": 1389,
      "ڭ": 1390,
      "ڮ": 1391,
      "گ": 1392,
      "ڰ": 1393,
      "ڱ": 1394,
      "ڲ": 1395,
      "ڳ": 1396,
      "ڴ": 1397,
      "ڵ": 1398,
      "ڶ": 1399,
      "ڷ": 1400,
      "ڸ": 1401,
      "ڹ": 1402,
      "ں": 1403,
      "ڻ": 1404,
      "ڼ": 1405,
      "ڽ": 1406,
      "ھ": 1407,
      "ۀ": 1408,
      "ہ": 1409,
      "ۂ": 1410,
      "ۃ": 1411,
      "ۄ": 1412,
      "ۅ": 1413,
      "ۆ": 1414,
      "ۇ": 1415,
      "ۈ": 1416,
      "ۉ": 1417,
      "ۊ": 1418,
      "ۋ": 1419,
      "ی": 1420,
      "ۍ": 1421,
      "ێ": 1422,
      "ۏ": 1423,
      "ې": 1424,
      "ۑ": 1425,
      "ے": 1426,
      "ۓ": 1427,
      "۔": 1428,
      "ە": 1429,
      "ۖ": 1430,
      "ۗ": 1431,
      "ۘ": 1432,
      "ۙ": 1433,
      "ۚ": 1434,
      "ۛ": 1435,
      "ۜ": 1436,
      "۞": 1437,
      "۟": 1438,
      "۠": 1439,
      "ۡ": 1440,
      "ۢ": 1441,
      "ۣ": 1442,
      "ۤ": 1443,
      "ۥ": 1444,
      "ۦ": 1445,
      "ۧ": 1446,
      "ۨ": 1447,
      "۩": 1448,
      "۪": 1449,
      "۫": 1450,
      "۬": 1451,
      "ۭ": 1452,
      "۰": 1453,
      "۱": 1454,
      "۲": 1455,
      "۳": 1456,
      "۴": 1457,
      "۵": 1458,
      "۶": 1459,
      "۷": 1460,
      "۸": 1461,
      "۹": 1462,
      "۽": 1463,
      "۾": 1464,
      "ۿ": 1465,
      "܀": 1466,
      "܅": 1467,
      "܆": 1468,
      "ܐ": 1469,
      "ܒ": 1470,
      "ܓ": 1471,
      "ܔ": 1472,
      "ܕ": 1473,
      "ܗ": 1474,
      "ܘ": 1475,
      "ܙ": 1476,
      "ܚ": 1477,
      "ܛ": 1478,
      "ܝ": 1479,
      "ܟ": 1480,
      "ܠ": 1481,
      "ܡ": 1482,
      "ܢ": 1483,
      "ܣ": 1484,
      "ܤ": 1485,
      "ܥ": 1486,
      "ܦ": 1487,
      "ܨ": 1488,
      "ܩ": 1489,
      "ܪ": 1490,
      "ܫ": 1491,
      "ܬ": 1492,
      "ܰ": 1493,
      "ܲ": 1494,
      "ܳ": 1495,
      "ܶ": 1496,
      "ܺ": 1497,
      "ܼ": 1498,
      "ܽ": 1499,
      "݀": 1500,
      "݂": 1501,
      "݃": 1502,
      "ݏ": 1503,
      "ݑ": 1504,
      "ݒ": 1505,
      "ݕ": 1506,
      "ݗ": 1507,
      "ݘ": 1508,
      "ݙ": 1509,
      "ݠ": 1510,
      "ݡ": 1511,
      "ݢ": 1512,
      "ݣ": 1513,
      "ݤ": 1514,
      "ݥ": 1515,
      "ݦ": 1516,
      "ݧ": 1517,
      "ݮ": 1518,
      "ݯ": 1519,
      "ݰ": 1520,
      "ݲ": 1521,
      "ݴ": 1522,
      "ݵ": 1523,
      "ݶ": 1524,
      "ݷ": 1525,
      "ݸ": 1526,
      "ݹ": 1527,
      "ރ": 1528,
      "ސ": 1529,
      "ޖ": 1530,
      "ޟ": 1531,
      "ޡ": 1532,
      "ޢ": 1533,
      "ޥ": 1534,
      "ް": 1535,
      "ߋ": 1536,
      "ߡ": 1537,
      "ߤ": 1538,
      "ࡧ": 1539,
      "ࡩ": 1540,
      "ࡪ": 1541,
      "ࢪ": 1542,
      "ࣖ": 1543,
      "ࣰ": 1544,
      "ࣱ": 1545,
      "ࣲ": 1546,
      "ँ": 1547,
      "ं": 1548,
      "ः": 1549,
      "अ": 1550,
      "आ": 1551,
      "इ": 1552,
      "ई": 1553,
      "उ": 1554,
      "ऊ": 1555,
      "ए": 1556,
      "ऐ": 1557,
      "ऑ": 1558,
      "औ": 1559,
      "क": 1560,
      "ख": 1561,
      "ग": 1562,
      "घ": 1563,
      "च": 1564,
      "छ": 1565,
      "ज": 1566,
      "झ": 1567,
      "ञ": 1568,
      "ट": 1569,
      "ठ": 1570,
      "ड": 1571,
      "ढ": 1572,
      "ण": 1573,
      "त": 1574,
      "थ": 1575,
      "द": 1576,
      "ध": 1577,
      "न": 1578,
      "प": 1579,
      "फ": 1580,
      "ब": 1581,
      "भ": 1582,
      "म": 1583,
      "य": 1584,
      "र": 1585,
      "ल": 1586,
      "व": 1587,
      "श": 1588,
      "ष": 1589,
      "स": 1590,
      "ह": 1591,
      "़": 1592,
      "ा": 1593,
      "ि": 1594,
      "ी": 1595,
      "ु": 1596,
      "ू": 1597,
      "े": 1598,
      "ै": 1599,
      "ॉ": 1600,
      "ो": 1601,
      "ौ": 1602,
      "्": 1603,
      "ॐ": 1604,
      "।": 1605,
      "॥": 1606,
      "०": 1607,
      "१": 1608,
      "२": 1609,
      "३": 1610,
      "४": 1611,
      "५": 1612,
      "६": 1613,
      "७": 1614,
      "ঁ": 1615,
      "ং": 1616,
      "ঃ": 1617,
      "অ": 1618,
      "আ": 1619,
      "ই": 1620,
      "উ": 1621,
      "এ": 1622,
      "ও": 1623,
      "ঔ": 1624,
      "ক": 1625,
      "খ": 1626,
      "গ": 1627,
      "ঘ": 1628,
      "ঙ": 1629,
      "চ": 1630,
      "ছ": 1631,
      "জ": 1632,
      "ঞ": 1633,
      "ট": 1634,
      "ঠ": 1635,
      "ড": 1636,
      "ণ": 1637,
      "ত": 1638,
      "থ": 1639,
      "দ": 1640,
      "ধ": 1641,
      "ন": 1642,
      "প": 1643,
      "ফ": 1644,
      "ব": 1645,
      "ভ": 1646,
      "ম": 1647,
      "য": 1648,
      "র": 1649,
      "ল": 1650,
      "শ": 1651,
      "ষ": 1652,
      "স": 1653,
      "হ": 1654,
      "়": 1655,
      "া": 1656,
      "ি": 1657,
      "ী": 1658,
      "ু": 1659,
      "ূ": 1660,
      "ৃ": 1661,
      "ে": 1662,
      "ৈ": 1663,
      "ো": 1664,
      "ৌ": 1665,
      "্": 1666,
      "ৎ": 1667,
      "ৣ": 1668,
      "৩": 1669,
      "৲": 1670,
      "৳": 1671,
      "ਂ": 1672,
      "ਅ": 1673,
      "ਆ": 1674,
      "ਕ": 1675,
      "ਦ": 1676,
      "ਧ": 1677,
      "ਪ": 1678,
      "ਬ": 1679,
      "ਮ": 1680,
      "ਰ": 1681,
      "ਲ": 1682,
      "ਾ": 1683,
      "ਿ": 1684,
      "અ": 1685,
      "ગ": 1686,
      "જ": 1687,
      "ત": 1688,
      "દ": 1689,
      "ન": 1690,
      "પ": 1691,
      "મ": 1692,
      "ર": 1693,
      "લ": 1694,
      "વ": 1695,
      "સ": 1696,
      "ા": 1697,
      "ી": 1698,
      "ુ": 1699,
      "ો": 1700,
      "૭": 1701,
      "૱": 1702,
      "ଆ": 1703,
      "ଓ": 1704,
      "ଡ": 1705,
      "ଦ": 1706,
      "ଧ": 1707,
      "ନ": 1708,
      "ପ": 1709,
      "ର": 1710,
      "ଶ": 1711,
      "ି": 1712,
      "୧": 1713,
      "୨": 1714,
      "୭": 1715,
      "அ": 1716,
      "ஆ": 1717,
      "இ": 1718,
      "உ": 1719,
      "ஊ": 1720,
      "எ": 1721,
      "ஐ": 1722,
      "ஓ": 1723,
      "க": 1724,
      "ங": 1725,
      "ச": 1726,
      "ஜ": 1727,
      "ஞ": 1728,
      "ட": 1729,
      "ண": 1730,
      "த": 1731,
      "ந": 1732,
      "ன": 1733,
      "ப": 1734,
      "ம": 1735,
      "ய": 1736,
      "ர": 1737,
      "ற": 1738,
      "ல": 1739,
      "ள": 1740,
      "ழ": 1741,
      "வ": 1742,
      "ஸ": 1743,
      "ஹ": 1744,
      "ா": 1745,
      "ி": 1746,
      "ீ": 1747,
      "ு": 1748,
      "ூ": 1749,
      "ெ": 1750,
      "ே": 1751,
      "ை": 1752,
      "ோ": 1753,
      "்": 1754,
      "௮": 1755,
      "௸": 1756,
      "௹": 1757,
      "ం": 1758,
      "ఆ": 1759,
      "ఊ": 1760,
      "ఎ": 1761,
      "క": 1762,
      "గ": 1763,
      "జ": 1764,
      "త": 1765,
      "ద": 1766,
      "ధ": 1767,
      "ప": 1768,
      "బ": 1769,
      "మ": 1770,
      "ర": 1771,
      "ల": 1772,
      "వ": 1773,
      "శ": 1774,
      "స": 1775,
      "హ": 1776,
      "ా": 1777,
      "ి": 1778,
      "ీ": 1779,
      "ు": 1780,
      "ృ": 1781,
      "ె": 1782,
      "ే": 1783,
      "ై": 1784,
      "్": 1785,
      "౹": 1786,
      "ಂ": 1787,
      "ಅ": 1788,
      "ಆ": 1789,
      "ಈ": 1790,
      "ಏ": 1791,
      "ಒ": 1792,
      "ಔ": 1793,
      "ಕ": 1794,
      "ಖ": 1795,
      "ಗ": 1796,
      "ಚ": 1797,
      "ಜ": 1798,
      "ಟ": 1799,
      "ಠ": 1800,
      "ಡ": 1801,
      "ಣ": 1802,
      "ತ": 1803,
      "ಥ": 1804,
      "ದ": 1805,
      "ಧ": 1806,
      "ನ": 1807,
      "ಪ": 1808,
      "ಬ": 1809,
      "ಭ": 1810,
      "ಮ": 1811,
      "ಯ": 1812,
      "ರ": 1813,
      "ಲ": 1814,
      "ಳ": 1815,
      "ವ": 1816,
      "ಶ": 1817,
      "ಸ": 1818,
      "ಹ": 1819,
      "ಾ": 1820,
      "ಿ": 1821,
      "ು": 1822,
      "ೆ": 1823,
      "ೇ": 1824,
      "ೊ": 1825,
      "ೋ": 1826,
      "್": 1827,
      "ം": 1828,
      "ഃ": 1829,
      "അ": 1830,
      "ഇ": 1831,
      "ഉ": 1832,
      "എ": 1833,
      "ഏ": 1834,
      "ഒ": 1835,
      "ക": 1836,
      "ഖ": 1837,
      "ഗ": 1838,
      "ങ": 1839,
      "ച": 1840,
      "ട": 1841,
      "ണ": 1842,
      "ത": 1843,
      "ഥ": 1844,
      "ദ": 1845,
      "ന": 1846,
      "പ": 1847,
      "മ": 1848,
      "യ": 1849,
      "ര": 1850,
      "റ": 1851,
      "ല": 1852,
      "ള": 1853,
      "വ": 1854,
      "ശ": 1855,
      "ഹ": 1856,
      "ാ": 1857,
      "ി": 1858,
      "ീ": 1859,
      "ു": 1860,
      "ൃ": 1861,
      "െ": 1862,
      "േ": 1863,
      "ൈ": 1864,
      "ോ": 1865,
      "്": 1866,
      "ං": 1867,
      "අ": 1868,
      "ආ": 1869,
      "ඉ": 1870,
      "එ": 1871,
      "ඔ": 1872,
      "ක": 1873,
      "ග": 1874,
      "ජ": 1875,
      "ට": 1876,
      "ඩ": 1877,
      "ණ": 1878,
      "ත": 1879,
      "ථ": 1880,
      "ද": 1881,
      "ධ": 1882,
      "න": 1883,
      "ඳ": 1884,
      "ප": 1885,
      "බ": 1886,
      "භ": 1887,
      "ම": 1888,
      "ය": 1889,
      "ර": 1890,
      "ල": 1891,
      "ව": 1892,
      "ශ": 1893,
      "ෂ": 1894,
      "ස": 1895,
      "හ": 1896,
      "ළ": 1897,
      "ෆ": 1898,
      "්": 1899,
      "ා": 1900,
      "ැ": 1901,
      "ි": 1902,
      "ී": 1903,
      "ු": 1904,
      "ෙ": 1905,
      "ේ": 1906,
      "ො": 1907,
      "ෝ": 1908,
      "ෞ": 1909,
      "෴": 1910,
      "ก": 1911,
      "ข": 1912,
      "ค": 1913,
      "ฆ": 1914,
      "ง": 1915,
      "จ": 1916,
      "ฉ": 1917,
      "ช": 1918,
      "ซ": 1919,
      "ญ": 1920,
      "ฎ": 1921,
      "ฏ": 1922,
      "ฐ": 1923,
      "ฒ": 1924,
      "ณ": 1925,
      "ด": 1926,
      "ต": 1927,
      "ถ": 1928,
      "ท": 1929,
      "ธ": 1930,
      "น": 1931,
      "บ": 1932,
      "ป": 1933,
      "ผ": 1934,
      "พ": 1935,
      "ฟ": 1936,
      "ภ": 1937,
      "ม": 1938,
      "ย": 1939,
      "ร": 1940,
      "ล": 1941,
      "ว": 1942,
      "ศ": 1943,
      "ษ": 1944,
      "ส": 1945,
      "ห": 1946,
      "ฬ": 1947,
      "อ": 1948,
      "ฮ": 1949,
      "ฯ": 1950,
      "ะ": 1951,
      "ั": 1952,
      "า": 1953,
      "ิ": 1954,
      "ี": 1955,
      "ึ": 1956,
      "ื": 1957,
      "ุ": 1958,
      "ู": 1959,
      "ฺ": 1960,
      "฿": 1961,
      "เ": 1962,
      "แ": 1963,
      "โ": 1964,
      "ใ": 1965,
      "ไ": 1966,
      "ๆ": 1967,
      "็": 1968,
      "่": 1969,
      "้": 1970,
      "๊": 1971,
      "๋": 1972,
      "์": 1973,
      "ํ": 1974,
      "๎": 1975,
      "๏": 1976,
      "๑": 1977,
      "๒": 1978,
      "๓": 1979,
      "๔": 1980,
      "๕": 1981,
      "๖": 1982,
      "ຈ": 1983,
      "ລ": 1984,
      "ວ": 1985,
      "າ": 1986,
      "ຶ": 1987,
      "໋": 1988,
      "༄": 1989,
      "༊": 1990,
      "་": 1991,
      "།": 1992,
      "༎": 1993,
      "༒": 1994,
      "༩": 1995,
      "༶": 1996,
      "༺": 1997,
      "༻": 1998,
      "༼": 1999,
      "༽": 2000,
      "ཁ": 2001,
      "ག": 2002,
      "ན": 2003,
      "བ": 2004,
      "འ": 2005,
      "ཡ": 2006,
      "ར": 2007,
      "ལ": 2008,
      "ུ": 2009,
      "ོ": 2010,
      "ཾ": 2011,
      "ྀ": 2012,
      "ྂ": 2013,
      "ྃ": 2014,
      "ྒ": 2015,
      "ྱ": 2016,
      "ྲ": 2017,
      "࿐": 2018,
      "က": 2019,
      "ခ": 2020,
      "င": 2021,
      "စ": 2022,
      "ဆ": 2023,
      "ည": 2024,
      "တ": 2025,
      "ထ": 2026,
      "ဒ": 2027,
      "န": 2028,
      "ပ": 2029,
      "ဖ": 2030,
      "ဗ": 2031,
      "ဘ": 2032,
      "မ": 2033,
      "ရ": 2034,
      "လ": 2035,
      "သ": 2036,
      "အ": 2037,
      "ဥ": 2038,
      "ါ": 2039,
      "ာ": 2040,
      "ိ": 2041,
      "ီ": 2042,
      "ု": 2043,
      "ေ": 2044,
      "ံ": 2045,
      "့": 2046,
      "း": 2047,
      "္": 2048,
      "်": 2049,
      "ျ": 2050,
      "ြ": 2051,
      "ွ": 2052,
      "ှ": 2053,
      "၀": 2054,
      "Ⴢ": 2055,
      "ა": 2056,
      "ბ": 2057,
      "გ": 2058,
      "დ": 2059,
      "ე": 2060,
      "ვ": 2061,
      "ზ": 2062,
      "თ": 2063,
      "ი": 2064,
      "ლ": 2065,
      "მ": 2066,
      "ნ": 2067,
      "ო": 2068,
      "პ": 2069,
      "რ": 2070,
      "ს": 2071,
      "ტ": 2072,
      "უ": 2073,
      "ფ": 2074,
      "ქ": 2075,
      "ღ": 2076,
      "ყ": 2077,
      "შ": 2078,
      "ც": 2079,
      "წ": 2080,
      "ხ": 2081,
      "ჱ": 2082,
      "჻": 2083,
      "ᄀ": 2084,
      "ᄁ": 2085,
      "ᄂ": 2086,
      "ᄃ": 2087,
      "ᄄ": 2088,
      "ᄅ": 2089,
      "ᄆ": 2090,
      "ᄇ": 2091,
      "ᄈ": 2092,
      "ᄊ": 2093,
      "ᄋ": 2094,
      "ᄌ": 2095,
      "ᄍ": 2096,
      "ᄎ": 2097,
      "ᄏ": 2098,
      "ᄐ": 2099,
      "ᄑ": 2100,
      "ᄒ": 2101,
      "ᅠ": 2102,
      "ᅡ": 2103,
      "ᅢ": 2104,
      "ᅣ": 2105,
      "ᅤ": 2106,
      "ᅥ": 2107,
      "ᅦ": 2108,
      "ᅧ": 2109,
      "ᅨ": 2110,
      "ᅩ": 2111,
      "ᅪ": 2112,
      "ᅫ": 2113,
      "ᅬ": 2114,
      "ᅭ": 2115,
      "ᅮ": 2116,
      "ᅯ": 2117,
      "ᅰ": 2118,
      "ᅱ": 2119,
      "ᅲ": 2120,
      "ᅴ": 2121,
      "ᅵ": 2122,
      "ᆻ": 2123,
      "ሀ": 2124,
      "ህ": 2125,
      "ለ": 2126,
      "ሊ": 2127,
      "ላ": 2128,
      "ሌ": 2129,
      "ል": 2130,
      "ሎ": 2131,
      "ሕ": 2132,
      "መ": 2133,
      "ሚ": 2134,
      "ማ": 2135,
      "ሜ": 2136,
      "ም": 2137,
      "ሞ": 2138,
      "ረ": 2139,
      "ሩ": 2140,
      "ሪ": 2141,
      "ራ": 2142,
      "ሬ": 2143,
      "ር": 2144,
      "ሰ": 2145,
      "ሱ": 2146,
      "ሳ": 2147,
      "ሴ": 2148,
      "ስ": 2149,
      "ሸ": 2150,
      "ሺ": 2151,
      "ሽ": 2152,
      "ቁ": 2153,
      "ቃ": 2154,
      "ቄ": 2155,
      "ቅ": 2156,
      "ቆ": 2157,
      "በ": 2158,
      "ቡ": 2159,
      "ባ": 2160,
      "ብ": 2161,
      "ቧ": 2162,
      "ቪ": 2163,
      "ተ": 2164,
      "ቱ": 2165,
      "ቲ": 2166,
      "ታ": 2167,
      "ቴ": 2168,
      "ት": 2169,
      "ቶ": 2170,
      "ቸ": 2171,
      "ቺ": 2172,
      "ች": 2173,
      "ኃ": 2174,
      "ነ": 2175,
      "ና": 2176,
      "ን": 2177,
      "ኖ": 2178,
      "ኙ": 2179,
      "ኛ": 2180,
      "አ": 2181,
      "ኢ": 2182,
      "ኤ": 2183,
      "እ": 2184,
      "ከ": 2185,
      "ካ": 2186,
      "ክ": 2187,
      "ወ": 2188,
      "ው": 2189,
      "ዘ": 2190,
      "ዥ": 2191,
      "የ": 2192,
      "ያ": 2193,
      "ይ": 2194,
      "ዮ": 2195,
      "ዲ": 2196,
      "ዳ": 2197,
      "ድ": 2198,
      "ጀ": 2199,
      "ጅ": 2200,
      "ጉ": 2201,
      "ጋ": 2202,
      "ግ": 2203,
      "ጎ": 2204,
      "ጓ": 2205,
      "ጠ": 2206,
      "ጡ": 2207,
      "ጥ": 2208,
      "ጨ": 2209,
      "ጫ": 2210,
      "ጭ": 2211,
      "ጵ": 2212,
      "ፅ": 2213,
      "ፊ": 2214,
      "ፋ": 2215,
      "ፍ": 2216,
      "ፕ": 2217,
      "፡": 2218,
      "Ꭰ": 2219,
      "Ꭱ": 2220,
      "Ꭵ": 2221,
      "Ꭼ": 2222,
      "Ꭿ": 2223,
      "Ꮇ": 2224,
      "Ꮍ": 2225,
      "Ꮏ": 2226,
      "Ꮑ": 2227,
      "Ꮙ": 2228,
      "Ꮛ": 2229,
      "Ꮜ": 2230,
      "Ꮪ": 2231,
      "Ꮭ": 2232,
      "Ꮮ": 2233,
      "Ꮶ": 2234,
      "Ꮸ": 2235,
      "Ꮻ": 2236,
      "Ᏸ": 2237,
      "ᐂ": 2238,
      "ᐃ": 2239,
      "ᐅ": 2240,
      "ᐈ": 2241,
      "ᐉ": 2242,
      "ᐊ": 2243,
      "ᑌ": 2244,
      "ᑎ": 2245,
      "ᑐ": 2246,
      "ᒋ": 2247,
      "ᒍ": 2248,
      "ᒪ": 2249,
      "ᓂ": 2250,
      "ᓄ": 2251,
      "ᔆ": 2252,
      "ᔕ": 2253,
      "ᕤ": 2254,
      "ᕦ": 2255,
      "ᕼ": 2256,
      "ᖇ": 2257,
      "ᖫ": 2258,
      "ᖭ": 2259,
      "ᖴ": 2260,
      "ᖵ": 2261,
      "ᗐ": 2262,
      "ᗑ": 2263,
      "ᗔ": 2264,
      "ᗕ": 2265,
      "ᗖ": 2266,
      "ᗗ": 2267,
      "ᗚ": 2268,
      "ᗛ": 2269,
      "ᗜ": 2270,
      "ᗡ": 2271,
      "ᗩ": 2272,
      "ᗰ": 2273,
      "ᗴ": 2274,
      "ᗷ": 2275,
      "ᘔ": 2276,
      "ក": 2277,
      "ខ": 2278,
      "ច": 2279,
      "ជ": 2280,
      "ណ": 2281,
      "ព": 2282,
      "ភ": 2283,
      "ម": 2284,
      "រ": 2285,
      "ស": 2286,
      "ា": 2287,
      "ុ": 2288,
      "ែ": 2289,
      "ះ": 2290,
      "្": 2291,
      "។": 2292,
      "៛": 2293,
      "᠂": 2294,
      "᠃": 2295,
      "ᥙ": 2296,
      "ᥫ": 2297,
      "ᬽ": 2298,
      "᭄": 2299,
      "᭡": 2300,
      "Ი": 2301,
      "ᴀ": 2302,
      "ᴁ": 2303,
      "ᴂ": 2304,
      "ᴃ": 2305,
      "ᴄ": 2306,
      "ᴅ": 2307,
      "ᴆ": 2308,
      "ᴇ": 2309,
      "ᴈ": 2310,
      "ᴉ": 2311,
      "ᴊ": 2312,
      "ᴋ": 2313,
      "ᴌ": 2314,
      "ᴍ": 2315,
      "ᴎ": 2316,
      "ᴏ": 2317,
      "ᴐ": 2318,
      "ᴑ": 2319,
      "ᴒ": 2320,
      "ᴓ": 2321,
      "ᴔ": 2322,
      "ᴕ": 2323,
      "ᴖ": 2324,
      "ᴗ": 2325,
      "ᴘ": 2326,
      "ᴙ": 2327,
      "ᴚ": 2328,
      "ᴛ": 2329,
      "ᴜ": 2330,
      "ᴝ": 2331,
      "ᴞ": 2332,
      "ᴟ": 2333,
      "ᴠ": 2334,
      "ᴡ": 2335,
      "ᴢ": 2336,
      "ᴣ": 2337,
      "ᴤ": 2338,
      "ᴥ": 2339,
      "ᴦ": 2340,
      "ᴧ": 2341,
      "ᴨ": 2342,
      "ᴩ": 2343,
      "ᴪ": 2344,
      "ᴫ": 2345,
      "ᴯ": 2346,
      "ᴻ": 2347,
      "ᵎ": 2348,
      "ᵫ": 2349,
      "ᵬ": 2350,
      "ᵭ": 2351,
      "ᵮ": 2352,
      "ᵯ": 2353,
      "ᵰ": 2354,
      "ᵱ": 2355,
      "ᵲ": 2356,
      "ᵳ": 2357,
      "ᵴ": 2358,
      "ᵵ": 2359,
      "ᵶ": 2360,
      "ᵷ": 2361,
      "ᵹ": 2362,
      "ᵺ": 2363,
      "ᵻ": 2364,
      "ᵼ": 2365,
      "ᵽ": 2366,
      "ᵾ": 2367,
      "ᵿ": 2368,
      "ᶀ": 2369,
      "ᶁ": 2370,
      "ᶂ": 2371,
      "ᶃ": 2372,
      "ᶄ": 2373,
      "ᶅ": 2374,
      "ᶆ": 2375,
      "ᶇ": 2376,
      "ᶈ": 2377,
      "ᶉ": 2378,
      "ᶊ": 2379,
      "ᶋ": 2380,
      "ᶌ": 2381,
      "ᶍ": 2382,
      "ᶎ": 2383,
      "ᶏ": 2384,
      "ᶐ": 2385,
      "ᶑ": 2386,
      "ᶒ": 2387,
      "ᶓ": 2388,
      "ᶔ": 2389,
      "ᶕ": 2390,
      "ᶖ": 2391,
      "ᶗ": 2392,
      "ᶘ": 2393,
      "ᶙ": 2394,
      "ᶚ": 2395,
      "᷂": 2396,
      "᷄": 2397,
      "᷅": 2398,
      "Ḇ": 2399,
      "Ḍ": 2400,
      "ḍ": 2401,
      "ḑ": 2402,
      "Ḥ": 2403,
      "ḥ": 2404,
      "ḩ": 2405,
      "Ḫ": 2406,
      "ḫ": 2407,
      "Ḵ": 2408,
      "ḵ": 2409,
      "Ḻ": 2410,
      "Ṁ": 2411,
      "ṁ": 2412,
      "ṃ": 2413,
      "ṇ": 2414,
      "Ṙ": 2415,
      "Ṛ": 2416,
      "ṛ": 2417,
      "ṟ": 2418,
      "Ṣ": 2419,
      "ṣ": 2420,
      "ṥ": 2421,
      "ṧ": 2422,
      "ṩ": 2423,
      "Ṭ": 2424,
      "ṭ": 2425,
      "ṯ": 2426,
      "Ẁ": 2427,
      "ẁ": 2428,
      "ẃ": 2429,
      "Ẅ": 2430,
      "ẅ": 2431,
      "ẓ": 2432,
      "ẙ": 2433,
      "Ạ": 2434,
      "ạ": 2435,
      "Ả": 2436,
      "ả": 2437,
      "Ấ": 2438,
      "ấ": 2439,
      "Ầ": 2440,
      "ầ": 2441,
      "ẩ": 2442,
      "ẫ": 2443,
      "ậ": 2444,
      "ắ": 2445,
      "ằ": 2446,
      "ẳ": 2447,
      "ẵ": 2448,
      "Ặ": 2449,
      "ặ": 2450,
      "ẹ": 2451,
      "Ẻ": 2452,
      "ẻ": 2453,
      "ẽ": 2454,
      "Ế": 2455,
      "ế": 2456,
      "ề": 2457,
      "Ể": 2458,
      "ể": 2459,
      "ễ": 2460,
      "Ệ": 2461,
      "ệ": 2462,
      "Ỉ": 2463,
      "ỉ": 2464,
      "ị": 2465,
      "ọ": 2466,
      "ỏ": 2467,
      "Ố": 2468,
      "ố": 2469,
      "ồ": 2470,
      "Ổ": 2471,
      "ổ": 2472,
      "ỗ": 2473,
      "ộ": 2474,
      "ớ": 2475,
      "ờ": 2476,
      "ở": 2477,
      "ỡ": 2478,
      "ợ": 2479,
      "Ụ": 2480,
      "ụ": 2481,
      "Ủ": 2482,
      "ủ": 2483,
      "Ứ": 2484,
      "ứ": 2485,
      "ừ": 2486,
      "ử": 2487,
      "ữ": 2488,
      "Ự": 2489,
      "ự": 2490,
      "ỳ": 2491,
      "ỷ": 2492,
      "ỹ": 2493,
      "ἀ": 2494,
      "ἁ": 2495,
      "ἃ": 2496,
      "ἄ": 2497,
      "ἅ": 2498,
      "Ἀ": 2499,
      "Ἁ": 2500,
      "ἐ": 2501,
      "ἑ": 2502,
      "ἓ": 2503,
      "ἔ": 2504,
      "ἕ": 2505,
      "Ἐ": 2506,
      "Ἑ": 2507,
      "Ἕ": 2508,
      "ἠ": 2509,
      "ἡ": 2510,
      "ἢ": 2511,
      "ἣ": 2512,
      "ἤ": 2513,
      "ἦ": 2514,
      "Ἠ": 2515,
      "Ἡ": 2516,
      "ἰ": 2517,
      "ἱ": 2518,
      "ἴ": 2519,
      "ἵ": 2520,
      "ἶ": 2521,
      "ἷ": 2522,
      "Ἰ": 2523,
      "Ἱ": 2524,
      "ὀ": 2525,
      "ὁ": 2526,
      "ὃ": 2527,
      "ὄ": 2528,
      "ὅ": 2529,
      "Ὀ": 2530,
      "Ὁ": 2531,
      "Ὅ": 2532,
      "ὐ": 2533,
      "ὑ": 2534,
      "ὓ": 2535,
      "ὕ": 2536,
      "ὖ": 2537,
      "ὗ": 2538,
      "ὡ": 2539,
      "ὢ": 2540,
      "ὤ": 2541,
      "ὥ": 2542,
      "ὦ": 2543,
      "ὧ": 2544,
      "ὰ": 2545,
      "ὲ": 2546,
      "ὴ": 2547,
      "ὶ": 2548,
      "ὸ": 2549,
      "ὺ": 2550,
      "ὼ": 2551,
      "ᾄ": 2552,
      "ᾍ": 2553,
      "ᾖ": 2554,
      "ᾗ": 2555,
      "ᾧ": 2556,
      "ᾳ": 2557,
      "ᾶ": 2558,
      "ῃ": 2559,
      "ῆ": 2560,
      "ῇ": 2561,
      "ῑ": 2562,
      "ῖ": 2563,
      "ῤ": 2564,
      "ῥ": 2565,
      "ῦ": 2566,
      "ῳ": 2567,
      "ῶ": 2568,
      "ῷ": 2569,
      "​": 2570,
      "‌": 2571,
      "‍": 2572,
      "‎": 2573,
      "‏": 2574,
      "‐": 2575,
      "‒": 2576,
      "–": 2577,
      "—": 2578,
      "―": 2579,
      "‘": 2580,
      "’": 2581,
      "‚": 2582,
      "‛": 2583,
      "“": 2584,
      "”": 2585,
      "„": 2586,
      "‟": 2587,
      "†": 2588,
      "‡": 2589,
      "•": 2590,
      "‣": 2591,
      "‧": 2592,
      " ": 2593,
      "‪": 2594,
      "‫": 2595,
      "‬": 2596,
      "‮": 2597,
      "‰": 2598,
      "′": 2599,
      "‹": 2600,
      "›": 2601,
      "※": 2602,
      "‿": 2603,
      "⁀": 2604,
      "⁂": 2605,
      "⁃": 2606,
      "⁄": 2607,
      "⁋": 2608,
      "⁎": 2609,
      "⁑": 2610,
      "⁒": 2611,
      "⁠": 2612,
      "⁦": 2613,
      "⁧": 2614,
      "⁨": 2615,
      "⁩": 2616,
      "₠": 2617,
      "₡": 2618,
      "₢": 2619,
      "₣": 2620,
      "₤": 2621,
      "₥": 2622,
      "₦": 2623,
      "₧": 2624,
      "₩": 2625,
      "₪": 2626,
      "₫": 2627,
      "€": 2628,
      "₭": 2629,
      "₮": 2630,
      "₯": 2631,
      "₰": 2632,
      "₱": 2633,
      "₲": 2634,
      "₳": 2635,
      "₴": 2636,
      "₵": 2637,
      "₹": 2638,
      "₺": 2639,
      "₼": 2640,
      "₽": 2641,
      "₿": 2642,
      "⃝": 2643,
      "⃟": 2644,
      "⃣": 2645,
      "℗": 2646,
      "℘": 2647,
      "℞": 2648,
      "℥": 2649,
      "⅂": 2650,
      "←": 2651,
      "↑": 2652,
      "→": 2653,
      "↓": 2654,
      "↔": 2655,
      "↕": 2656,
      "↖": 2657,
      "↗": 2658,
      "↘": 2659,
      "↙": 2660,
      "↚": 2661,
      "↜": 2662,
      "↞": 2663,
      "↟": 2664,
      "↠": 2665,
      "↡": 2666,
      "↢": 2667,
      "↨": 2668,
      "↩": 2669,
      "↪": 2670,
      "↫": 2671,
      "↯": 2672,
      "↲": 2673,
      "↳": 2674,
      "↴": 2675,
      "↵": 2676,
      "↶": 2677,
      "↹": 2678,
      "↻": 2679,
      "⇄": 2680,
      "⇋": 2681,
      "⇌": 2682,
      "⇐": 2683,
      "⇒": 2684,
      "⇓": 2685,
      "⇔": 2686,
      "⇗": 2687,
      "⇘": 2688,
      "⇚": 2689,
      "⇛": 2690,
      "⇜": 2691,
      "⇡": 2692,
      "⇢": 2693,
      "⇣": 2694,
      "⇦": 2695,
      "⇧": 2696,
      "⇨": 2697,
      "⇩": 2698,
      "⇱": 2699,
      "⇽": 2700,
      "∀": 2701,
      "∂": 2702,
      "∃": 2703,
      "∅": 2704,
      "∆": 2705,
      "∇": 2706,
      "∈": 2707,
      "∉": 2708,
      "∏": 2709,
      "∑": 2710,
      "−": 2711,
      "∕": 2712,
      "∗": 2713,
      "∘": 2714,
      "∙": 2715,
      "√": 2716,
      "∝": 2717,
      "∞": 2718,
      "∠": 2719,
      "∣": 2720,
      "∧": 2721,
      "∨": 2722,
      "∩": 2723,
      "∪": 2724,
      "∫": 2725,
      "∮": 2726,
      "∴": 2727,
      "∵": 2728,
      "∶": 2729,
      "∼": 2730,
      "≀": 2731,
      "≃": 2732,
      "≅": 2733,
      "≈": 2734,
      "≋": 2735,
      "≜": 2736,
      "≟": 2737,
      "≠": 2738,
      "≡": 2739,
      "≣": 2740,
      "≤": 2741,
      "≥": 2742,
      "≦": 2743,
      "≧": 2744,
      "≪": 2745,
      "≫": 2746,
      "≮": 2747,
      "≯": 2748,
      "⊂": 2749,
      "⊄": 2750,
      "⊆": 2751,
      "⊕": 2752,
      "⊗": 2753,
      "⊙": 2754,
      "⊜": 2755,
      "⊞": 2756,
      "⊥": 2757,
      "⊰": 2758,
      "⊱": 2759,
      "⊹": 2760,
      "⋄": 2761,
      "⋅": 2762,
      "⋆": 2763,
      "⋇": 2764,
      "⋐": 2765,
      "⋑": 2766,
      "⋘": 2767,
      "⋮": 2768,
      "⋯": 2769,
      "⋰": 2770,
      "⋱": 2771,
      "⌂": 2772,
      "⌈": 2773,
      "⌋": 2774,
      "⌐": 2775,
      "⌒": 2776,
      "⌘": 2777,
      "⌚": 2778,
      "⌛": 2779,
      "⌣": 2780,
      "⌥": 2781,
      "⌨": 2782,
      "⌫": 2783,
      "⍋": 2784,
      "⍥": 2785,
      "⎋": 2786,
      "⎓": 2787,
      "⎙": 2788,
      "⎛": 2789,
      "⎞": 2790,
      "⎯": 2791,
      "⏏": 2792,
      "⏡": 2793,
      "⏤": 2794,
      "⏩": 2795,
      "⏪": 2796,
      "⏫": 2797,
      "⏬": 2798,
      "⏭": 2799,
      "⏮": 2800,
      "⏰": 2801,
      "⏱": 2802,
      "⏲": 2803,
      "⏳": 2804,
      "⏸": 2805,
      "⏹": 2806,
      "⏺": 2807,
      "⑅": 2808,
      "⑉": 2809,
      "⓮": 2810,
      "⓵": 2811,
      "⓶": 2812,
      "⓷": 2813,
      "⓺": 2814,
      "⓻": 2815,
      "─": 2816,
      "━": 2817,
      "│": 2818,
      "┃": 2819,
      "┄": 2820,
      "┅": 2821,
      "┇": 2822,
      "┈": 2823,
      "┊": 2824,
      "┋": 2825,
      "┌": 2826,
      "┏": 2827,
      "┐": 2828,
      "┓": 2829,
      "└": 2830,
      "┗": 2831,
      "┘": 2832,
      "┚": 2833,
      "├": 2834,
      "┤": 2835,
      "┬": 2836,
      "┲": 2837,
      "┳": 2838,
      "┴": 2839,
      "┻": 2840,
      "┼": 2841,
      "┽": 2842,
      "═": 2843,
      "║": 2844,
      "╔": 2845,
      "╕": 2846,
      "╖": 2847,
      "╗": 2848,
      "╚": 2849,
      "╝": 2850,
      "╟": 2851,
      "╠": 2852,
      "╡": 2853,
      "╣": 2854,
      "╤": 2855,
      "╥": 2856,
      "╦": 2857,
      "╩": 2858,
      "╭": 2859,
      "╮": 2860,
      "╯": 2861,
      "╰": 2862,
      "╹": 2863,
      "╾": 2864,
      "▀": 2865,
      "▁": 2866,
      "▂": 2867,
      "▃": 2868,
      "▄": 2869,
      "▅": 2870,
      "▆": 2871,
      "▇": 2872,
      "█": 2873,
      "▌": 2874,
      "▎": 2875,
      "▏": 2876,
      "▐": 2877,
      "░": 2878,
      "▒": 2879,
      "▓": 2880,
      "■": 2881,
      "□": 2882,
      "▣": 2883,
      "▧": 2884,
      "▪": 2885,
      "▫": 2886,
      "▬": 2887,
      "▭": 2888,
      "▮": 2889,
      "▰": 2890,
      "▲": 2891,
      "△": 2892,
      "▶": 2893,
      "▷": 2894,
      "▸": 2895,
      "►": 2896,
      "▻": 2897,
      "▼": 2898,
      "▽": 2899,
      "▾": 2900,
      "◀": 2901,
      "◁": 2902,
      "◂": 2903,
      "◄": 2904,
      "◅": 2905,
      "◆": 2906,
      "◇": 2907,
      "◈": 2908,
      "◉": 2909,
      "◊": 2910,
      "○": 2911,
      "◌": 2912,
      "◎": 2913,
      "●": 2914,
      "◐": 2915,
      "◑": 2916,
      "◔": 2917,
      "◕": 2918,
      "◗": 2919,
      "◘": 2920,
      "◙": 2921,
      "◝": 2922,
      "◠": 2923,
      "◡": 2924,
      "◢": 2925,
      "◣": 2926,
      "◤": 2927,
      "◥": 2928,
      "◦": 2929,
      "◪": 2930,
      "◼": 2931,
      "◽": 2932,
      "◾": 2933,
      "☀": 2934,
      "☁": 2935,
      "☂": 2936,
      "☃": 2937,
      "☄": 2938,
      "★": 2939,
      "☆": 2940,
      "☇": 2941,
      "☎": 2942,
      "☏": 2943,
      "☐": 2944,
      "☑": 2945,
      "☓": 2946,
      "☔": 2947,
      "☕": 2948,
      "☘": 2949,
      "☚": 2950,
      "☛": 2951,
      "☜": 2952,
      "☝": 2953,
      "☞": 2954,
      "☟": 2955,
      "☠": 2956,
      "☢": 2957,
      "☣": 2958,
      "☤": 2959,
      "☥": 2960,
      "☪": 2961,
      "☬": 2962,
      "☭": 2963,
      "☯": 2964,
      "☰": 2965,
      "☲": 2966,
      "☷": 2967,
      "☸": 2968,
      "☹": 2969,
      "☺": 2970,
      "☻": 2971,
      "☼": 2972,
      "☽": 2973,
      "☾": 2974,
      "♀": 2975,
      "♂": 2976,
      "♃": 2977,
      "♈": 2978,
      "♉": 2979,
      "♊": 2980,
      "♋": 2981,
      "♌": 2982,
      "♍": 2983,
      "♎": 2984,
      "♏": 2985,
      "♐": 2986,
      "♑": 2987,
      "♒": 2988,
      "♓": 2989,
      "♔": 2990,
      "♕": 2991,
      "♗": 2992,
      "♚": 2993,
      "♛": 2994,
      "♜": 2995,
      "♟": 2996,
      "♠": 2997,
      "♡": 2998,
      "♢": 2999,
      "♣": 3000,
      "♤": 3001,
      "♥": 3002,
      "♦": 3003,
      "♧": 3004,
      "♨": 3005,
      "♩": 3006,
      "♪": 3007,
      "♫": 3008,
      "♬": 3009,
      "♱": 3010,
      "♻": 3011,
      "♾": 3012,
      "♿": 3013,
      "⚀": 3014,
      "⚁": 3015,
      "⚂": 3016,
      "⚆": 3017,
      "⚈": 3018,
      "⚑": 3019,
      "⚒": 3020,
      "⚓": 3021,
      "⚔": 3022,
      "⚕": 3023,
      "⚖": 3024,
      "⚗": 3025,
      "⚘": 3026,
      "⚙": 3027,
      "⚛": 3028,
      "⚜": 3029,
      "⚝": 3030,
      "⚠": 3031,
      "⚡": 3032,
      "⚪": 3033,
      "⚫": 3034,
      "⚰": 3035,
      "⚱": 3036,
      "⚽": 3037,
      "⚾": 3038,
      "⛄": 3039,
      "⛅": 3040,
      "⛈": 3041,
      "⛎": 3042,
      "⛏": 3043,
      "⛑": 3044,
      "⛓": 3045,
      "⛔": 3046,
      "⛧": 3047,
      "⛩": 3048,
      "⛪": 3049,
      "⛰": 3050,
      "⛱": 3051,
      "⛲": 3052,
      "⛳": 3053,
      "⛹": 3054,
      "⛺": 3055,
      "⛽": 3056,
      "✂": 3057,
      "✄": 3058,
      "✅": 3059,
      "✆": 3060,
      "✈": 3061,
      "✉": 3062,
      "✊": 3063,
      "✋": 3064,
      "✌": 3065,
      "✍": 3066,
      "✎": 3067,
      "✏": 3068,
      "✐": 3069,
      "✒": 3070,
      "✓": 3071,
      "✔": 3072,
      "✖": 3073,
      "✘": 3074,
      "✝": 3075,
      "✞": 3076,
      "✠": 3077,
      "✡": 3078,
      "✣": 3079,
      "✤": 3080,
      "✥": 3081,
      "✦": 3082,
      "✧": 3083,
      "✨": 3084,
      "✩": 3085,
      "✪": 3086,
      "✫": 3087,
      "✭": 3088,
      "✯": 3089,
      "✰": 3090,
      "✱": 3091,
      "✳": 3092,
      "✴": 3093,
      "✵": 3094,
      "✶": 3095,
      "✷": 3096,
      "✹": 3097,
      "✺": 3098,
      "✻": 3099,
      "✽": 3100,
      "✾": 3101,
      "✿": 3102,
      "❀": 3103,
      "❁": 3104,
      "❂": 3105,
      "❃": 3106,
      "❄": 3107,
      "❅": 3108,
      "❆": 3109,
      "❇": 3110,
      "❈": 3111,
      "❉": 3112,
      "❊": 3113,
      "❋": 3114,
      "❌": 3115,
      "❍": 3116,
      "❎": 3117,
      "❏": 3118,
      "❐": 3119,
      "❓": 3120,
      "❔": 3121,
      "❕": 3122,
      "❖": 3123,
      "❗": 3124,
      "❜": 3125,
      "❝": 3126,
      "❞": 3127,
      "❢": 3128,
      "❣": 3129,
      "❤": 3130,
      "❥": 3131,
      "❦": 3132,
      "❧": 3133,
      "❪": 3134,
      "❫": 3135,
      "❮": 3136,
      "❯": 3137,
      "❰": 3138,
      "❱": 3139,
      "❶": 3140,
      "❷": 3141,
      "❸": 3142,
      "❹": 3143,
      "❺": 3144,
      "❻": 3145,
      "❼": 3146,
      "❽": 3147,
      "❾": 3148,
      "❿": 3149,
      "➀": 3150,
      "➁": 3151,
      "➂": 3152,
      "➃": 3153,
      "➊": 3154,
      "➔": 3155,
      "➕": 3156,
      "➖": 3157,
      "➗": 3158,
      "➜": 3159,
      "➟": 3160,
      "➡": 3161,
      "➢": 3162,
      "➣": 3163,
      "➤": 3164,
      "➥": 3165,
      "➪": 3166,
      "➰": 3167,
      "➶": 3168,
      "➷": 3169,
      "➺": 3170,
      "➿": 3171,
      "⟶": 3172,
      "⠀": 3173,
      "⠕": 3174,
      "⢸": 3175,
      "⤦": 3176,
      "⤴": 3177,
      "⤵": 3178,
      "⤶": 3179,
      "⤹": 3180,
      "⥁": 3181,
      "⦁": 3182,
      "⦅": 3183,
      "⦆": 3184,
      "⦕": 3185,
      "⦖": 3186,
      "⧼": 3187,
      "⧽": 3188,
      "⩩": 3189,
      "⩽": 3190,
      "⫷": 3191,
      "⫸": 3192,
      "⬅": 3193,
      "⬆": 3194,
      "⬇": 3195,
      "⬛": 3196,
      "⬜": 3197,
      "⬤": 3198,
      "⭐": 3199,
      "⭕": 3200,
      "Ᵽ": 3201,
      "Ɽ": 3202,
      "Ⱨ": 3203,
      "Ⲁ": 3204,
      "ⲁ": 3205,
      "Ⲃ": 3206,
      "Ⲇ": 3207,
      "Ⲉ": 3208,
      "ⲉ": 3209,
      "Ⲏ": 3210,
      "ⲏ": 3211,
      "ⲑ": 3212,
      "Ⲓ": 3213,
      "ⲓ": 3214,
      "Ⲕ": 3215,
      "ⲕ": 3216,
      "ⲗ": 3217,
      "ⲙ": 3218,
      "Ⲛ": 3219,
      "ⲛ": 3220,
      "Ⲟ": 3221,
      "ⲟ": 3222,
      "Ⲡ": 3223,
      "ⲡ": 3224,
      "Ⲣ": 3225,
      "ⲣ": 3226,
      "ⲥ": 3227,
      "Ⲩ": 3228,
      "ⲩ": 3229,
      "ⲫ": 3230,
      "ⲭ": 3231,
      "ⴑ": 3232,
      "ⴰ": 3233,
      "ⴱ": 3234,
      "ⴳ": 3235,
      "ⴷ": 3236,
      "ⴹ": 3237,
      "ⴻ": 3238,
      "ⴼ": 3239,
      "ⴽ": 3240,
      "ⵀ": 3241,
      "ⵃ": 3242,
      "ⵄ": 3243,
      "ⵅ": 3244,
      "ⵇ": 3245,
      "ⵉ": 3246,
      "ⵊ": 3247,
      "ⵍ": 3248,
      "ⵎ": 3249,
      "ⵏ": 3250,
      "ⵓ": 3251,
      "ⵔ": 3252,
      "ⵕ": 3253,
      "ⵖ": 3254,
      "ⵙ": 3255,
      "ⵚ": 3256,
      "ⵛ": 3257,
      "ⵜ": 3258,
      "ⵟ": 3259,
      "ⵡ": 3260,
      "ⵢ": 3261,
      "ⵣ": 3262,
      "ⵥ": 3263,
      "⸄": 3264,
      "⸅": 3265,
      "⸐": 3266,
      "⸑": 3267,
      "⸓": 3268,
      "⸙": 3269,
      "⸢": 3270,
      "⸥": 3271,
      "⸮": 3272,
      "⸵": 3273,
      "⸻": 3274,
      "⿻": 3275,
      "、": 3276,
      "。": 3277,
      "〃": 3278,
      "〄": 3279,
      "々": 3280,
      "〆": 3281,
      "〇": 3282,
      "〉": 3283,
      "《": 3284,
      "》": 3285,
      "「": 3286,
      "」": 3287,
      "『": 3288,
      "』": 3289,
      "【": 3290,
      "】": 3291,
      "〒": 3292,
      "〖": 3293,
      "〗": 3294,
      "〜": 3295,
      "〨": 3296,
      "〰": 3297,
      "〽": 3298,
      "あ": 3299,
      "ぃ": 3300,
      "い": 3301,
      "う": 3302,
      "え": 3303,
      "お": 3304,
      "か": 3305,
      "が": 3306,
      "き": 3307,
      "ぎ": 3308,
      "く": 3309,
      "ぐ": 3310,
      "け": 3311,
      "げ": 3312,
      "こ": 3313,
      "ご": 3314,
      "さ": 3315,
      "ざ": 3316,
      "し": 3317,
      "じ": 3318,
      "す": 3319,
      "ず": 3320,
      "せ": 3321,
      "そ": 3322,
      "た": 3323,
      "だ": 3324,
      "ち": 3325,
      "っ": 3326,
      "つ": 3327,
      "て": 3328,
      "で": 3329,
      "と": 3330,
      "ど": 3331,
      "な": 3332,
      "に": 3333,
      "ぬ": 3334,
      "ね": 3335,
      "の": 3336,
      "は": 3337,
      "ば": 3338,
      "ぱ": 3339,
      "ひ": 3340,
      "び": 3341,
      "ぴ": 3342,
      "ふ": 3343,
      "ぶ": 3344,
      "ぷ": 3345,
      "へ": 3346,
      "べ": 3347,
      "ほ": 3348,
      "ぼ": 3349,
      "ぽ": 3350,
      "ま": 3351,
      "み": 3352,
      "む": 3353,
      "め": 3354,
      "も": 3355,
      "ゃ": 3356,
      "や": 3357,
      "ゅ": 3358,
      "ゆ": 3359,
      "ょ": 3360,
      "よ": 3361,
      "ら": 3362,
      "り": 3363,
      "る": 3364,
      "れ": 3365,
      "ろ": 3366,
      "わ": 3367,
      "ゑ": 3368,
      "を": 3369,
      "ん": 3370,
      "゙": 3371,
      "゚": 3372,
      "ゝ": 3373,
      "ァ": 3374,
      "ア": 3375,
      "ィ": 3376,
      "イ": 3377,
      "ゥ": 3378,
      "ウ": 3379,
      "ェ": 3380,
      "エ": 3381,
      "ォ": 3382,
      "オ": 3383,
      "カ": 3384,
      "ガ": 3385,
      "キ": 3386,
      "ギ": 3387,
      "ク": 3388,
      "グ": 3389,
      "ケ": 3390,
      "ゲ": 3391,
      "コ": 3392,
      "ゴ": 3393,
      "サ": 3394,
      "ザ": 3395,
      "シ": 3396,
      "ジ": 3397,
      "ス": 3398,
      "ズ": 3399,
      "セ": 3400,
      "ソ": 3401,
      "タ": 3402,
      "ダ": 3403,
      "チ": 3404,
      "ッ": 3405,
      "ツ": 3406,
      "ヅ": 3407,
      "テ": 3408,
      "デ": 3409,
      "ト": 3410,
      "ド": 3411,
      "ナ": 3412,
      "ニ": 3413,
      "ヌ": 3414,
      "ネ": 3415,
      "ノ": 3416,
      "ハ": 3417,
      "バ": 3418,
      "パ": 3419,
      "ヒ": 3420,
      "ビ": 3421,
      "ピ": 3422,
      "フ": 3423,
      "ブ": 3424,
      "プ": 3425,
      "ヘ": 3426,
      "ベ": 3427,
      "ペ": 3428,
      "ホ": 3429,
      "ボ": 3430,
      "ポ": 3431,
      "マ": 3432,
      "ミ": 3433,
      "ム": 3434,
      "メ": 3435,
      "モ": 3436,
      "ャ": 3437,
      "ヤ": 3438,
      "ュ": 3439,
      "ユ": 3440,
      "ョ": 3441,
      "ヨ": 3442,
      "ラ": 3443,
      "リ": 3444,
      "ル": 3445,
      "レ": 3446,
      "ロ": 3447,
      "ワ": 3448,
      "ン": 3449,
      "・": 3450,
      "ー": 3451,
      "ヽ": 3452,
      "ヾ": 3453,
      "ㄅ": 3454,
      "ㄆ": 3455,
      "ㄇ": 3456,
      "ㄈ": 3457,
      "ㄉ": 3458,
      "ㄊ": 3459,
      "ㄋ": 3460,
      "ㄌ": 3461,
      "ㄍ": 3462,
      "ㄎ": 3463,
      "ㄏ": 3464,
      "ㄐ": 3465,
      "ㄑ": 3466,
      "ㄒ": 3467,
      "ㄓ": 3468,
      "ㄔ": 3469,
      "ㄗ": 3470,
      "ㄘ": 3471,
      "ㄚ": 3472,
      "ㄠ": 3473,
      "ㄥ": 3474,
      "ㄧ": 3475,
      "ㄨ": 3476,
      "ㄩ": 3477,
      "㐅": 3478,
      "㟖": 3479,
      "㵜": 3480,
      "㶊": 3481,
      "㶋": 3482,
      "㺰": 3483,
      "䋮": 3484,
      "䋰": 3485,
      "䍽": 3486,
      "䓂": 3487,
      "䓏": 3488,
      "䓐": 3489,
      "䓠": 3490,
      "䓴": 3491,
      "䓷": 3492,
      "䕂": 3493,
      "䕯": 3494,
      "䡐": 3495,
      "䢴": 3496,
      "䢹": 3497,
      "䣒": 3498,
      "䤢": 3499,
      "䤶": 3500,
      "䥨": 3501,
      "䧌": 3502,
      "䨰": 3503,
      "䩢": 3504,
      "䪔": 3505,
      "䪲": 3506,
      "䫆": 3507,
      "䫐": 3508,
      "䬌": 3509,
      "䬪": 3510,
      "䭜": 3511,
      "䮘": 3512,
      "䮶": 3513,
      "一": 3514,
      "丁": 3515,
      "丂": 3516,
      "七": 3517,
      "万": 3518,
      "三": 3519,
      "上": 3520,
      "下": 3521,
      "不": 3522,
      "与": 3523,
      "丑": 3524,
      "专": 3525,
      "且": 3526,
      "丕": 3527,
      "世": 3528,
      "业": 3529,
      "丛": 3530,
      "东": 3531,
      "丝": 3532,
      "丞": 3533,
      "丢": 3534,
      "两": 3535,
      "严": 3536,
      "並": 3537,
      "丧": 3538,
      "丨": 3539,
      "个": 3540,
      "中": 3541,
      "丰": 3542,
      "串": 3543,
      "临": 3544,
      "丸": 3545,
      "丹": 3546,
      "为": 3547,
      "主": 3548,
      "丽": 3549,
      "举": 3550,
      "丿": 3551,
      "乂": 3552,
      "乃": 3553,
      "久": 3554,
      "乇": 3555,
      "么": 3556,
      "义": 3557,
      "之": 3558,
      "乌": 3559,
      "乎": 3560,
      "乏": 3561,
      "乐": 3562,
      "乔": 3563,
      "乗": 3564,
      "乘": 3565,
      "乙": 3566,
      "九": 3567,
      "也": 3568,
      "习": 3569,
      "乡": 3570,
      "书": 3571,
      "买": 3572,
      "乳": 3573,
      "亀": 3574,
      "了": 3575,
      "予": 3576,
      "争": 3577,
      "事": 3578,
      "二": 3579,
      "于": 3580,
      "云": 3581,
      "互": 3582,
      "五": 3583,
      "井": 3584,
      "亚": 3585,
      "些": 3586,
      "亞": 3587,
      "亡": 3588,
      "交": 3589,
      "亦": 3590,
      "产": 3591,
      "享": 3592,
      "京": 3593,
      "亮": 3594,
      "亲": 3595,
      "人": 3596,
      "亻": 3597,
      "亿": 3598,
      "什": 3599,
      "仁": 3600,
      "仅": 3601,
      "今": 3602,
      "介": 3603,
      "仍": 3604,
      "从": 3605,
      "仏": 3606,
      "仓": 3607,
      "仔": 3608,
      "他": 3609,
      "付": 3610,
      "仙": 3611,
      "代": 3612,
      "令": 3613,
      "以": 3614,
      "仪": 3615,
      "们": 3616,
      "仮": 3617,
      "仰": 3618,
      "件": 3619,
      "价": 3620,
      "任": 3621,
      "份": 3622,
      "仿": 3623,
      "企": 3624,
      "伊": 3625,
      "伍": 3626,
      "伏": 3627,
      "伐": 3628,
      "休": 3629,
      "众": 3630,
      "优": 3631,
      "伙": 3632,
      "会": 3633,
      "伟": 3634,
      "传": 3635,
      "伤": 3636,
      "伦": 3637,
      "伪": 3638,
      "伯": 3639,
      "估": 3640,
      "伴": 3641,
      "似": 3642,
      "伽": 3643,
      "但": 3644,
      "位": 3645,
      "低": 3646,
      "住": 3647,
      "体": 3648,
      "何": 3649,
      "余": 3650,
      "佛": 3651,
      "作": 3652,
      "你": 3653,
      "佣": 3654,
      "佳": 3655,
      "併": 3656,
      "使": 3657,
      "來": 3658,
      "例": 3659,
      "侘": 3660,
      "供": 3661,
      "依": 3662,
      "侠": 3663,
      "侧": 3664,
      "侨": 3665,
      "侮": 3666,
      "侵": 3667,
      "便": 3668,
      "促": 3669,
      "俄": 3670,
      "俊": 3671,
      "俗": 3672,
      "保": 3673,
      "信": 3674,
      "修": 3675,
      "俱": 3676,
      "俺": 3677,
      "俿": 3678,
      "倉": 3679,
      "個": 3680,
      "倒": 3681,
      "候": 3682,
      "借": 3683,
      "倡": 3684,
      "倣": 3685,
      "値": 3686,
      "值": 3687,
      "倾": 3688,
      "假": 3689,
      "偏": 3690,
      "做": 3691,
      "停": 3692,
      "健": 3693,
      "側": 3694,
      "偶": 3695,
      "偿": 3696,
      "傑": 3697,
      "備": 3698,
      "储": 3699,
      "催": 3700,
      "傳": 3701,
      "傾": 3702,
      "像": 3703,
      "僕": 3704,
      "價": 3705,
      "優": 3706,
      "儲": 3707,
      "儿": 3708,
      "允": 3709,
      "元": 3710,
      "充": 3711,
      "兆": 3712,
      "先": 3713,
      "光": 3714,
      "克": 3715,
      "兌": 3716,
      "免": 3717,
      "党": 3718,
      "入": 3719,
      "內": 3720,
      "全": 3721,
      "八": 3722,
      "公": 3723,
      "六": 3724,
      "兰": 3725,
      "共": 3726,
      "关": 3727,
      "兴": 3728,
      "兵": 3729,
      "其": 3730,
      "具": 3731,
      "典": 3732,
      "兹": 3733,
      "养": 3734,
      "兼": 3735,
      "冂": 3736,
      "内": 3737,
      "円": 3738,
      "册": 3739,
      "再": 3740,
      "冖": 3741,
      "冗": 3742,
      "写": 3743,
      "军": 3744,
      "农": 3745,
      "冠": 3746,
      "冥": 3747,
      "冬": 3748,
      "冰": 3749,
      "冲": 3750,
      "决": 3751,
      "况": 3752,
      "冶": 3753,
      "冷": 3754,
      "净": 3755,
      "准": 3756,
      "凉": 3757,
      "凌": 3758,
      "减": 3759,
      "凑": 3760,
      "凝": 3761,
      "几": 3762,
      "凡": 3763,
      "凭": 3764,
      "凯": 3765,
      "凰": 3766,
      "凵": 3767,
      "凶": 3768,
      "凸": 3769,
      "出": 3770,
      "击": 3771,
      "刀": 3772,
      "刃": 3773,
      "分": 3774,
      "切": 3775,
      "刊": 3776,
      "刑": 3777,
      "划": 3778,
      "列": 3779,
      "刘": 3780,
      "则": 3781,
      "刚": 3782,
      "创": 3783,
      "初": 3784,
      "删": 3785,
      "判": 3786,
      "別": 3787,
      "刨": 3788,
      "利": 3789,
      "别": 3790,
      "到": 3791,
      "制": 3792,
      "刷": 3793,
      "券": 3794,
      "刺": 3795,
      "刻": 3796,
      "剂": 3797,
      "剃": 3798,
      "則": 3799,
      "削": 3800,
      "前": 3801,
      "剑": 3802,
      "剧": 3803,
      "剩": 3804,
      "剪": 3805,
      "副": 3806,
      "割": 3807,
      "創": 3808,
      "劃": 3809,
      "劇": 3810,
      "力": 3811,
      "办": 3812,
      "功": 3813,
      "加": 3814,
      "务": 3815,
      "动": 3816,
      "助": 3817,
      "努": 3818,
      "劫": 3819,
      "励": 3820,
      "劳": 3821,
      "労": 3822,
      "効": 3823,
      "势": 3824,
      "勃": 3825,
      "勇": 3826,
      "勒": 3827,
      "動": 3828,
      "勘": 3829,
      "務": 3830,
      "勝": 3831,
      "勞": 3832,
      "勢": 3833,
      "勤": 3834,
      "匀": 3835,
      "包": 3836,
      "匕": 3837,
      "化": 3838,
      "北": 3839,
      "匯": 3840,
      "区": 3841,
      "医": 3842,
      "匿": 3843,
      "區": 3844,
      "十": 3845,
      "卂": 3846,
      "千": 3847,
      "卄": 3848,
      "升": 3849,
      "午": 3850,
      "半": 3851,
      "卍": 3852,
      "华": 3853,
      "协": 3854,
      "卒": 3855,
      "卓": 3856,
      "单": 3857,
      "卖": 3858,
      "南": 3859,
      "博": 3860,
      "占": 3861,
      "卡": 3862,
      "卢": 3863,
      "卧": 3864,
      "卫": 3865,
      "印": 3866,
      "危": 3867,
      "即": 3868,
      "却": 3869,
      "卵": 3870,
      "卷": 3871,
      "卸": 3872,
      "厂": 3873,
      "厄": 3874,
      "厅": 3875,
      "历": 3876,
      "压": 3877,
      "厚": 3878,
      "原": 3879,
      "厦": 3880,
      "厳": 3881,
      "去": 3882,
      "县": 3883,
      "参": 3884,
      "參": 3885,
      "又": 3886,
      "及": 3887,
      "友": 3888,
      "双": 3889,
      "反": 3890,
      "収": 3891,
      "发": 3892,
      "取": 3893,
      "受": 3894,
      "变": 3895,
      "叙": 3896,
      "叟": 3897,
      "叠": 3898,
      "口": 3899,
      "古": 3900,
      "句": 3901,
      "另": 3902,
      "只": 3903,
      "叫": 3904,
      "召": 3905,
      "可": 3906,
      "台": 3907,
      "史": 3908,
      "右": 3909,
      "号": 3910,
      "司": 3911,
      "吁": 3912,
      "各": 3913,
      "合": 3914,
      "吉": 3915,
      "吊": 3916,
      "吋": 3917,
      "同": 3918,
      "名": 3919,
      "后": 3920,
      "吏": 3921,
      "吐": 3922,
      "向": 3923,
      "吔": 3924,
      "吕": 3925,
      "吗": 3926,
      "吚": 3927,
      "君": 3928,
      "否": 3929,
      "吧": 3930,
      "吨": 3931,
      "含": 3932,
      "听": 3933,
      "启": 3934,
      "吴": 3935,
      "吸": 3936,
      "吾": 3937,
      "呀": 3938,
      "呂": 3939,
      "呈": 3940,
      "告": 3941,
      "呕": 3942,
      "呗": 3943,
      "员": 3944,
      "呢": 3945,
      "周": 3946,
      "味": 3947,
      "呼": 3948,
      "命": 3949,
      "咆": 3950,
      "和": 3951,
      "咨": 3952,
      "咱": 3953,
      "品": 3954,
      "哈": 3955,
      "响": 3956,
      "哒": 3957,
      "哔": 3958,
      "員": 3959,
      "哥": 3960,
      "哦": 3961,
      "哨": 3962,
      "哩": 3963,
      "哪": 3964,
      "哮": 3965,
      "哲": 3966,
      "哺": 3967,
      "唐": 3968,
      "售": 3969,
      "唯": 3970,
      "唱": 3971,
      "唾": 3972,
      "商": 3973,
      "啊": 3974,
      "問": 3975,
      "啥": 3976,
      "啪": 3977,
      "啸": 3978,
      "喁": 3979,
      "喂": 3980,
      "善": 3981,
      "喇": 3982,
      "喜": 3983,
      "單": 3984,
      "喷": 3985,
      "嗎": 3986,
      "嗛": 3987,
      "嗶": 3988,
      "嘉": 3989,
      "嘛": 3990,
      "嘲": 3991,
      "器": 3992,
      "噩": 3993,
      "噪": 3994,
      "嚰": 3995,
      "四": 3996,
      "回": 3997,
      "因": 3998,
      "囡": 3999,
      "团": 4000,
      "园": 4001,
      "困": 4002,
      "図": 4003,
      "围": 4004,
      "固": 4005,
      "国": 4006,
      "图": 4007,
      "圆": 4008,
      "圈": 4009,
      "國": 4010,
      "圍": 4011,
      "圓": 4012,
      "圖": 4013,
      "團": 4014,
      "土": 4015,
      "圣": 4016,
      "圧": 4017,
      "在": 4018,
      "圭": 4019,
      "地": 4020,
      "圳": 4021,
      "场": 4022,
      "圾": 4023,
      "址": 4024,
      "坂": 4025,
      "均": 4026,
      "坏": 4027,
      "坐": 4028,
      "坑": 4029,
      "块": 4030,
      "坚": 4031,
      "坛": 4032,
      "坞": 4033,
      "坡": 4034,
      "坦": 4035,
      "坯": 4036,
      "垂": 4037,
      "垃": 4038,
      "型": 4039,
      "埃": 4040,
      "埋": 4041,
      "城": 4042,
      "域": 4043,
      "埣": 4044,
      "培": 4045,
      "基": 4046,
      "堂": 4047,
      "堆": 4048,
      "堕": 4049,
      "堡": 4050,
      "堰": 4051,
      "報": 4052,
      "場": 4053,
      "堵": 4054,
      "塊": 4055,
      "塑": 4056,
      "塔": 4057,
      "塞": 4058,
      "填": 4059,
      "境": 4060,
      "墓": 4061,
      "墙": 4062,
      "增": 4063,
      "墨": 4064,
      "壁": 4065,
      "壤": 4066,
      "壩": 4067,
      "士": 4068,
      "声": 4069,
      "売": 4070,
      "处": 4071,
      "备": 4072,
      "変": 4073,
      "复": 4074,
      "夏": 4075,
      "外": 4076,
      "多": 4077,
      "夜": 4078,
      "够": 4079,
      "夠": 4080,
      "大": 4081,
      "天": 4082,
      "太": 4083,
      "夫": 4084,
      "央": 4085,
      "夯": 4086,
      "失": 4087,
      "头": 4088,
      "奇": 4089,
      "奈": 4090,
      "奋": 4091,
      "奖": 4092,
      "套": 4093,
      "奘": 4094,
      "奥": 4095,
      "奮": 4096,
      "女": 4097,
      "奶": 4098,
      "她": 4099,
      "好": 4100,
      "如": 4101,
      "妃": 4102,
      "妇": 4103,
      "妊": 4104,
      "妨": 4105,
      "妹": 4106,
      "妻": 4107,
      "姆": 4108,
      "始": 4109,
      "姐": 4110,
      "姓": 4111,
      "委": 4112,
      "姨": 4113,
      "姫": 4114,
      "威": 4115,
      "娘": 4116,
      "娜": 4117,
      "娠": 4118,
      "娱": 4119,
      "娶": 4120,
      "婆": 4121,
      "婚": 4122,
      "婦": 4123,
      "媒": 4124,
      "嫌": 4125,
      "嫩": 4126,
      "嬉": 4127,
      "嬢": 4128,
      "子": 4129,
      "孔": 4130,
      "孕": 4131,
      "字": 4132,
      "存": 4133,
      "孙": 4134,
      "孚": 4135,
      "孝": 4136,
      "孟": 4137,
      "季": 4138,
      "学": 4139,
      "孩": 4140,
      "孫": 4141,
      "學": 4142,
      "宁": 4143,
      "它": 4144,
      "宅": 4145,
      "宇": 4146,
      "守": 4147,
      "安": 4148,
      "宋": 4149,
      "完": 4150,
      "宕": 4151,
      "宗": 4152,
      "官": 4153,
      "定": 4154,
      "宛": 4155,
      "宜": 4156,
      "宝": 4157,
      "实": 4158,
      "実": 4159,
      "审": 4160,
      "客": 4161,
      "宣": 4162,
      "室": 4163,
      "宮": 4164,
      "宰": 4165,
      "害": 4166,
      "家": 4167,
      "容": 4168,
      "宽": 4169,
      "宾": 4170,
      "寂": 4171,
      "密": 4172,
      "富": 4173,
      "寓": 4174,
      "察": 4175,
      "實": 4176,
      "寧": 4177,
      "寸": 4178,
      "对": 4179,
      "寺": 4180,
      "寻": 4181,
      "导": 4182,
      "対": 4183,
      "寿": 4184,
      "封": 4185,
      "射": 4186,
      "将": 4187,
      "將": 4188,
      "尊": 4189,
      "對": 4190,
      "導": 4191,
      "小": 4192,
      "少": 4193,
      "尔": 4194,
      "尘": 4195,
      "尚": 4196,
      "尝": 4197,
      "尤": 4198,
      "就": 4199,
      "尸": 4200,
      "尺": 4201,
      "尻": 4202,
      "尼": 4203,
      "尽": 4204,
      "尾": 4205,
      "局": 4206,
      "层": 4207,
      "居": 4208,
      "屈": 4209,
      "届": 4210,
      "屋": 4211,
      "屏": 4212,
      "展": 4213,
      "属": 4214,
      "屠": 4215,
      "履": 4216,
      "屬": 4217,
      "屯": 4218,
      "山": 4219,
      "屿": 4220,
      "岗": 4221,
      "岛": 4222,
      "岡": 4223,
      "岩": 4224,
      "岬": 4225,
      "岸": 4226,
      "峰": 4227,
      "島": 4228,
      "崎": 4229,
      "崩": 4230,
      "嵌": 4231,
      "嶋": 4232,
      "巅": 4233,
      "川": 4234,
      "州": 4235,
      "巡": 4236,
      "工": 4237,
      "左": 4238,
      "巧": 4239,
      "巨": 4240,
      "差": 4241,
      "己": 4242,
      "已": 4243,
      "巴": 4244,
      "巷": 4245,
      "巾": 4246,
      "币": 4247,
      "市": 4248,
      "布": 4249,
      "帆": 4250,
      "师": 4251,
      "希": 4252,
      "帐": 4253,
      "帕": 4254,
      "帖": 4255,
      "帝": 4256,
      "带": 4257,
      "帧": 4258,
      "師": 4259,
      "席": 4260,
      "帮": 4261,
      "帰": 4262,
      "常": 4263,
      "幅": 4264,
      "幕": 4265,
      "幫": 4266,
      "干": 4267,
      "平": 4268,
      "年": 4269,
      "并": 4270,
      "幸": 4271,
      "幽": 4272,
      "广": 4273,
      "広": 4274,
      "庄": 4275,
      "庆": 4276,
      "床": 4277,
      "序": 4278,
      "庐": 4279,
      "库": 4280,
      "应": 4281,
      "底": 4282,
      "店": 4283,
      "庙": 4284,
      "庚": 4285,
      "府": 4286,
      "废": 4287,
      "度": 4288,
      "座": 4289,
      "庫": 4290,
      "庭": 4291,
      "康": 4292,
      "廊": 4293,
      "廖": 4294,
      "廠": 4295,
      "廣": 4296,
      "廴": 4297,
      "延": 4298,
      "廷": 4299,
      "建": 4300,
      "开": 4301,
      "弁": 4302,
      "异": 4303,
      "弃": 4304,
      "式": 4305,
      "弓": 4306,
      "引": 4307,
      "弘": 4308,
      "弛": 4309,
      "弟": 4310,
      "张": 4311,
      "弥": 4312,
      "弦": 4313,
      "弱": 4314,
      "張": 4315,
      "強": 4316,
      "弹": 4317,
      "强": 4318,
      "弾": 4319,
      "当": 4320,
      "录": 4321,
      "彡": 4322,
      "形": 4323,
      "彦": 4324,
      "彩": 4325,
      "彬": 4326,
      "影": 4327,
      "彳": 4328,
      "役": 4329,
      "彻": 4330,
      "彼": 4331,
      "往": 4332,
      "征": 4333,
      "径": 4334,
      "待": 4335,
      "很": 4336,
      "律": 4337,
      "後": 4338,
      "徐": 4339,
      "徒": 4340,
      "得": 4341,
      "從": 4342,
      "御": 4343,
      "復": 4344,
      "循": 4345,
      "微": 4346,
      "德": 4347,
      "心": 4348,
      "必": 4349,
      "忆": 4350,
      "忍": 4351,
      "志": 4352,
      "忘": 4353,
      "忙": 4354,
      "応": 4355,
      "忠": 4356,
      "忧": 4357,
      "快": 4358,
      "念": 4359,
      "忻": 4360,
      "忽": 4361,
      "忿": 4362,
      "怀": 4363,
      "态": 4364,
      "怎": 4365,
      "怕": 4366,
      "思": 4367,
      "急": 4368,
      "性": 4369,
      "怪": 4370,
      "总": 4371,
      "恋": 4372,
      "恐": 4373,
      "恒": 4374,
      "恢": 4375,
      "恩": 4376,
      "息": 4377,
      "恵": 4378,
      "恶": 4379,
      "悉": 4380,
      "悔": 4381,
      "患": 4382,
      "您": 4383,
      "悩": 4384,
      "悪": 4385,
      "悬": 4386,
      "情": 4387,
      "惊": 4388,
      "惑": 4389,
      "惜": 4390,
      "惠": 4391,
      "惩": 4392,
      "惯": 4393,
      "惰": 4394,
      "惱": 4395,
      "想": 4396,
      "愉": 4397,
      "意": 4398,
      "愛": 4399,
      "感": 4400,
      "愿": 4401,
      "態": 4402,
      "慢": 4403,
      "慧": 4404,
      "慰": 4405,
      "懂": 4406,
      "懈": 4407,
      "懶": 4408,
      "戈": 4409,
      "戏": 4410,
      "成": 4411,
      "我": 4412,
      "或": 4413,
      "战": 4414,
      "戠": 4415,
      "戦": 4416,
      "截": 4417,
      "戯": 4418,
      "戲": 4419,
      "戴": 4420,
      "戶": 4421,
      "户": 4422,
      "戸": 4423,
      "房": 4424,
      "所": 4425,
      "扁": 4426,
      "手": 4427,
      "扌": 4428,
      "才": 4429,
      "扑": 4430,
      "打": 4431,
      "托": 4432,
      "扣": 4433,
      "执": 4434,
      "扩": 4435,
      "扫": 4436,
      "扬": 4437,
      "扭": 4438,
      "批": 4439,
      "扻": 4440,
      "找": 4441,
      "承": 4442,
      "技": 4443,
      "把": 4444,
      "抎": 4445,
      "抑": 4446,
      "抓": 4447,
      "投": 4448,
      "抗": 4449,
      "折": 4450,
      "抜": 4451,
      "抢": 4452,
      "抣": 4453,
      "护": 4454,
      "报": 4455,
      "披": 4456,
      "抰": 4457,
      "抱": 4458,
      "抵": 4459,
      "押": 4460,
      "抽": 4461,
      "担": 4462,
      "拆": 4463,
      "拇": 4464,
      "拉": 4465,
      "拋": 4466,
      "拌": 4467,
      "拍": 4468,
      "拓": 4469,
      "拘": 4470,
      "招": 4471,
      "拜": 4472,
      "拟": 4473,
      "拥": 4474,
      "择": 4475,
      "括": 4476,
      "拱": 4477,
      "拳": 4478,
      "拷": 4479,
      "拼": 4480,
      "拾": 4481,
      "拿": 4482,
      "持": 4483,
      "指": 4484,
      "按": 4485,
      "挑": 4486,
      "挖": 4487,
      "挙": 4488,
      "挡": 4489,
      "挤": 4490,
      "挥": 4491,
      "挪": 4492,
      "振": 4493,
      "挺": 4494,
      "挽": 4495,
      "挿": 4496,
      "捅": 4497,
      "捏": 4498,
      "捐": 4499,
      "捕": 4500,
      "损": 4501,
      "换": 4502,
      "捥": 4503,
      "捧": 4504,
      "捩": 4505,
      "据": 4506,
      "捷": 4507,
      "掃": 4508,
      "授": 4509,
      "掉": 4510,
      "掏": 4511,
      "排": 4512,
      "掘": 4513,
      "探": 4514,
      "接": 4515,
      "控": 4516,
      "推": 4517,
      "措": 4518,
      "描": 4519,
      "提": 4520,
      "揚": 4521,
      "握": 4522,
      "揭": 4523,
      "援": 4524,
      "搅": 4525,
      "損": 4526,
      "搜": 4527,
      "搞": 4528,
      "搬": 4529,
      "搭": 4530,
      "搾": 4531,
      "摄": 4532,
      "摆": 4533,
      "摇": 4534,
      "摡": 4535,
      "摩": 4536,
      "摮": 4537,
      "撃": 4538,
      "撑": 4539,
      "撒": 4540,
      "撕": 4541,
      "撞": 4542,
      "播": 4543,
      "擊": 4544,
      "操": 4545,
      "擔": 4546,
      "擦": 4547,
      "攔": 4548,
      "攣": 4549,
      "支": 4550,
      "收": 4551,
      "改": 4552,
      "攻": 4553,
      "放": 4554,
      "政": 4555,
      "故": 4556,
      "效": 4557,
      "敌": 4558,
      "敏": 4559,
      "救": 4560,
      "教": 4561,
      "散": 4562,
      "敦": 4563,
      "敩": 4564,
      "敬": 4565,
      "数": 4566,
      "敲": 4567,
      "整": 4568,
      "敷": 4569,
      "文": 4570,
      "斉": 4571,
      "斋": 4572,
      "斗": 4573,
      "料": 4574,
      "断": 4575,
      "斯": 4576,
      "新": 4577,
      "方": 4578,
      "於": 4579,
      "施": 4580,
      "旁": 4581,
      "旅": 4582,
      "旋": 4583,
      "族": 4584,
      "旗": 4585,
      "无": 4586,
      "既": 4587,
      "日": 4588,
      "旦": 4589,
      "旧": 4590,
      "早": 4591,
      "旱": 4592,
      "时": 4593,
      "旺": 4594,
      "昂": 4595,
      "昆": 4596,
      "昇": 4597,
      "昌": 4598,
      "明": 4599,
      "易": 4600,
      "星": 4601,
      "映": 4602,
      "昣": 4603,
      "春": 4604,
      "昨": 4605,
      "是": 4606,
      "昸": 4607,
      "显": 4608,
      "時": 4609,
      "晓": 4610,
      "晚": 4611,
      "晤": 4612,
      "普": 4613,
      "景": 4614,
      "晰": 4615,
      "晴": 4616,
      "晶": 4617,
      "智": 4618,
      "暂": 4619,
      "暖": 4620,
      "暦": 4621,
      "暨": 4622,
      "暮": 4623,
      "曆": 4624,
      "曲": 4625,
      "更": 4626,
      "書": 4627,
      "曹": 4628,
      "曼": 4629,
      "替": 4630,
      "最": 4631,
      "會": 4632,
      "月": 4633,
      "有": 4634,
      "朋": 4635,
      "服": 4636,
      "朔": 4637,
      "朗": 4638,
      "望": 4639,
      "朝": 4640,
      "期": 4641,
      "朣": 4642,
      "木": 4643,
      "未": 4644,
      "末": 4645,
      "本": 4646,
      "札": 4647,
      "术": 4648,
      "机": 4649,
      "杀": 4650,
      "杂": 4651,
      "权": 4652,
      "杆": 4653,
      "李": 4654,
      "杏": 4655,
      "材": 4656,
      "村": 4657,
      "杜": 4658,
      "束": 4659,
      "杠": 4660,
      "条": 4661,
      "来": 4662,
      "杨": 4663,
      "杭": 4664,
      "杰": 4665,
      "東": 4666,
      "杷": 4667,
      "松": 4668,
      "板": 4669,
      "极": 4670,
      "构": 4671,
      "析": 4672,
      "林": 4673,
      "枚": 4674,
      "果": 4675,
      "枝": 4676,
      "枪": 4677,
      "枭": 4678,
      "枯": 4679,
      "架": 4680,
      "柏": 4681,
      "某": 4682,
      "柑": 4683,
      "染": 4684,
      "柔": 4685,
      "查": 4686,
      "柱": 4687,
      "柳": 4688,
      "标": 4689,
      "栋": 4690,
      "栏": 4691,
      "树": 4692,
      "栓": 4693,
      "栖": 4694,
      "校": 4695,
      "株": 4696,
      "样": 4697,
      "核": 4698,
      "根": 4699,
      "格": 4700,
      "栽": 4701,
      "框": 4702,
      "案": 4703,
      "档": 4704,
      "桥": 4705,
      "桩": 4706,
      "梁": 4707,
      "梅": 4708,
      "條": 4709,
      "梦": 4710,
      "梨": 4711,
      "梯": 4712,
      "械": 4713,
      "梵": 4714,
      "检": 4715,
      "棄": 4716,
      "棋": 4717,
      "棍": 4718,
      "棒": 4719,
      "棧": 4720,
      "森": 4721,
      "棺": 4722,
      "椅": 4723,
      "植": 4724,
      "検": 4725,
      "楊": 4726,
      "楚": 4727,
      "楠": 4728,
      "楢": 4729,
      "楬": 4730,
      "業": 4731,
      "極": 4732,
      "楼": 4733,
      "概": 4734,
      "榄": 4735,
      "榫": 4736,
      "榮": 4737,
      "構": 4738,
      "様": 4739,
      "槽": 4740,
      "樂": 4741,
      "標": 4742,
      "模": 4743,
      "権": 4744,
      "横": 4745,
      "橄": 4746,
      "橋": 4747,
      "橙": 4748,
      "機": 4749,
      "檚": 4750,
      "欄": 4751,
      "權": 4752,
      "次": 4753,
      "欢": 4754,
      "欣": 4755,
      "欧": 4756,
      "欲": 4757,
      "款": 4758,
      "歌": 4759,
      "止": 4760,
      "正": 4761,
      "此": 4762,
      "步": 4763,
      "武": 4764,
      "歧": 4765,
      "歩": 4766,
      "死": 4767,
      "殊": 4768,
      "残": 4769,
      "殖": 4770,
      "段": 4771,
      "殺": 4772,
      "殿": 4773,
      "毁": 4774,
      "毅": 4775,
      "母": 4776,
      "毎": 4777,
      "每": 4778,
      "毒": 4779,
      "毓": 4780,
      "比": 4781,
      "毕": 4782,
      "毗": 4783,
      "毛": 4784,
      "毫": 4785,
      "氏": 4786,
      "氐": 4787,
      "民": 4788,
      "气": 4789,
      "気": 4790,
      "氛": 4791,
      "氢": 4792,
      "氣": 4793,
      "氧": 4794,
      "氩": 4795,
      "氫": 4796,
      "氭": 4797,
      "水": 4798,
      "氷": 4799,
      "永": 4800,
      "汀": 4801,
      "汁": 4802,
      "求": 4803,
      "汇": 4804,
      "汉": 4805,
      "汕": 4806,
      "汗": 4807,
      "江": 4808,
      "池": 4809,
      "污": 4810,
      "決": 4811,
      "汽": 4812,
      "沈": 4813,
      "沉": 4814,
      "沐": 4815,
      "沒": 4816,
      "沖": 4817,
      "沙": 4818,
      "沟": 4819,
      "没": 4820,
      "沥": 4821,
      "沦": 4822,
      "沪": 4823,
      "河": 4824,
      "油": 4825,
      "治": 4826,
      "沼": 4827,
      "沿": 4828,
      "泄": 4829,
      "泉": 4830,
      "泊": 4831,
      "法": 4832,
      "泛": 4833,
      "泡": 4834,
      "波": 4835,
      "泣": 4836,
      "泥": 4837,
      "注": 4838,
      "泰": 4839,
      "泵": 4840,
      "泽": 4841,
      "洁": 4842,
      "洋": 4843,
      "洗": 4844,
      "洛": 4845,
      "洞": 4846,
      "津": 4847,
      "洪": 4848,
      "洭": 4849,
      "洲": 4850,
      "活": 4851,
      "洽": 4852,
      "派": 4853,
      "流": 4854,
      "浅": 4855,
      "测": 4856,
      "济": 4857,
      "浏": 4858,
      "浓": 4859,
      "浙": 4860,
      "浜": 4861,
      "浦": 4862,
      "浪": 4863,
      "浮": 4864,
      "浯": 4865,
      "海": 4866,
      "浻": 4867,
      "涂": 4868,
      "消": 4869,
      "涉": 4870,
      "涌": 4871,
      "涙": 4872,
      "涝": 4873,
      "润": 4874,
      "涨": 4875,
      "液": 4876,
      "涵": 4877,
      "涼": 4878,
      "淎": 4879,
      "淘": 4880,
      "淡": 4881,
      "深": 4882,
      "淳": 4883,
      "混": 4884,
      "添": 4885,
      "清": 4886,
      "済": 4887,
      "渊": 4888,
      "渐": 4889,
      "渔": 4890,
      "渡": 4891,
      "温": 4892,
      "測": 4893,
      "港": 4894,
      "游": 4895,
      "湖": 4896,
      "湘": 4897,
      "湥": 4898,
      "湩": 4899,
      "湵": 4900,
      "湾": 4901,
      "湿": 4902,
      "満": 4903,
      "源": 4904,
      "準": 4905,
      "溜": 4906,
      "溢": 4907,
      "溴": 4908,
      "溶": 4909,
      "滅": 4910,
      "滋": 4911,
      "滑": 4912,
      "滚": 4913,
      "满": 4914,
      "滥": 4915,
      "滿": 4916,
      "漏": 4917,
      "演": 4918,
      "漠": 4919,
      "漢": 4920,
      "漫": 4921,
      "潜": 4922,
      "潮": 4923,
      "潲": 4924,
      "潴": 4925,
      "澜": 4926,
      "澤": 4927,
      "澳": 4928,
      "激": 4929,
      "濂": 4930,
      "濃": 4931,
      "濡": 4932,
      "瀏": 4933,
      "瀝": 4934,
      "灌": 4935,
      "灣": 4936,
      "火": 4937,
      "灭": 4938,
      "灰": 4939,
      "灵": 4940,
      "灾": 4941,
      "炭": 4942,
      "炯": 4943,
      "炸": 4944,
      "点": 4945,
      "為": 4946,
      "炼": 4947,
      "烈": 4948,
      "烏": 4949,
      "烟": 4950,
      "烨": 4951,
      "热": 4952,
      "烹": 4953,
      "焊": 4954,
      "焕": 4955,
      "無": 4956,
      "焦": 4957,
      "然": 4958,
      "煤": 4959,
      "照": 4960,
      "煩": 4961,
      "煮": 4962,
      "熊": 4963,
      "熟": 4964,
      "熱": 4965,
      "燃": 4966,
      "燈": 4967,
      "燕": 4968,
      "營": 4969,
      "燥": 4970,
      "爆": 4971,
      "爐": 4972,
      "爪": 4973,
      "爱": 4974,
      "爵": 4975,
      "父": 4976,
      "爻": 4977,
      "爽": 4978,
      "爾": 4979,
      "牆": 4980,
      "片": 4981,
      "版": 4982,
      "牌": 4983,
      "牒": 4984,
      "牙": 4985,
      "牛": 4986,
      "牡": 4987,
      "牧": 4988,
      "物": 4989,
      "牲": 4990,
      "特": 4991,
      "犁": 4992,
      "犬": 4993,
      "犯": 4994,
      "状": 4995,
      "狂": 4996,
      "狐": 4997,
      "狗": 4998,
      "狩": 4999,
      "独": 5000,
      "狭": 5001,
      "狱": 5002,
      "猊": 5003,
      "猛": 5004,
      "猪": 5005,
      "猫": 5006,
      "献": 5007,
      "獄": 5008,
      "獎": 5009,
      "獣": 5010,
      "獧": 5011,
      "獭": 5012,
      "獯": 5013,
      "玄": 5014,
      "率": 5015,
      "玉": 5016,
      "王": 5017,
      "玩": 5018,
      "环": 5019,
      "现": 5020,
      "玲": 5021,
      "玻": 5022,
      "珍": 5023,
      "珞": 5024,
      "珠": 5025,
      "班": 5026,
      "現": 5027,
      "球": 5028,
      "理": 5029,
      "琛": 5030,
      "琦": 5031,
      "琪": 5032,
      "琴": 5033,
      "瑜": 5034,
      "瑞": 5035,
      "瑦": 5036,
      "瑩": 5037,
      "瑮": 5038,
      "瑯": 5039,
      "瑶": 5040,
      "璃": 5041,
      "璎": 5042,
      "瓜": 5043,
      "瓣": 5044,
      "瓦": 5045,
      "瓶": 5046,
      "瓷": 5047,
      "甄": 5048,
      "甚": 5049,
      "生": 5050,
      "產": 5051,
      "産": 5052,
      "用": 5053,
      "甬": 5054,
      "田": 5055,
      "由": 5056,
      "甲": 5057,
      "申": 5058,
      "电": 5059,
      "男": 5060,
      "町": 5061,
      "画": 5062,
      "畅": 5063,
      "界": 5064,
      "留": 5065,
      "略": 5066,
      "番": 5067,
      "畫": 5068,
      "畯": 5069,
      "異": 5070,
      "當": 5071,
      "疋": 5072,
      "疑": 5073,
      "疗": 5074,
      "疫": 5075,
      "疮": 5076,
      "疲": 5077,
      "疾": 5078,
      "病": 5079,
      "症": 5080,
      "痔": 5081,
      "痙": 5082,
      "痛": 5083,
      "痢": 5084,
      "痹": 5085,
      "瘓": 5086,
      "瘟": 5087,
      "瘠": 5088,
      "瘾": 5089,
      "癌": 5090,
      "癱": 5091,
      "発": 5092,
      "登": 5093,
      "發": 5094,
      "白": 5095,
      "百": 5096,
      "的": 5097,
      "皆": 5098,
      "皇": 5099,
      "皮": 5100,
      "盈": 5101,
      "益": 5102,
      "盐": 5103,
      "监": 5104,
      "盒": 5105,
      "盖": 5106,
      "盗": 5107,
      "盘": 5108,
      "盟": 5109,
      "盤": 5110,
      "目": 5111,
      "盲": 5112,
      "直": 5113,
      "相": 5114,
      "省": 5115,
      "看": 5116,
      "真": 5117,
      "眼": 5118,
      "着": 5119,
      "睐": 5120,
      "督": 5121,
      "睦": 5122,
      "睾": 5123,
      "瞭": 5124,
      "矢": 5125,
      "知": 5126,
      "矩": 5127,
      "短": 5128,
      "石": 5129,
      "矿": 5130,
      "码": 5131,
      "砂": 5132,
      "砌": 5133,
      "研": 5134,
      "砖": 5135,
      "破": 5136,
      "础": 5137,
      "硅": 5138,
      "硕": 5139,
      "硬": 5140,
      "确": 5141,
      "碍": 5142,
      "碎": 5143,
      "碗": 5144,
      "碳": 5145,
      "確": 5146,
      "碼": 5147,
      "碾": 5148,
      "磁": 5149,
      "磅": 5150,
      "磊": 5151,
      "磐": 5152,
      "磨": 5153,
      "磷": 5154,
      "示": 5155,
      "礼": 5156,
      "社": 5157,
      "祖": 5158,
      "祝": 5159,
      "神": 5160,
      "祥": 5161,
      "票": 5162,
      "祭": 5163,
      "禁": 5164,
      "福": 5165,
      "禮": 5166,
      "离": 5167,
      "秀": 5168,
      "私": 5169,
      "秆": 5170,
      "秉": 5171,
      "秋": 5172,
      "种": 5173,
      "科": 5174,
      "秒": 5175,
      "秘": 5176,
      "租": 5177,
      "积": 5178,
      "称": 5179,
      "秸": 5180,
      "移": 5181,
      "稀": 5182,
      "程": 5183,
      "稍": 5184,
      "税": 5185,
      "稳": 5186,
      "稿": 5187,
      "穂": 5188,
      "穆": 5189,
      "穯": 5190,
      "穴": 5191,
      "究": 5192,
      "穷": 5193,
      "空": 5194,
      "穿": 5195,
      "突": 5196,
      "窄": 5197,
      "窓": 5198,
      "窖": 5199,
      "窗": 5200,
      "窮": 5201,
      "窺": 5202,
      "立": 5203,
      "站": 5204,
      "竞": 5205,
      "竟": 5206,
      "章": 5207,
      "童": 5208,
      "端": 5209,
      "競": 5210,
      "笑": 5211,
      "笔": 5212,
      "笛": 5213,
      "笠": 5214,
      "符": 5215,
      "第": 5216,
      "等": 5217,
      "筑": 5218,
      "筒": 5219,
      "答": 5220,
      "策": 5221,
      "筛": 5222,
      "筹": 5223,
      "签": 5224,
      "简": 5225,
      "箍": 5226,
      "算": 5227,
      "管": 5228,
      "箭": 5229,
      "箱": 5230,
      "箴": 5231,
      "範": 5232,
      "篇": 5233,
      "篮": 5234,
      "簇": 5235,
      "簡": 5236,
      "籍": 5237,
      "籬": 5238,
      "米": 5239,
      "类": 5240,
      "粉": 5241,
      "粋": 5242,
      "粒": 5243,
      "粗": 5244,
      "粤": 5245,
      "粮": 5246,
      "粵": 5247,
      "粹": 5248,
      "精": 5249,
      "糖": 5250,
      "糙": 5251,
      "系": 5252,
      "紀": 5253,
      "約": 5254,
      "納": 5255,
      "紐": 5256,
      "紙": 5257,
      "級": 5258,
      "素": 5259,
      "索": 5260,
      "紧": 5261,
      "紫": 5262,
      "累": 5263,
      "細": 5264,
      "組": 5265,
      "経": 5266,
      "結": 5267,
      "絕": 5268,
      "絡": 5269,
      "統": 5270,
      "絵": 5271,
      "絶": 5272,
      "經": 5273,
      "続": 5274,
      "維": 5275,
      "網": 5276,
      "線": 5277,
      "締": 5278,
      "編": 5279,
      "縁": 5280,
      "縄": 5281,
      "繁": 5282,
      "繋": 5283,
      "繡": 5284,
      "繼": 5285,
      "續": 5286,
      "纠": 5287,
      "红": 5288,
      "纤": 5289,
      "约": 5290,
      "级": 5291,
      "纪": 5292,
      "纯": 5293,
      "纱": 5294,
      "纲": 5295,
      "纳": 5296,
      "纷": 5297,
      "纽": 5298,
      "线": 5299,
      "练": 5300,
      "组": 5301,
      "细": 5302,
      "织": 5303,
      "终": 5304,
      "绍": 5305,
      "经": 5306,
      "结": 5307,
      "绕": 5308,
      "绘": 5309,
      "给": 5310,
      "络": 5311,
      "绝": 5312,
      "统": 5313,
      "绣": 5314,
      "继": 5315,
      "绩": 5316,
      "续": 5317,
      "绳": 5318,
      "维": 5319,
      "绸": 5320,
      "综": 5321,
      "绿": 5322,
      "缆": 5323,
      "缓": 5324,
      "缔": 5325,
      "编": 5326,
      "缩": 5327,
      "缴": 5328,
      "缸": 5329,
      "缺": 5330,
      "罐": 5331,
      "网": 5332,
      "罕": 5333,
      "罗": 5334,
      "罚": 5335,
      "罪": 5336,
      "置": 5337,
      "署": 5338,
      "罷": 5339,
      "羅": 5340,
      "美": 5341,
      "群": 5342,
      "義": 5343,
      "翻": 5344,
      "老": 5345,
      "考": 5346,
      "者": 5347,
      "而": 5348,
      "耐": 5349,
      "耗": 5350,
      "耳": 5351,
      "耶": 5352,
      "聊": 5353,
      "职": 5354,
      "联": 5355,
      "聖": 5356,
      "聘": 5357,
      "聚": 5358,
      "聯": 5359,
      "聰": 5360,
      "聲": 5361,
      "職": 5362,
      "肃": 5363,
      "肖": 5364,
      "肘": 5365,
      "肝": 5366,
      "肠": 5367,
      "股": 5368,
      "肢": 5369,
      "肥": 5370,
      "肯": 5371,
      "育": 5372,
      "肺": 5373,
      "肾": 5374,
      "胀": 5375,
      "胆": 5376,
      "背": 5377,
      "胜": 5378,
      "胞": 5379,
      "胶": 5380,
      "胸": 5381,
      "能": 5382,
      "脂": 5383,
      "脆": 5384,
      "脉": 5385,
      "脑": 5386,
      "脱": 5387,
      "脳": 5388,
      "腊": 5389,
      "腐": 5390,
      "腔": 5391,
      "腰": 5392,
      "腹": 5393,
      "腺": 5394,
      "腻": 5395,
      "腾": 5396,
      "腿": 5397,
      "膜": 5398,
      "膝": 5399,
      "膣": 5400,
      "膨": 5401,
      "臂": 5402,
      "臣": 5403,
      "臥": 5404,
      "自": 5405,
      "至": 5406,
      "致": 5407,
      "與": 5408,
      "興": 5409,
      "舐": 5410,
      "舜": 5411,
      "舞": 5412,
      "舟": 5413,
      "航": 5414,
      "般": 5415,
      "舰": 5416,
      "舱": 5417,
      "舵": 5418,
      "舶": 5419,
      "船": 5420,
      "艘": 5421,
      "艮": 5422,
      "良": 5423,
      "色": 5424,
      "艶": 5425,
      "艷": 5426,
      "艺": 5427,
      "艾": 5428,
      "节": 5429,
      "芒": 5430,
      "芦": 5431,
      "芬": 5432,
      "芯": 5433,
      "花": 5434,
      "芳": 5435,
      "苏": 5436,
      "苑": 5437,
      "若": 5438,
      "苦": 5439,
      "苯": 5440,
      "英": 5441,
      "苹": 5442,
      "范": 5443,
      "茅": 5444,
      "茨": 5445,
      "茸": 5446,
      "茹": 5447,
      "草": 5448,
      "荐": 5449,
      "荒": 5450,
      "荔": 5451,
      "荡": 5452,
      "荥": 5453,
      "荧": 5454,
      "药": 5455,
      "荷": 5456,
      "莉": 5457,
      "莊": 5458,
      "莞": 5459,
      "莫": 5460,
      "莱": 5461,
      "获": 5462,
      "菉": 5463,
      "菌": 5464,
      "菓": 5465,
      "菜": 5466,
      "華": 5467,
      "菲": 5468,
      "萄": 5469,
      "萌": 5470,
      "营": 5471,
      "萨": 5472,
      "萩": 5473,
      "落": 5474,
      "葉": 5475,
      "著": 5476,
      "葡": 5477,
      "葩": 5478,
      "葫": 5479,
      "葬": 5480,
      "蒋": 5481,
      "蒙": 5482,
      "蒸": 5483,
      "蓝": 5484,
      "蓬": 5485,
      "蓮": 5486,
      "蔡": 5487,
      "蔼": 5488,
      "蔽": 5489,
      "薄": 5490,
      "薩": 5491,
      "薪": 5492,
      "藍": 5493,
      "藏": 5494,
      "藝": 5495,
      "藤": 5496,
      "蘇": 5497,
      "蘭": 5498,
      "虎": 5499,
      "虐": 5500,
      "虑": 5501,
      "處": 5502,
      "虚": 5503,
      "號": 5504,
      "虫": 5505,
      "虽": 5506,
      "蚀": 5507,
      "蚊": 5508,
      "蛊": 5509,
      "蛙": 5510,
      "蜂": 5511,
      "蜗": 5512,
      "蜜": 5513,
      "融": 5514,
      "螺": 5515,
      "蟻": 5516,
      "血": 5517,
      "行": 5518,
      "衍": 5519,
      "術": 5520,
      "街": 5521,
      "衡": 5522,
      "衣": 5523,
      "补": 5524,
      "表": 5525,
      "衰": 5526,
      "袖": 5527,
      "袜": 5528,
      "被": 5529,
      "袭": 5530,
      "裁": 5531,
      "裂": 5532,
      "装": 5533,
      "裝": 5534,
      "裡": 5535,
      "裸": 5536,
      "製": 5537,
      "複": 5538,
      "褏": 5539,
      "褘": 5540,
      "襫": 5541,
      "西": 5542,
      "要": 5543,
      "覆": 5544,
      "見": 5545,
      "規": 5546,
      "視": 5547,
      "親": 5548,
      "観": 5549,
      "覽": 5550,
      "见": 5551,
      "观": 5552,
      "规": 5553,
      "视": 5554,
      "览": 5555,
      "觉": 5556,
      "角": 5557,
      "解": 5558,
      "触": 5559,
      "觸": 5560,
      "言": 5561,
      "計": 5562,
      "訊": 5563,
      "討": 5564,
      "記": 5565,
      "訙": 5566,
      "訛": 5567,
      "訜": 5568,
      "設": 5569,
      "証": 5570,
      "話": 5571,
      "該": 5572,
      "詳": 5573,
      "誌": 5574,
      "認": 5575,
      "誓": 5576,
      "語": 5577,
      "誠": 5578,
      "說": 5579,
      "誰": 5580,
      "談": 5581,
      "請": 5582,
      "論": 5583,
      "諾": 5584,
      "謝": 5585,
      "謨": 5586,
      "證": 5587,
      "識": 5588,
      "警": 5589,
      "譯": 5590,
      "计": 5591,
      "订": 5592,
      "认": 5593,
      "讨": 5594,
      "让": 5595,
      "训": 5596,
      "议": 5597,
      "讯": 5598,
      "记": 5599,
      "讲": 5600,
      "讷": 5601,
      "许": 5602,
      "论": 5603,
      "讼": 5604,
      "设": 5605,
      "访": 5606,
      "证": 5607,
      "评": 5608,
      "识": 5609,
      "诉": 5610,
      "诊": 5611,
      "词": 5612,
      "译": 5613,
      "试": 5614,
      "诗": 5615,
      "诚": 5616,
      "话": 5617,
      "询": 5618,
      "该": 5619,
      "详": 5620,
      "诫": 5621,
      "语": 5622,
      "误": 5623,
      "诱": 5624,
      "说": 5625,
      "请": 5626,
      "诸": 5627,
      "诺": 5628,
      "读": 5629,
      "课": 5630,
      "调": 5631,
      "谈": 5632,
      "谊": 5633,
      "谐": 5634,
      "谓": 5635,
      "谢": 5636,
      "谧": 5637,
      "谱": 5638,
      "谷": 5639,
      "豆": 5640,
      "豊": 5641,
      "豐": 5642,
      "豚": 5643,
      "象": 5644,
      "豪": 5645,
      "貂": 5646,
      "負": 5647,
      "財": 5648,
      "貨": 5649,
      "販": 5650,
      "責": 5651,
      "買": 5652,
      "費": 5653,
      "貼": 5654,
      "貿": 5655,
      "資": 5656,
      "賊": 5657,
      "賢": 5658,
      "賣": 5659,
      "質": 5660,
      "賬": 5661,
      "賮": 5662,
      "賱": 5663,
      "賲": 5664,
      "賳": 5665,
      "賴": 5666,
      "賵": 5667,
      "賷": 5668,
      "購": 5669,
      "贝": 5670,
      "负": 5671,
      "贡": 5672,
      "财": 5673,
      "责": 5674,
      "败": 5675,
      "账": 5676,
      "货": 5677,
      "质": 5678,
      "贩": 5679,
      "贫": 5680,
      "购": 5681,
      "贯": 5682,
      "贰": 5683,
      "贴": 5684,
      "贵": 5685,
      "贸": 5686,
      "费": 5687,
      "贺": 5688,
      "贾": 5689,
      "资": 5690,
      "赋": 5691,
      "赏": 5692,
      "赔": 5693,
      "赖": 5694,
      "赚": 5695,
      "赛": 5696,
      "赞": 5697,
      "赠": 5698,
      "赢": 5699,
      "赤": 5700,
      "赫": 5701,
      "走": 5702,
      "赴": 5703,
      "赵": 5704,
      "起": 5705,
      "超": 5706,
      "越": 5707,
      "趋": 5708,
      "趣": 5709,
      "足": 5710,
      "跌": 5711,
      "跑": 5712,
      "距": 5713,
      "跟": 5714,
      "跡": 5715,
      "跨": 5716,
      "路": 5717,
      "跳": 5718,
      "践": 5719,
      "踐": 5720,
      "踢": 5721,
      "踪": 5722,
      "蹲": 5723,
      "躕": 5724,
      "身": 5725,
      "車": 5726,
      "軟": 5727,
      "転": 5728,
      "較": 5729,
      "載": 5730,
      "輕": 5731,
      "輝": 5732,
      "轉": 5733,
      "车": 5734,
      "轨": 5735,
      "转": 5736,
      "轮": 5737,
      "软": 5738,
      "轴": 5739,
      "轻": 5740,
      "载": 5741,
      "较": 5742,
      "辅": 5743,
      "辆": 5744,
      "辉": 5745,
      "辊": 5746,
      "辐": 5747,
      "辑": 5748,
      "输": 5749,
      "辛": 5750,
      "辞": 5751,
      "辣": 5752,
      "辨": 5753,
      "辩": 5754,
      "辱": 5755,
      "边": 5756,
      "辺": 5757,
      "込": 5758,
      "达": 5759,
      "迁": 5760,
      "迄": 5761,
      "迅": 5762,
      "过": 5763,
      "迈": 5764,
      "迎": 5765,
      "运": 5766,
      "近": 5767,
      "返": 5768,
      "还": 5769,
      "这": 5770,
      "进": 5771,
      "远": 5772,
      "违": 5773,
      "连": 5774,
      "迪": 5775,
      "迫": 5776,
      "迭": 5777,
      "述": 5778,
      "迹": 5779,
      "追": 5780,
      "退": 5781,
      "送": 5782,
      "适": 5783,
      "逃": 5784,
      "选": 5785,
      "逊": 5786,
      "逐": 5787,
      "递": 5788,
      "途": 5789,
      "這": 5790,
      "通": 5791,
      "速": 5792,
      "造": 5793,
      "連": 5794,
      "逮": 5795,
      "進": 5796,
      "逸": 5797,
      "逻": 5798,
      "逾": 5799,
      "遇": 5800,
      "遊": 5801,
      "運": 5802,
      "遍": 5803,
      "過": 5804,
      "遏": 5805,
      "道": 5806,
      "達": 5807,
      "遗": 5808,
      "遣": 5809,
      "遥": 5810,
      "遭": 5811,
      "遮": 5812,
      "遵": 5813,
      "選": 5814,
      "避": 5815,
      "邀": 5816,
      "邁": 5817,
      "還": 5818,
      "邝": 5819,
      "那": 5820,
      "邦": 5821,
      "邮": 5822,
      "邱": 5823,
      "邸": 5824,
      "邺": 5825,
      "邻": 5826,
      "郁": 5827,
      "郊": 5828,
      "郎": 5829,
      "郡": 5830,
      "部": 5831,
      "郭": 5832,
      "都": 5833,
      "鄂": 5834,
      "配": 5835,
      "酒": 5836,
      "酷": 5837,
      "酸": 5838,
      "醉": 5839,
      "醒": 5840,
      "醚": 5841,
      "醤": 5842,
      "采": 5843,
      "释": 5844,
      "里": 5845,
      "重": 5846,
      "野": 5847,
      "量": 5848,
      "金": 5849,
      "鈥": 5850,
      "鈴": 5851,
      "鉄": 5852,
      "鉴": 5853,
      "銀": 5854,
      "銷": 5855,
      "鋁": 5856,
      "鋸": 5857,
      "鋼": 5858,
      "錄": 5859,
      "錢": 5860,
      "錦": 5861,
      "録": 5862,
      "錶": 5863,
      "鎖": 5864,
      "鎮": 5865,
      "鑑": 5866,
      "鑫": 5867,
      "针": 5868,
      "钛": 5869,
      "钟": 5870,
      "钢": 5871,
      "钩": 5872,
      "钱": 5873,
      "铁": 5874,
      "铃": 5875,
      "铜": 5876,
      "铝": 5877,
      "铢": 5878,
      "铬": 5879,
      "铭": 5880,
      "铲": 5881,
      "银": 5882,
      "铸": 5883,
      "链": 5884,
      "销": 5885,
      "锁": 5886,
      "锂": 5887,
      "锈": 5888,
      "错": 5889,
      "锡": 5890,
      "锤": 5891,
      "锥": 5892,
      "锦": 5893,
      "键": 5894,
      "锯": 5895,
      "锰": 5896,
      "锻": 5897,
      "镇": 5898,
      "镍": 5899,
      "镑": 5900,
      "镦": 5901,
      "長": 5902,
      "长": 5903,
      "門": 5904,
      "開": 5905,
      "閑": 5906,
      "間": 5907,
      "関": 5908,
      "閱": 5909,
      "闘": 5910,
      "關": 5911,
      "门": 5912,
      "闭": 5913,
      "问": 5914,
      "闯": 5915,
      "闲": 5916,
      "间": 5917,
      "闷": 5918,
      "闹": 5919,
      "闻": 5920,
      "闽": 5921,
      "阀": 5922,
      "阁": 5923,
      "阅": 5924,
      "阐": 5925,
      "队": 5926,
      "阪": 5927,
      "防": 5928,
      "阳": 5929,
      "阴": 5930,
      "阵": 5931,
      "阶": 5932,
      "阻": 5933,
      "阿": 5934,
      "附": 5935,
      "际": 5936,
      "陆": 5937,
      "陈": 5938,
      "降": 5939,
      "限": 5940,
      "陛": 5941,
      "院": 5942,
      "除": 5943,
      "险": 5944,
      "陳": 5945,
      "陵": 5946,
      "陶": 5947,
      "陷": 5948,
      "陽": 5949,
      "隆": 5950,
      "階": 5951,
      "随": 5952,
      "隐": 5953,
      "隔": 5954,
      "際": 5955,
      "障": 5956,
      "隧": 5957,
      "隨": 5958,
      "隱": 5959,
      "隶": 5960,
      "隻": 5961,
      "难": 5962,
      "雀": 5963,
      "雄": 5964,
      "雅": 5965,
      "集": 5966,
      "雇": 5967,
      "雍": 5968,
      "雙": 5969,
      "離": 5970,
      "難": 5971,
      "雨": 5972,
      "雪": 5973,
      "雲": 5974,
      "零": 5975,
      "雷": 5976,
      "電": 5977,
      "需": 5978,
      "震": 5979,
      "露": 5980,
      "霸": 5981,
      "霾": 5982,
      "青": 5983,
      "靓": 5984,
      "静": 5985,
      "非": 5986,
      "靠": 5987,
      "面": 5988,
      "革": 5989,
      "鞋": 5990,
      "韓": 5991,
      "韦": 5992,
      "韩": 5993,
      "音": 5994,
      "頁": 5995,
      "項": 5996,
      "預": 5997,
      "頗": 5998,
      "領": 5999,
      "頩": 6000,
      "頭": 6001,
      "頳": 6002,
      "頴": 6003,
      "頻": 6004,
      "題": 6005,
      "額": 6006,
      "類": 6007,
      "顯": 6008,
      "页": 6009,
      "顶": 6010,
      "项": 6011,
      "顺": 6012,
      "须": 6013,
      "顽": 6014,
      "顾": 6015,
      "顿": 6016,
      "颁": 6017,
      "预": 6018,
      "领": 6019,
      "频": 6020,
      "颖": 6021,
      "颗": 6022,
      "题": 6023,
      "颚": 6024,
      "颜": 6025,
      "额": 6026,
      "風": 6027,
      "风": 6028,
      "飛": 6029,
      "飞": 6030,
      "食": 6031,
      "飲": 6032,
      "飾": 6033,
      "餐": 6034,
      "館": 6035,
      "饭": 6036,
      "饰": 6037,
      "馆": 6038,
      "馈": 6039,
      "首": 6040,
      "香": 6041,
      "馨": 6042,
      "馬": 6043,
      "駁": 6044,
      "駆": 6045,
      "駿": 6046,
      "騎": 6047,
      "马": 6048,
      "驰": 6049,
      "驱": 6050,
      "驶": 6051,
      "驹": 6052,
      "驻": 6053,
      "驾": 6054,
      "验": 6055,
      "骤": 6056,
      "骨": 6057,
      "體": 6058,
      "高": 6059,
      "鬆": 6060,
      "鬥": 6061,
      "鬲": 6062,
      "鬼": 6063,
      "魁": 6064,
      "魂": 6065,
      "魄": 6066,
      "魔": 6067,
      "魯": 6068,
      "鯨": 6069,
      "鱼": 6070,
      "鲁": 6071,
      "鳥": 6072,
      "鸟": 6073,
      "鸡": 6074,
      "鸿": 6075,
      "鹅": 6076,
      "鹤": 6077,
      "鹿": 6078,
      "麗": 6079,
      "麦": 6080,
      "麻": 6081,
      "黄": 6082,
      "黎": 6083,
      "黑": 6084,
      "黒": 6085,
      "默": 6086,
      "鼓": 6087,
      "齐": 6088,
      "齿": 6089,
      "龄": 6090,
      "龍": 6091,
      "龙": 6092,
      "ꂽ": 6093,
      "ꊞ": 6094,
      "ꋪ": 6095,
      "ꋬ": 6096,
      "ꍇ": 6097,
      "ꍏ": 6098,
      "ꍗ": 6099,
      "꒦": 6100,
      "꒷": 6101,
      "ꓘ": 6102,
      "ꕥ": 6103,
      "Ꙋ": 6104,
      "Ꚍ": 6105,
      "ꜜ": 6106,
      "ꜰ": 6107,
      "ꜱ": 6108,
      "Ꝗ": 6109,
      "Ꞅ": 6110,
      "꞉": 6111,
      "Ꭓ": 6112,
      "ꟷ": 6113,
      "ꦁ": 6114,
      "ꦪ": 6115,
      "ꦮ": 6116,
      "ꦯ": 6117,
      "꧁": 6118,
      "꧂": 6119,
      "가": 6120,
      "각": 6121,
      "간": 6122,
      "감": 6123,
      "갑": 6124,
      "강": 6125,
      "같": 6126,
      "개": 6127,
      "객": 6128,
      "거": 6129,
      "건": 6130,
      "걸": 6131,
      "것": 6132,
      "게": 6133,
      "격": 6134,
      "견": 6135,
      "경": 6136,
      "계": 6137,
      "고": 6138,
      "곤": 6139,
      "곱": 6140,
      "곳": 6141,
      "공": 6142,
      "과": 6143,
      "관": 6144,
      "광": 6145,
      "교": 6146,
      "구": 6147,
      "국": 6148,
      "군": 6149,
      "굳": 6150,
      "굴": 6151,
      "궁": 6152,
      "권": 6153,
      "귀": 6154,
      "규": 6155,
      "그": 6156,
      "글": 6157,
      "금": 6158,
      "기": 6159,
      "긴": 6160,
      "김": 6161,
      "깊": 6162,
      "까": 6163,
      "깔": 6164,
      "깨": 6165,
      "께": 6166,
      "꼬": 6167,
      "꼴": 6168,
      "꽃": 6169,
      "꾸": 6170,
      "꿀": 6171,
      "끄": 6172,
      "끼": 6173,
      "나": 6174,
      "난": 6175,
      "날": 6176,
      "남": 6177,
      "납": 6178,
      "내": 6179,
      "너": 6180,
      "네": 6181,
      "넷": 6182,
      "년": 6183,
      "녕": 6184,
      "노": 6185,
      "논": 6186,
      "놀": 6187,
      "높": 6188,
      "느": 6189,
      "는": 6190,
      "늘": 6191,
      "능": 6192,
      "니": 6193,
      "닌": 6194,
      "님": 6195,
      "닙": 6196,
      "다": 6197,
      "닥": 6198,
      "단": 6199,
      "담": 6200,
      "닷": 6201,
      "당": 6202,
      "닿": 6203,
      "대": 6204,
      "댓": 6205,
      "더": 6206,
      "덕": 6207,
      "던": 6208,
      "덟": 6209,
      "덤": 6210,
      "데": 6211,
      "도": 6212,
      "독": 6213,
      "돈": 6214,
      "돌": 6215,
      "동": 6216,
      "되": 6217,
      "된": 6218,
      "두": 6219,
      "둘": 6220,
      "둥": 6221,
      "듀": 6222,
      "드": 6223,
      "든": 6224,
      "들": 6225,
      "등": 6226,
      "디": 6227,
      "딩": 6228,
      "딸": 6229,
      "땅": 6230,
      "때": 6231,
      "떠": 6232,
      "떤": 6233,
      "또": 6234,
      "뛰": 6235,
      "뜻": 6236,
      "라": 6237,
      "락": 6238,
      "란": 6239,
      "람": 6240,
      "랐": 6241,
      "랑": 6242,
      "래": 6243,
      "램": 6244,
      "러": 6245,
      "런": 6246,
      "럼": 6247,
      "럿": 6248,
      "렇": 6249,
      "레": 6250,
      "렌": 6251,
      "렙": 6252,
      "렛": 6253,
      "려": 6254,
      "력": 6255,
      "련": 6256,
      "렬": 6257,
      "령": 6258,
      "례": 6259,
      "로": 6260,
      "록": 6261,
      "롤": 6262,
      "롭": 6263,
      "롯": 6264,
      "료": 6265,
      "룡": 6266,
      "루": 6267,
      "룰": 6268,
      "류": 6269,
      "르": 6270,
      "른": 6271,
      "를": 6272,
      "릇": 6273,
      "릉": 6274,
      "리": 6275,
      "릭": 6276,
      "린": 6277,
      "릴": 6278,
      "림": 6279,
      "립": 6280,
      "링": 6281,
      "마": 6282,
      "막": 6283,
      "만": 6284,
      "많": 6285,
      "말": 6286,
      "맛": 6287,
      "망": 6288,
      "맞": 6289,
      "매": 6290,
      "먹": 6291,
      "메": 6292,
      "멜": 6293,
      "멩": 6294,
      "면": 6295,
      "명": 6296,
      "모": 6297,
      "목": 6298,
      "몰": 6299,
      "못": 6300,
      "묘": 6301,
      "무": 6302,
      "문": 6303,
      "물": 6304,
      "뭐": 6305,
      "뮤": 6306,
      "미": 6307,
      "민": 6308,
      "믿": 6309,
      "밀": 6310,
      "밍": 6311,
      "바": 6312,
      "박": 6313,
      "반": 6314,
      "받": 6315,
      "발": 6316,
      "밤": 6317,
      "방": 6318,
      "배": 6319,
      "백": 6320,
      "버": 6321,
      "번": 6322,
      "벌": 6323,
      "법": 6324,
      "벳": 6325,
      "변": 6326,
      "별": 6327,
      "병": 6328,
      "보": 6329,
      "복": 6330,
      "본": 6331,
      "볼": 6332,
      "부": 6333,
      "북": 6334,
      "분": 6335,
      "불": 6336,
      "뷰": 6337,
      "브": 6338,
      "블": 6339,
      "비": 6340,
      "빈": 6341,
      "빛": 6342,
      "빡": 6343,
      "빨": 6344,
      "빵": 6345,
      "뺌": 6346,
      "뾰": 6347,
      "쁘": 6348,
      "사": 6349,
      "산": 6350,
      "살": 6351,
      "삼": 6352,
      "상": 6353,
      "새": 6354,
      "샌": 6355,
      "생": 6356,
      "샵": 6357,
      "서": 6358,
      "석": 6359,
      "선": 6360,
      "설": 6361,
      "섭": 6362,
      "섯": 6363,
      "성": 6364,
      "세": 6365,
      "센": 6366,
      "셋": 6367,
      "션": 6368,
      "셨": 6369,
      "소": 6370,
      "속": 6371,
      "손": 6372,
      "솔": 6373,
      "송": 6374,
      "쇼": 6375,
      "수": 6376,
      "숙": 6377,
      "순": 6378,
      "숭": 6379,
      "쉬": 6380,
      "쉽": 6381,
      "슈": 6382,
      "스": 6383,
      "슬": 6384,
      "습": 6385,
      "승": 6386,
      "시": 6387,
      "식": 6388,
      "신": 6389,
      "실": 6390,
      "십": 6391,
      "싹": 6392,
      "쌧": 6393,
      "쓰": 6394,
      "씨": 6395,
      "아": 6396,
      "안": 6397,
      "않": 6398,
      "알": 6399,
      "암": 6400,
      "았": 6401,
      "앙": 6402,
      "앞": 6403,
      "애": 6404,
      "앱": 6405,
      "야": 6406,
      "약": 6407,
      "얀": 6408,
      "양": 6409,
      "어": 6410,
      "억": 6411,
      "언": 6412,
      "얼": 6413,
      "업": 6414,
      "없": 6415,
      "엇": 6416,
      "었": 6417,
      "에": 6418,
      "엔": 6419,
      "엘": 6420,
      "엠": 6421,
      "여": 6422,
      "역": 6423,
      "연": 6424,
      "열": 6425,
      "염": 6426,
      "영": 6427,
      "예": 6428,
      "오": 6429,
      "옥": 6430,
      "온": 6431,
      "올": 6432,
      "옹": 6433,
      "와": 6434,
      "왕": 6435,
      "외": 6436,
      "요": 6437,
      "욕": 6438,
      "용": 6439,
      "우": 6440,
      "운": 6441,
      "울": 6442,
      "웃": 6443,
      "워": 6444,
      "원": 6445,
      "월": 6446,
      "웠": 6447,
      "웹": 6448,
      "위": 6449,
      "유": 6450,
      "육": 6451,
      "윤": 6452,
      "율": 6453,
      "으": 6454,
      "은": 6455,
      "을": 6456,
      "음": 6457,
      "의": 6458,
      "이": 6459,
      "익": 6460,
      "인": 6461,
      "일": 6462,
      "읽": 6463,
      "임": 6464,
      "입": 6465,
      "있": 6466,
      "잎": 6467,
      "자": 6468,
      "작": 6469,
      "잘": 6470,
      "잠": 6471,
      "장": 6472,
      "잭": 6473,
      "저": 6474,
      "적": 6475,
      "전": 6476,
      "접": 6477,
      "정": 6478,
      "제": 6479,
      "져": 6480,
      "졌": 6481,
      "조": 6482,
      "족": 6483,
      "좀": 6484,
      "종": 6485,
      "좋": 6486,
      "좌": 6487,
      "주": 6488,
      "죽": 6489,
      "준": 6490,
      "중": 6491,
      "즈": 6492,
      "지": 6493,
      "직": 6494,
      "진": 6495,
      "질": 6496,
      "집": 6497,
      "짓": 6498,
      "짝": 6499,
      "짧": 6500,
      "째": 6501,
      "쪼": 6502,
      "찔": 6503,
      "차": 6504,
      "찬": 6505,
      "찼": 6506,
      "창": 6507,
      "찾": 6508,
      "채": 6509,
      "책": 6510,
      "처": 6511,
      "척": 6512,
      "천": 6513,
      "철": 6514,
      "청": 6515,
      "초": 6516,
      "촌": 6517,
      "축": 6518,
      "춘": 6519,
      "출": 6520,
      "충": 6521,
      "츠": 6522,
      "층": 6523,
      "치": 6524,
      "칠": 6525,
      "카": 6526,
      "캔": 6527,
      "캣": 6528,
      "커": 6529,
      "컨": 6530,
      "컴": 6531,
      "켓": 6532,
      "코": 6533,
      "콘": 6534,
      "콜": 6535,
      "쿠": 6536,
      "큦": 6537,
      "크": 6538,
      "큰": 6539,
      "클": 6540,
      "킥": 6541,
      "타": 6542,
      "탑": 6543,
      "태": 6544,
      "택": 6545,
      "탱": 6546,
      "터": 6547,
      "턱": 6548,
      "턴": 6549,
      "털": 6550,
      "텅": 6551,
      "테": 6552,
      "텐": 6553,
      "텱": 6554,
      "토": 6555,
      "통": 6556,
      "퇿": 6557,
      "투": 6558,
      "툰": 6559,
      "퉁": 6560,
      "퉘": 6561,
      "퉻": 6562,
      "튔": 6563,
      "튞": 6564,
      "튨": 6565,
      "튲": 6566,
      "트": 6567,
      "특": 6568,
      "튼": 6569,
      "틀": 6570,
      "틈": 6571,
      "티": 6572,
      "팀": 6573,
      "팅": 6574,
      "파": 6575,
      "판": 6576,
      "팔": 6577,
      "팟": 6578,
      "팠": 6579,
      "패": 6580,
      "팩": 6581,
      "퍈": 6582,
      "퍦": 6583,
      "퍼": 6584,
      "펄": 6585,
      "펍": 6586,
      "펎": 6587,
      "페": 6588,
      "펜": 6589,
      "펬": 6590,
      "편": 6591,
      "평": 6592,
      "폊": 6593,
      "폔": 6594,
      "포": 6595,
      "폭": 6596,
      "폰": 6597,
      "퐍": 6598,
      "퐚": 6599,
      "퐞": 6600,
      "퐢": 6601,
      "퐥": 6602,
      "퐫": 6603,
      "퐯": 6604,
      "푌": 6605,
      "표": 6606,
      "푪": 6607,
      "품": 6608,
      "풢": 6609,
      "퓎": 6610,
      "퓢": 6611,
      "퓻": 6612,
      "프": 6613,
      "플": 6614,
      "픬": 6615,
      "픲": 6616,
      "픴": 6617,
      "피": 6618,
      "핑": 6619,
      "하": 6620,
      "학": 6621,
      "한": 6622,
      "할": 6623,
      "함": 6624,
      "합": 6625,
      "항": 6626,
      "해": 6627,
      "했": 6628,
      "행": 6629,
      "향": 6630,
      "햾": 6631,
      "허": 6632,
      "헌": 6633,
      "헠": 6634,
      "헣": 6635,
      "헤": 6636,
      "헬": 6637,
      "혀": 6638,
      "현": 6639,
      "형": 6640,
      "혘": 6641,
      "혜": 6642,
      "호": 6643,
      "혹": 6644,
      "혼": 6645,
      "홈": 6646,
      "홉": 6647,
      "홍": 6648,
      "화": 6649,
      "확": 6650,
      "환": 6651,
      "활": 6652,
      "황": 6653,
      "회": 6654,
      "횐": 6655,
      "횤": 6656,
      "효": 6657,
      "후": 6658,
      "훈": 6659,
      "휒": 6660,
      "휴": 6661,
      "흥": 6662,
      "흮": 6663,
      "히": 6664,
      "힐": 6665,
      "힘": 6666,
      "ힼ": 6667,
      "": 6668,
      "": 6669,
      "": 6670,
      "": 6671,
      "": 6672,
      "": 6673,
      "﮼": 6674,
      "﴾": 6675,
      "﴿": 6676,
      "﷽": 6677,
      "︎": 6678,
      "️": 6679,
      "ﹳ": 6680,
      "﻿": 6681,
      "￼": 6682,
      "�": 6683,
      "𒀭": 6684,
      "𒁲": 6685,
      "𒂊": 6686,
      "𒄷": 6687,
      "𒈪": 6688,
      "𒉎": 6689,
      "𒉡": 6690,
      "𒌝": 6691,
      "𓂀": 6692,
      "𓂆": 6693,
      "𓃬": 6694,
      "𓃭": 6695,
      "𓄂": 6696,
      "𓅓": 6697,
      "𓆩": 6698,
      "𓆪": 6699,
      "𓇋": 6700,
      "𓎡": 6701,
      "𖠄": 6702,
      "𖠍": 6703,
      "𖠗": 6704,
      "𖠘": 6705,
      "𖠛": 6706,
      "𖠞": 6707,
      "𖠩": 6708,
      "𖠪": 6709,
      "𖠱": 6710,
      "𖠶": 6711,
      "🃏": 6712,
      "🅐": 6713,
      "🅑": 6714,
      "🅓": 6715,
      "🅗": 6716,
      "🅘": 6717,
      "🅛": 6718,
      "🅜": 6719,
      "🅝": 6720,
      "🅞": 6721,
      "🅡": 6722,
      "🅤": 6723,
      "🅩": 6724,
      "🅰": 6725,
      "🅱": 6726,
      "🅸": 6727,
      "🅻": 6728,
      "🅼": 6729,
      "🅽": 6730,
      "🅾": 6731,
      "🅿": 6732,
      "🆁": 6733,
      "🆃": 6734,
      "🆑": 6735,
      "🆓": 6736,
      "🆕": 6737,
      "🆘": 6738,
      "🆙": 6739,
      "🆚": 6740,
      "🇦": 6741,
      "🇧": 6742,
      "🇨": 6743,
      "🇩": 6744,
      "🇪": 6745,
      "🇫": 6746,
      "🇬": 6747,
      "🇭": 6748,
      "🇮": 6749,
      "🇯": 6750,
      "🇰": 6751,
      "🇱": 6752,
      "🇲": 6753,
      "🇳": 6754,
      "🇴": 6755,
      "🇵": 6756,
      "🇶": 6757,
      "🇷": 6758,
      "🇸": 6759,
      "🇹": 6760,
      "🇺": 6761,
      "🇻": 6762,
      "🇼": 6763,
      "🇽": 6764,
      "🇾": 6765,
      "🇿": 6766,
      "🌀": 6767,
      "🌂": 6768,
      "🌃": 6769,
      "🌄": 6770,
      "🌅": 6771,
      "🌆": 6772,
      "🌇": 6773,
      "🌈": 6774,
      "🌊": 6775,
      "🌋": 6776,
      "🌌": 6777,
      "🌍": 6778,
      "🌎": 6779,
      "🌏": 6780,
      "🌐": 6781,
      "🌑": 6782,
      "🌒": 6783,
      "🌓": 6784,
      "🌕": 6785,
      "🌖": 6786,
      "🌘": 6787,
      "🌙": 6788,
      "🌚": 6789,
      "🌛": 6790,
      "🌜": 6791,
      "🌝": 6792,
      "🌞": 6793,
      "🌟": 6794,
      "🌠": 6795,
      "🌡": 6796,
      "🌤": 6797,
      "🌥": 6798,
      "🌦": 6799,
      "🌧": 6800,
      "🌩": 6801,
      "🌪": 6802,
      "🌫": 6803,
      "🌬": 6804,
      "🌮": 6805,
      "🌰": 6806,
      "🌱": 6807,
      "🌲": 6808,
      "🌳": 6809,
      "🌴": 6810,
      "🌵": 6811,
      "🌶": 6812,
      "🌷": 6813,
      "🌸": 6814,
      "🌹": 6815,
      "🌺": 6816,
      "🌻": 6817,
      "🌼": 6818,
      "🌽": 6819,
      "🌾": 6820,
      "🌿": 6821,
      "🍀": 6822,
      "🍁": 6823,
      "🍂": 6824,
      "🍃": 6825,
      "🍄": 6826,
      "🍅": 6827,
      "🍆": 6828,
      "🍇": 6829,
      "🍈": 6830,
      "🍉": 6831,
      "🍊": 6832,
      "🍋": 6833,
      "🍌": 6834,
      "🍍": 6835,
      "🍎": 6836,
      "🍏": 6837,
      "🍐": 6838,
      "🍑": 6839,
      "🍒": 6840,
      "🍓": 6841,
      "🍔": 6842,
      "🍕": 6843,
      "🍗": 6844,
      "🍘": 6845,
      "🍙": 6846,
      "🍚": 6847,
      "🍛": 6848,
      "🍜": 6849,
      "🍝": 6850,
      "🍞": 6851,
      "🍟": 6852,
      "🍠": 6853,
      "🍡": 6854,
      "🍢": 6855,
      "🍣": 6856,
      "🍤": 6857,
      "🍥": 6858,
      "🍦": 6859,
      "🍨": 6860,
      "🍩": 6861,
      "🍪": 6862,
      "🍫": 6863,
      "🍬": 6864,
      "🍭": 6865,
      "🍯": 6866,
      "🍰": 6867,
      "🍱": 6868,
      "🍲": 6869,
      "🍳": 6870,
      "🍴": 6871,
      "🍵": 6872,
      "🍶": 6873,
      "🍷": 6874,
      "🍸": 6875,
      "🍹": 6876,
      "🍺": 6877,
      "🍻": 6878,
      "🍼": 6879,
      "🍽": 6880,
      "🍾": 6881,
      "🍿": 6882,
      "🎀": 6883,
      "🎁": 6884,
      "🎂": 6885,
      "🎃": 6886,
      "🎄": 6887,
      "🎅": 6888,
      "🎆": 6889,
      "🎈": 6890,
      "🎉": 6891,
      "🎊": 6892,
      "🎋": 6893,
      "🎌": 6894,
      "🎍": 6895,
      "🎎": 6896,
      "🎑": 6897,
      "🎒": 6898,
      "🎓": 6899,
      "🎖": 6900,
      "🎗": 6901,
      "🎙": 6902,
      "🎞": 6903,
      "🎟": 6904,
      "🎠": 6905,
      "🎡": 6906,
      "🎢": 6907,
      "🎣": 6908,
      "🎤": 6909,
      "🎥": 6910,
      "🎦": 6911,
      "🎧": 6912,
      "🎨": 6913,
      "🎩": 6914,
      "🎫": 6915,
      "🎬": 6916,
      "🎭": 6917,
      "🎮": 6918,
      "🎯": 6919,
      "🎲": 6920,
      "🎳": 6921,
      "🎴": 6922,
      "🎵": 6923,
      "🎶": 6924,
      "🎸": 6925,
      "🎹": 6926,
      "🎺": 6927,
      "🎻": 6928,
      "🎼": 6929,
      "🎾": 6930,
      "🏀": 6931,
      "🏁": 6932,
      "🏃": 6933,
      "🏄": 6934,
      "🏅": 6935,
      "🏆": 6936,
      "🏇": 6937,
      "🏊": 6938,
      "🏋": 6939,
      "🏌": 6940,
      "🏍": 6941,
      "🏎": 6942,
      "🏏": 6943,
      "🏐": 6944,
      "🏒": 6945,
      "🏔": 6946,
      "🏕": 6947,
      "🏖": 6948,
      "🏗": 6949,
      "🏘": 6950,
      "🏚": 6951,
      "🏛": 6952,
      "🏞": 6953,
      "🏟": 6954,
      "🏠": 6955,
      "🏡": 6956,
      "🏢": 6957,
      "🏤": 6958,
      "🏥": 6959,
      "🏦": 6960,
      "🏨": 6961,
      "🏩": 6962,
      "🏪": 6963,
      "🏫": 6964,
      "🏬": 6965,
      "🏭": 6966,
      "🏰": 6967,
      "🏳": 6968,
      "🏴": 6969,
      "🏵": 6970,
      "🏷": 6971,
      "🏹": 6972,
      "🏻": 6973,
      "🏼": 6974,
      "🏽": 6975,
      "🏾": 6976,
      "🏿": 6977,
      "🐀": 6978,
      "🐂": 6979,
      "🐃": 6980,
      "🐄": 6981,
      "🐅": 6982,
      "🐆": 6983,
      "🐇": 6984,
      "🐈": 6985,
      "🐊": 6986,
      "🐋": 6987,
      "🐌": 6988,
      "🐍": 6989,
      "🐎": 6990,
      "🐏": 6991,
      "🐐": 6992,
      "🐑": 6993,
      "🐒": 6994,
      "🐓": 6995,
      "🐔": 6996,
      "🐕": 6997,
      "🐗": 6998,
      "🐘": 6999,
      "🐙": 7000,
      "🐚": 7001,
      "🐛": 7002,
      "🐜": 7003,
      "🐝": 7004,
      "🐞": 7005,
      "🐟": 7006,
      "🐠": 7007,
      "🐡": 7008,
      "🐢": 7009,
      "🐣": 7010,
      "🐤": 7011,
      "🐥": 7012,
      "🐦": 7013,
      "🐧": 7014,
      "🐪": 7015,
      "🐫": 7016,
      "🐬": 7017,
      "🐭": 7018,
      "🐮": 7019,
      "🐰": 7020,
      "🐱": 7021,
      "🐲": 7022,
      "🐳": 7023,
      "🐴": 7024,
      "🐵": 7025,
      "🐶": 7026,
      "🐷": 7027,
      "🐸": 7028,
      "🐹": 7029,
      "🐺": 7030,
      "🐼": 7031,
      "🐽": 7032,
      "🐾": 7033,
      "🐿": 7034,
      "👀": 7035,
      "👁": 7036,
      "👂": 7037,
      "👃": 7038,
      "👄": 7039,
      "👅": 7040,
      "👆": 7041,
      "👇": 7042,
      "👈": 7043,
      "👉": 7044,
      "👊": 7045,
      "👋": 7046,
      "👌": 7047,
      "👍": 7048,
      "👎": 7049,
      "👏": 7050,
      "👐": 7051,
      "👑": 7052,
      "👓": 7053,
      "👔": 7054,
      "👕": 7055,
      "👖": 7056,
      "👗": 7057,
      "👙": 7058,
      "👜": 7059,
      "👞": 7060,
      "👟": 7061,
      "👠": 7062,
      "👢": 7063,
      "👣": 7064,
      "👤": 7065,
      "👥": 7066,
      "👦": 7067,
      "👧": 7068,
      "👨": 7069,
      "👩": 7070,
      "👪": 7071,
      "👫": 7072,
      "👬": 7073,
      "👭": 7074,
      "👮": 7075,
      "👯": 7076,
      "👰": 7077,
      "👱": 7078,
      "👲": 7079,
      "👳": 7080,
      "👴": 7081,
      "👵": 7082,
      "👶": 7083,
      "👷": 7084,
      "👸": 7085,
      "👹": 7086,
      "👺": 7087,
      "👻": 7088,
      "👼": 7089,
      "👽": 7090,
      "👾": 7091,
      "👿": 7092,
      "💀": 7093,
      "💁": 7094,
      "💂": 7095,
      "💃": 7096,
      "💄": 7097,
      "💅": 7098,
      "💆": 7099,
      "💇": 7100,
      "💉": 7101,
      "💊": 7102,
      "💋": 7103,
      "💌": 7104,
      "💍": 7105,
      "💎": 7106,
      "💏": 7107,
      "💐": 7108,
      "💑": 7109,
      "💓": 7110,
      "💔": 7111,
      "💕": 7112,
      "💖": 7113,
      "💗": 7114,
      "💘": 7115,
      "💙": 7116,
      "💚": 7117,
      "💛": 7118,
      "💜": 7119,
      "💝": 7120,
      "💞": 7121,
      "💟": 7122,
      "💠": 7123,
      "💡": 7124,
      "💢": 7125,
      "💣": 7126,
      "💤": 7127,
      "💥": 7128,
      "💦": 7129,
      "💧": 7130,
      "💨": 7131,
      "💩": 7132,
      "💪": 7133,
      "💫": 7134,
      "💬": 7135,
      "💭": 7136,
      "💮": 7137,
      "💯": 7138,
      "💰": 7139,
      "💱": 7140,
      "💲": 7141,
      "💳": 7142,
      "💴": 7143,
      "💵": 7144,
      "💶": 7145,
      "💷": 7146,
      "💸": 7147,
      "💹": 7148,
      "💻": 7149,
      "💼": 7150,
      "💾": 7151,
      "💿": 7152,
      "📀": 7153,
      "📂": 7154,
      "📃": 7155,
      "📄": 7156,
      "📅": 7157,
      "📆": 7158,
      "📇": 7159,
      "📈": 7160,
      "📉": 7161,
      "📊": 7162,
      "📋": 7163,
      "📌": 7164,
      "📍": 7165,
      "📎": 7166,
      "📐": 7167,
      "📑": 7168,
      "📒": 7169,
      "📓": 7170,
      "📔": 7171,
      "📕": 7172,
      "📖": 7173,
      "📗": 7174,
      "📘": 7175,
      "📙": 7176,
      "📚": 7177,
      "📛": 7178,
      "📜": 7179,
      "📝": 7180,
      "📞": 7181,
      "📟": 7182,
      "📡": 7183,
      "📢": 7184,
      "📣": 7185,
      "📤": 7186,
      "📥": 7187,
      "📦": 7188,
      "📧": 7189,
      "📨": 7190,
      "📩": 7191,
      "📬": 7192,
      "📮": 7193,
      "📰": 7194,
      "📱": 7195,
      "📲": 7196,
      "📳": 7197,
      "📴": 7198,
      "📵": 7199,
      "📶": 7200,
      "📷": 7201,
      "📸": 7202,
      "📹": 7203,
      "📺": 7204,
      "📻": 7205,
      "📼": 7206,
      "📽": 7207,
      "📿": 7208,
      "🔀": 7209,
      "🔁": 7210,
      "🔄": 7211,
      "🔅": 7212,
      "🔆": 7213,
      "🔈": 7214,
      "🔉": 7215,
      "🔊": 7216,
      "🔌": 7217,
      "🔍": 7218,
      "🔎": 7219,
      "🔐": 7220,
      "🔑": 7221,
      "🔒": 7222,
      "🔓": 7223,
      "🔔": 7224,
      "🔕": 7225,
      "🔖": 7226,
      "🔗": 7227,
      "🔘": 7228,
      "🔙": 7229,
      "🔚": 7230,
      "🔛": 7231,
      "🔜": 7232,
      "🔝": 7233,
      "🔞": 7234,
      "🔟": 7235,
      "🔢": 7236,
      "🔥": 7237,
      "🔦": 7238,
      "🔧": 7239,
      "🔨": 7240,
      "🔩": 7241,
      "🔪": 7242,
      "🔫": 7243,
      "🔬": 7244,
      "🔭": 7245,
      "🔮": 7246,
      "🔰": 7247,
      "🔱": 7248,
      "🔲": 7249,
      "🔳": 7250,
      "🔴": 7251,
      "🔵": 7252,
      "🔶": 7253,
      "🔷": 7254,
      "🔸": 7255,
      "🔹": 7256,
      "🔺": 7257,
      "🔻": 7258,
      "🔼": 7259,
      "🔽": 7260,
      "🕊": 7261,
      "🕋": 7262,
      "🕌": 7263,
      "🕎": 7264,
      "🕐": 7265,
      "🕑": 7266,
      "🕒": 7267,
      "🕓": 7268,
      "🕔": 7269,
      "🕕": 7270,
      "🕗": 7271,
      "🕘": 7272,
      "🕚": 7273,
      "🕛": 7274,
      "🕞": 7275,
      "🕢": 7276,
      "🕦": 7277,
      "🕧": 7278,
      "🕪": 7279,
      "🕯": 7280,
      "🕰": 7281,
      "🕳": 7282,
      "🕴": 7283,
      "🕵": 7284,
      "🕶": 7285,
      "🕷": 7286,
      "🕸": 7287,
      "🕹": 7288,
      "🕺": 7289,
      "🖇": 7290,
      "🖊": 7291,
      "🖋": 7292,
      "🖌": 7293,
      "🖍": 7294,
      "🖐": 7295,
      "🖑": 7296,
      "🖒": 7297,
      "🖕": 7298,
      "🖖": 7299,
      "🖤": 7300,
      "🖥": 7301,
      "🖨": 7302,
      "🖱": 7303,
      "🗂": 7304,
      "🗒": 7305,
      "🗓": 7306,
      "🗝": 7307,
      "🗞": 7308,
      "🗡": 7309,
      "🗣": 7310,
      "🗨": 7311,
      "🗳": 7312,
      "🗺": 7313,
      "🗽": 7314,
      "🗿": 7315,
      "😀": 7316,
      "😁": 7317,
      "😂": 7318,
      "😃": 7319,
      "😄": 7320,
      "😅": 7321,
      "😆": 7322,
      "😇": 7323,
      "😈": 7324,
      "😉": 7325,
      "😊": 7326,
      "😋": 7327,
      "😌": 7328,
      "😍": 7329,
      "😎": 7330,
      "😏": 7331,
      "😐": 7332,
      "😑": 7333,
      "😒": 7334,
      "😓": 7335,
      "😔": 7336,
      "😕": 7337,
      "😖": 7338,
      "😗": 7339,
      "😘": 7340,
      "😙": 7341,
      "😚": 7342,
      "😛": 7343,
      "😜": 7344,
      "😝": 7345,
      "😞": 7346,
      "😟": 7347,
      "😠": 7348,
      "😡": 7349,
      "😢": 7350,
      "😣": 7351,
      "😤": 7352,
      "😥": 7353,
      "😦": 7354,
      "😧": 7355,
      "😨": 7356,
      "😩": 7357,
      "😪": 7358,
      "😫": 7359,
      "😬": 7360,
      "😭": 7361,
      "😮": 7362,
      "😯": 7363,
      "😰": 7364,
      "😱": 7365,
      "😲": 7366,
      "😳": 7367,
      "😴": 7368,
      "😵": 7369,
      "😶": 7370,
      "😷": 7371,
      "😸": 7372,
      "😹": 7373,
      "😺": 7374,
      "😻": 7375,
      "😼": 7376,
      "😽": 7377,
      "😾": 7378,
      "😿": 7379,
      "🙀": 7380,
      "🙁": 7381,
      "🙂": 7382,
      "🙃": 7383,
      "🙄": 7384,
      "🙅": 7385,
      "🙆": 7386,
      "🙇": 7387,
      "🙈": 7388,
      "🙉": 7389,
      "🙊": 7390,
      "🙋": 7391,
      "🙌": 7392,
      "🙍": 7393,
      "🙎": 7394,
      "🙏": 7395,
      "🚀": 7396,
      "🚁": 7397,
      "🚂": 7398,
      "🚅": 7399,
      "🚆": 7400,
      "🚋": 7401,
      "🚌": 7402,
      "🚐": 7403,
      "🚑": 7404,
      "🚒": 7405,
      "🚓": 7406,
      "🚔": 7407,
      "🚕": 7408,
      "🚗": 7409,
      "🚘": 7410,
      "🚙": 7411,
      "🚚": 7412,
      "🚛": 7413,
      "🚜": 7414,
      "🚞": 7415,
      "🚢": 7416,
      "🚣": 7417,
      "🚥": 7418,
      "🚧": 7419,
      "🚨": 7420,
      "🚩": 7421,
      "🚪": 7422,
      "🚫": 7423,
      "🚬": 7424,
      "🚭": 7425,
      "🚮": 7426,
      "🚯": 7427,
      "🚰": 7428,
      "🚱": 7429,
      "🚲": 7430,
      "🚴": 7431,
      "🚶": 7432,
      "🚸": 7433,
      "🚺": 7434,
      "🚼": 7435,
      "🚽": 7436,
      "🚿": 7437,
      "🛀": 7438,
      "🛁": 7439,
      "🛂": 7440,
      "🛈": 7441,
      "🛋": 7442,
      "🛌": 7443,
      "🛍": 7444,
      "🛎": 7445,
      "🛏": 7446,
      "🛑": 7447,
      "🛒": 7448,
      "🛖": 7449,
      "🛠": 7450,
      "🛡": 7451,
      "🛢": 7452,
      "🛣": 7453,
      "🛤": 7454,
      "🛥": 7455,
      "🛩": 7456,
      "🛫": 7457,
      "🛬": 7458,
      "🛰": 7459,
      "🛳": 7460,
      "🛵": 7461,
      "🛶": 7462,
      "🟠": 7463,
      "🟡": 7464,
      "🟢": 7465,
      "🟣": 7466,
      "🟤": 7467,
      "🟥": 7468,
      "🟦": 7469,
      "🟧": 7470,
      "🟨": 7471,
      "🟩": 7472,
      "🟰": 7473,
      "🠝": 7474,
      "🤌": 7475,
      "🤍": 7476,
      "🤎": 7477,
      "🤏": 7478,
      "🤐": 7479,
      "🤑": 7480,
      "🤒": 7481,
      "🤓": 7482,
      "🤔": 7483,
      "🤕": 7484,
      "🤖": 7485,
      "🤗": 7486,
      "🤘": 7487,
      "🤙": 7488,
      "🤚": 7489,
      "🤛": 7490,
      "🤜": 7491,
      "🤝": 7492,
      "🤞": 7493,
      "🤟": 7494,
      "🤠": 7495,
      "🤡": 7496,
      "🤢": 7497,
      "🤣": 7498,
      "🤤": 7499,
      "🤥": 7500,
      "🤦": 7501,
      "🤧": 7502,
      "🤨": 7503,
      "🤩": 7504,
      "🤪": 7505,
      "🤫": 7506,
      "🤬": 7507,
      "🤭": 7508,
      "🤮": 7509,
      "🤯": 7510,
      "🤰": 7511,
      "🤱": 7512,
      "🤲": 7513,
      "🤳": 7514,
      "🤴": 7515,
      "🤵": 7516,
      "🤶": 7517,
      "🤷": 7518,
      "🤸": 7519,
      "🤹": 7520,
      "🤺": 7521,
      "🤼": 7522,
      "🤽": 7523,
      "🤾": 7524,
      "🥀": 7525,
      "🥁": 7526,
      "🥂": 7527,
      "🥃": 7528,
      "🥄": 7529,
      "🥅": 7530,
      "🥇": 7531,
      "🥈": 7532,
      "🥉": 7533,
      "🥊": 7534,
      "🥎": 7535,
      "🥏": 7536,
      "🥐": 7537,
      "🥑": 7538,
      "🥒": 7539,
      "🥓": 7540,
      "🥔": 7541,
      "🥗": 7542,
      "🥘": 7543,
      "🥚": 7544,
      "🥛": 7545,
      "🥜": 7546,
      "🥝": 7547,
      "🥞": 7548,
      "🥟": 7549,
      "🥡": 7550,
      "🥢": 7551,
      "🥣": 7552,
      "🥤": 7553,
      "🥥": 7554,
      "🥦": 7555,
      "🥨": 7556,
      "🥩": 7557,
      "🥪": 7558,
      "🥬": 7559,
      "🥮": 7560,
      "🥯": 7561,
      "🥰": 7562,
      "🥱": 7563,
      "🥲": 7564,
      "🥳": 7565,
      "🥴": 7566,
      "🥵": 7567,
      "🥶": 7568,
      "🥸": 7569,
      "🥹": 7570,
      "🥺": 7571,
      "🥼": 7572,
      "🥽": 7573,
      "🥾": 7574,
      "🥿": 7575,
      "🦀": 7576,
      "🦁": 7577,
      "🦂": 7578,
      "🦄": 7579,
      "🦅": 7580,
      "🦆": 7581,
      "🦇": 7582,
      "🦉": 7583,
      "🦊": 7584,
      "🦋": 7585,
      "🦌": 7586,
      "🦍": 7587,
      "🦎": 7588,
      "🦐": 7589,
      "🦑": 7590,
      "🦔": 7591,
      "🦗": 7592,
      "🦜": 7593,
      "🦞": 7594,
      "🦟": 7595,
      "🦠": 7596,
      "🦢": 7597,
      "🦦": 7598,
      "🦧": 7599,
      "🦩": 7600,
      "🦭": 7601,
      "🦯": 7602,
      "🦰": 7603,
      "🦲": 7604,
      "🦳": 7605,
      "🦴": 7606,
      "🦶": 7607,
      "🦷": 7608,
      "🦸": 7609,
      "🦹": 7610,
      "🦼": 7611,
      "🦽": 7612,
      "🦾": 7613,
      "🧀": 7614,
      "🧁": 7615,
      "🧂": 7616,
      "🧅": 7617,
      "🧈": 7618,
      "🧉": 7619,
      "🧋": 7620,
      "🧎": 7621,
      "🧏": 7622,
      "🧐": 7623,
      "🧑": 7624,
      "🧒": 7625,
      "🧓": 7626,
      "🧔": 7627,
      "🧕": 7628,
      "🧖": 7629,
      "🧘": 7630,
      "🧙": 7631,
      "🧚": 7632,
      "🧛": 7633,
      "🧜": 7634,
      "🧝": 7635,
      "🧞": 7636,
      "🧟": 7637,
      "🧠": 7638,
      "🧡": 7639,
      "🧢": 7640,
      "🧣": 7641,
      "🧤": 7642,
      "🧥": 7643,
      "🧦": 7644,
      "🧨": 7645,
      "🧩": 7646,
      "🧪": 7647,
      "🧬": 7648,
      "🧮": 7649,
      "🧰": 7650,
      "🧱": 7651,
      "🧲": 7652,
      "🧳": 7653,
      "🧴": 7654,
      "🧵": 7655,
      "🧶": 7656,
      "🧸": 7657,
      "🧼": 7658,
      "🧽": 7659,
      "🧾": 7660,
      "🧿": 7661,
      "🩰": 7662,
      "🩷": 7663,
      "🩸": 7664,
      "🩹": 7665,
      "🩺": 7666,
      "🪂": 7667,
      "🪄": 7668,
      "🪐": 7669,
      "🪓": 7670,
      "🪘": 7671,
      "🪙": 7672,
      "🪜": 7673,
      "🪞": 7674,
      "🪡": 7675,
      "🪦": 7676,
      "🪩": 7677,
      "🪴": 7678,
      "🪶": 7679,
      "🫀": 7680,
      "🫁": 7681,
      "🫂": 7682,
      "🫠": 7683,
      "🫡": 7684,
      "🫢": 7685,
      "🫣": 7686,
      "🫤": 7687,
      "🫥": 7688,
      "🫦": 7689,
      "🫰": 7690,
      "🫱": 7691,
      "🫲": 7692,
      "🫳": 7693,
      "🫴": 7694,
      "🫵": 7695,
      "🫶": 7696,
      "𤐽": 7697,
      "󠁢": 7698,
      "󠁥": 7699,
      "󠁧": 7700,
      "󠁮": 7701,
      "󠁿": 7702,
      "▁ا": 7703,
      "▁ال": 7704,
      "▁م": 7705,
      "😂😂": 7706,
      "▁و": 7707,
      "▁ب": 7708,
      "ال": 7709,
      "▁ل": 7710,
      "▁ف": 7711,
      "▁ع": 7712,
      "▁ت": 7713,
      "😂😂😂😂": 7714,
      "ان": 7715,
      "▁ي": 7716,
      "ات": 7717,
      "▁ك": 7718,
      "▁في": 7719,
      "دي": 7720,
      "▁الم": 7721,
      "نا": 7722,
      "▁أ": 7723,
      "▁ح": 7724,
      "ار": 7725,
      "ية": 7726,
      "ها": 7727,
      "▁من": 7728,
      "ين": 7729,
      "▁ش": 7730,
      "▁ما": 7731,
      "لا": 7732,
      "▁ق": 7733,
      "ول": 7734,
      "ير": 7735,
      "دا": 7736,
      "▁س": 7737,
      "▁وال": 7738,
      "نت": 7739,
      "را": 7740,
      "لى": 7741,
      "ون": 7742,
      "لي": 7743,
      "▁ه": 7744,
      "ري": 7745,
      "▁خ": 7746,
      "▁ن": 7747,
      "▁الت": 7748,
      "ام": 7749,
      "له": 7750,
      "▁ج": 7751,
      "▁لي": 7752,
      "▁إ": 7753,
      "ست": 7754,
      "😂😂😂😂😂😂😂😂": 7755,
      "▁؟": 7756,
      "❤️": 7757,
      ".\n": 7758,
      "بي": 7759,
      "ور": 7760,
      "وا": 7761,
      "وم": 7762,
      "▁الس": 7763,
      "▁مع": 7764,
      "▁الأ": 7765,
      "▁الح": 7766,
      "اب": 7767,
      "ني": 7768,
      "▁الع": 7769,
      "▁ز": 7770,
      "ما": 7771,
      "▁على": 7772,
      "يي": 7773,
      "كن": 7774,
      "..": 7775,
      "▁د": 7776,
      "▁ص": 7777,
      "هم": 7778,
      "نو": 7779,
      "▁ر": 7780,
      "▁بال": 7781,
      "▁لل": 7782,
      "اع": 7783,
      "اا": 7784,
      "مل": 7785,
      "‍♂": 7786,
      "▁ط": 7787,
      "▁بت": 7788,
      "يا": 7789,
      "دة": 7790,
      "❤️❤️": 7791,
      "يت": 7792,
      "▁دا": 7793,
      "اح": 7794,
      "▁يا": 7795,
      "▁t": 7796,
      "▁عن": 7797,
      "رو": 7798,
      "💔💔": 7799,
      "كل": 7800,
      "▁الج": 7801,
      "▁دي": 7802,
      "▁a": 7803,
      "▁أن": 7804,
      "سي": 7805,
      "▁انت": 7806,
      "اج": 7807,
      "اي": 7808,
      "▁الب": 7809,
      "رب": 7810,
      "ود": 7811,
      "رة": 7812,
      "▁انا": 7813,
      "▁بع": 7814,
      "in": 7815,
      "▁الف": 7816,
      "▁،": 7817,
      "اء": 7818,
      "▁اي": 7819,
      "▁ان": 7820,
      "!!": 7821,
      "مي": 7822,
      "▁بس": 7823,
      "▁لا": 7824,
      "▁😂😂😂😂😂😂😂😂": 7825,
      "لو": 7826,
      "▁الش": 7827,
      "رك": 7828,
      "من": 7829,
      "‍♂️": 7830,
      "يف": 7831,
      "▁الق": 7832,
      "▁الخ": 7833,
      "▁الك": 7834,
      "😭😭": 7835,
      "لة": 7836,
      "▁شنو": 7837,
      "وي": 7838,
      "▁😂": 7839,
      "قي": 7840,
      "▁الا": 7841,
      "رف": 7842,
      "يد": 7843,
      "عة": 7844,
      "دم": 7845,
      "▁غ": 7846,
      "ذا": 7847,
      "ارة": 7848,
      "▁الص": 7849,
      "تي": 7850,
      "▁😂😂😂😂": 7851,
      "وق": 7852,
      "لك": 7853,
      "😂😂😂": 7854,
      "كون": 7855,
      "اف": 7856,
      "قة": 7857,
      "صل": 7858,
      "اد": 7859,
      "▁إلى": 7860,
      "🔥🔥": 7861,
      "▁والله": 7862,
      "ائ": 7863,
      "on": 7864,
      "كم": 7865,
      "اني": 7866,
      "▁الله": 7867,
      "▁كان": 7868,
      "er": 7869,
      "▁m": 7870,
      "❤❤": 7871,
      "وف": 7872,
      "لم": 7873,
      "مكن": 7874,
      "▁الن": 7875,
      "كر": 7876,
      "▁مح": 7877,
      "▁الإ": 7878,
      "▁علي": 7879,
      "سم": 7880,
      "عب": 7881,
      "تح": 7882,
      "▁الد": 7883,
      "▁مش": 7884,
      "▁\n": 7885,
      "بر": 7886,
      "▁s": 7887,
      "▁1": 7888,
      "▁w": 7889,
      "سب": 7890,
      "ha": 7891,
      "▁الر": 7892,
      "يل": 7893,
      "re": 7894,
      "سا": 7895,
      "ou": 7896,
      "تم": 7897,
      "▁تع": 7898,
      "▁2": 7899,
      "😹😹": 7900,
      "▁لكن": 7901,
      "▁اح": 7902,
      "▁..": 7903,
      "لت": 7904,
      "ًا": 7905,
      "يب": 7906,
      "he": 7907,
      "▁عش": 7908,
      "▁مت": 7909,
      "مة": 7910,
      "ديد": 7911,
      "▁يع": 7912,
      "كت": 7913,
      "في": 7914,
      "قت": 7915,
      "نة": 7916,
      "en": 7917,
      "وع": 7918,
      "▁ات": 7919,
      "رض": 7920,
      "▁.": 7921,
      "00": 7922,
      "هو": 7923,
      "▁ام": 7924,
      "ده": 7925,
      "بل": 7926,
      "▁أو": 7927,
      "ذه": 7928,
      "▁عشان": 7929,
      "قد": 7930,
      "▁كل": 7931,
      "▁الط": 7932,
      "ودان": 7933,
      "▁تح": 7934,
      "▁كيف": 7935,
      "▁لو": 7936,
      "لام": 7937,
      "▁(": 7938,
      "▁وت": 7939,
      "▁b": 7940,
      "▁هو": 7941,
      "or": 7942,
      "it": 7943,
      "قول": 7944,
      "▁ليك": 7945,
      "▁التي": 7946,
      "رت": 7947,
      "شي": 7948,
      "an": 7949,
      "مت": 7950,
      "▁ولا": 7951,
      "اه": 7952,
      "ناس": 7953,
      "▁الو": 7954,
      "▁حت": 7955,
      "es": 7956,
      "▁d": 7957,
      "is": 7958,
      "▁است": 7959,
      "ed": 7960,
      "عت": 7961,
      "عم": 7962,
      "وب": 7963,
      "▁بعد": 7964,
      "الد": 7965,
      "ing": 7966,
      "اص": 7967,
      "جر": 7968,
      "وت": 7969,
      "جد": 7970,
      "▁f": 7971,
      "لب": 7972,
      "لف": 7973,
      "▁بي": 7974,
      "رج": 7975,
      "▁ذ": 7976,
      "▁ول": 7977,
      "كي": 7978,
      "▁هي": 7979,
      "▁c": 7980,
      "خت": 7981,
      "مر": 7982,
      "الي": 7983,
      "▁كدا": 7984,
      "▁ياخ": 7985,
      "عد": 7986,
      "▁كس": 7987,
      "عا": 7988,
      "al": 7989,
      "هي": 7990,
      "عل": 7991,
      "دين": 7992,
      "▁حاج": 7993,
      "رح": 7994,
      "▁او": 7995,
      "at": 7996,
      "كس": 7997,
      "le": 7998,
      "▁مص": 7999,
      "جي": 8000,
      "▁الذ": 8001,
      "وض": 8002,
      "سل": 8003,
      "ارف": 8004,
      "فس": 8005,
      "▁ض": 8006,
      "▁قال": 8007,
      "▁داير": 8008,
      "▁عند": 8009,
      "با": 8010,
      "مد": 8011,
      "خر": 8012,
      "❤️❤️❤️❤️": 8013,
      "om": 8014,
      "ar": 8015,
      "حة": 8016,
      "▁الي": 8017,
      "وو": 8018,
      "▁آ": 8019,
      "اض": 8020,
      "▁لم": 8021,
      "▁the": 8022,
      "▁تق": 8023,
      "فت": 8024,
      "🤣🤣": 8025,
      "▁وم": 8026,
      "▁I": 8027,
      "▁بن": 8028,
      "ارات": 8029,
      "▁A": 8030,
      "▁كنت": 8031,
      "يرة": 8032,
      "▁حي": 8033,
      "خل": 8034,
      "هه": 8035,
      "▁خلا": 8036,
      "▁عارف": 8037,
      "الم": 8038,
      "طة": 8039,
      "ىن": 8040,
      "▁بح": 8041,
      "يييي": 8042,
      "▁ده": 8043,
      "قا": 8044,
      "مو": 8045,
      "سة": 8046,
      "▁خالد": 8047,
      "▁ممكن": 8048,
      "▁زول": 8049,
      "عمل": 8050,
      "▁\"": 8051,
      "▁p": 8052,
      "ئي": 8053,
      "▁ث": 8054,
      "رق": 8055,
      "عي": 8056,
      "▁y": 8057,
      "▁خل": 8058,
      "▁وأ": 8059,
      "\r\n": 8060,
      "▁:": 8061,
      "🥺🥺": 8062,
      "▁هذا": 8063,
      "💔💔💔💔": 8064,
      "🤦‍♂️": 8065,
      "▁السودان": 8066,
      "▁الز": 8067,
      "▁!!": 8068,
      "▁أي": 8069,
      "▁كسارة": 8070,
      "حن": 8071,
      "▁يوم": 8072,
      "قات": 8073,
      "از": 8074,
      "▁يعني": 8075,
      "▁3": 8076,
      "بت": 8077,
      "هر": 8078,
      "ند": 8079,
      "جل": 8080,
      "▁خلاص": 8081,
      "راء": 8082,
      "▁تم": 8083,
      "سه": 8084,
      "as": 8085,
      "ورة": 8086,
      "عر": 8087,
      "حي": 8088,
      "يني": 8089,
      "حت": 8090,
      "😭😭😭😭": 8091,
      "اااا": 8092,
      "بار": 8093,
      "دو": 8094,
      "🙆‍♂️": 8095,
      "▁الث": 8096,
      "انت": 8097,
      "▁بش": 8098,
      "▁مي": 8099,
      "قل": 8100,
      "در": 8101,
      "▁to": 8102,
      "▁وا": 8103,
      "▁هذه": 8104,
      "مان": 8105,
      "خص": 8106,
      "الة": 8107,
      "▁وي": 8108,
      "▁مس": 8109,
      "▁هنا": 8110,
      "اك": 8111,
      "▁تت": 8112,
      "شت": 8113,
      "▁بد": 8114,
      "▁مو": 8115,
      "▁وب": 8116,
      "ركة": 8117,
      "دية": 8118,
      "▁عمل": 8119,
      "حد": 8120,
      "▁بين": 8121,
      "عو": 8122,
      "ية،": 8123,
      "‍♀": 8124,
      "أن": 8125,
      "بة": 8126,
      "▁20": 8127,
      "▁واح": 8128,
      "▁l": 8129,
      "▁an": 8130,
      "▁بق": 8131,
      "ثر": 8132,
      "▁g": 8133,
      "جه": 8134,
      "▁😂😂": 8135,
      "▁مست": 8136,
      "🔥🔥🔥🔥": 8137,
      "ريق": 8138,
      "▁نا": 8139,
      "🤷‍♂️": 8140,
      "▁S": 8141,
      "▁نت": 8142,
      "▁اس": 8143,
      "▁شدي": 8144,
      "وري": 8145,
      "▁اظ": 8146,
      "▁h": 8147,
      "▁را": 8148,
      "اري": 8149,
      "▁لمن": 8150,
      "جم": 8151,
      "▁يت": 8152,
      "▁الغ": 8153,
      "et": 8154,
      "▁اب": 8155,
      "▁انتي": 8156,
      "ll": 8157,
      "❤❤❤❤": 8158,
      "ولة": 8159,
      "▁والم": 8160,
      "▁تص": 8161,
      "▁إن": 8162,
      "▁😂😂😂": 8163,
      "نع": 8164,
      "▁المت": 8165,
      "زي": 8166,
      "بيع": 8167,
      "▁قبل": 8168,
      "فض": 8169,
      "▁مط": 8170,
      "▁T": 8171,
      "فا": 8172,
      "▁-": 8173,
      "وس": 8174,
      "▁الذي": 8175,
      "▁شديد": 8176,
      "id": 8177,
      "▁😂😂😂😂😂😂😂😂😂😂😂😂": 8178,
      "▁يمكن": 8179,
      "▁المح": 8180,
      "شر": 8181,
      "بد": 8182,
      "▁شي": 8183,
      "عه": 8184,
      "▁M": 8185,
      "▁o": 8186,
      "▁اله": 8187,
      "بط": 8188,
      "ic": 8189,
      "▁كت": 8190,
      "سن": 8191,
      "دام": 8192,
      "▁عم": 8193,
      "oo": 8194,
      "ستخ": 8195,
      "▁غير": 8196,
      "▁الل": 8197,
      "▁مف": 8198,
      "\n-": 8199,
      "كان": 8200,
      "▁n": 8201,
      "يم": 8202,
      "▁بتاع": 8203,
      "▁با": 8204,
      "ay": 8205,
      "▁ذلك": 8206,
      "سس": 8207,
      "▁بالجد": 8208,
      "▁لت": 8209,
      "☹️": 8210,
      "▁اليوم": 8211,
      "فر": 8212,
      "امل": 8213,
      "\n\n": 8214,
      "باح": 8215,
      "طل": 8216,
      "كة": 8217,
      "▁😂😂😂😂😂😂😂😂😂😂😂😂😂😂😂😂": 8218,
      "▁الناس": 8219,
      "▁زي": 8220,
      "▁كده": 8221,
      "▁you": 8222,
      "▁ها": 8223,
      "▁نفس": 8224,
      "ته": 8225,
      "▁تن": 8226,
      "▁اسي": 8227,
      "قط": 8228,
      "▁...": 8229,
      "▁قص": 8230,
      "▁تاني": 8231,
      "روض": 8232,
      "▁المش": 8233,
      ".\n-": 8234,
      "👈👉": 8235,
      "▁بم": 8236,
      "اً": 8237,
      "وني": 8238,
      "غل": 8239,
      "ion": 8240,
      "ac": 8241,
      "▁عا": 8242,
      "فع": 8243,
      "👊👊": 8244,
      "us": 8245,
      "دد": 8246,
      "🤦‍♂": 8247,
      "َّ": 8248,
      "▁in": 8249,
      "▁وح": 8250,
      "الية": 8251,
      "▁تش": 8252,
      "رس": 8253,
      "🙆‍♂️🙆‍♂️": 8254,
      "▁😂😂😂😂😂😂😂": 8255,
      "▁قلت": 8256,
      "▁😂😂😂😂😂": 8257,
      "am": 8258,
      "▁خلال": 8259,
      "▁حا": 8260,
      "جب": 8261,
      "▁“": 8262,
      "ره": 8263,
      ".\nو": 8264,
      "قه": 8265,
      "▁أك": 8266,
      "▁😂😂😂😂😂😂": 8267,
      "🤦‍♂️🤦‍♂️": 8268,
      "▁خلو": 8269,
      "▁وين": 8270,
      "▁اها": 8271,
      "😹😹😹😹": 8272,
      "▁يكون": 8273,
      "الت": 8274,
      "لات": 8275,
      "وضوع": 8276,
      "▁والت": 8277,
      "▁طيب": 8278,
      "▁k": 8279,
      "اعد": 8280,
      "ro": 8281,
      "▁مج": 8282,
      "الا": 8283,
      "▁فيها": 8284,
      "▁ناس": 8285,
      "▁تج": 8286,
      "انا": 8287,
      "▁شاء": 8288,
      "▁مث": 8289,
      "إن": 8290,
      "▁اخ": 8291,
      "كلم": 8292,
      "وز": 8293,
      "بح": 8294,
      "▁حبي": 8295,
      "▁فى": 8296,
      "قر": 8297,
      "به": 8298,
      "ent": 8299,
      "😋😋": 8300,
      "▁البي": 8301,
      "وك": 8302,
      "اعة": 8303,
      "ve": 8304,
      "▁5": 8305,
      "▁7": 8306,
      "▁كم": 8307,
      "▁انو": 8308,
      "نك": 8309,
      "فة": 8310,
      "صر": 8311,
      "افة": 8312,
      "▁قد": 8313,
      "ابط": 8314,
      "tt": 8315,
      "▁اللي": 8316,
      "▁بعض": 8317,
      "رات": 8318,
      "▁تكون": 8319,
      "▁خلودي": 8320,
      "ناء": 8321,
      "▁برض": 8322,
      "ذلك": 8323,
      "رد": 8324,
      "▁بك": 8325,
      "▁عام": 8326,
      "▁al": 8327,
      "وية": 8328,
      "عرف": 8329,
      "▁كانت": 8330,
      "تك": 8331,
      "▁سي": 8332,
      "▁أم": 8333,
      "▁صح": 8334,
      "▁صاح": 8335,
      "▁وق": 8336,
      "زة": 8337,
      "▁المن": 8338,
      "انية": 8339,
      "▁برضو": 8340,
      "▁حاجه": 8341,
      "سية": 8342,
      "▁الآ": 8343,
      "طم": 8344,
      "▁الحجر": 8345,
      "▁للم": 8346,
      "▁بل": 8347,
      "▁ليها": 8348,
      "حنة": 8349,
      "▁تس": 8350,
      "▁🥺": 8351,
      "رام": 8352,
      "ps": 8353,
      "▁لح": 8354,
      "ولي": 8355,
      "وى": 8356,
      "وج": 8357,
      "طر": 8358,
      "▁th": 8359,
      "ag": 8360,
      "ميع": 8361,
      "تها": 8362,
      "غير": 8363,
      "🤤🤤": 8364,
      "نية": 8365,
      "▁التع": 8366,
      "رط": 8367,
      "▁اص": 8368,
      "▁W": 8369,
      "▁رس": 8370,
      "><": 8371,
      "طو": 8372,
      "...": 8373,
      "▁وس": 8374,
      "كره": 8375,
      "فق": 8376,
      "ثير": 8377,
      "▁C": 8378,
      "▁واحد": 8379,
      "▁🙂": 8380,
      "▁'": 8381,
      "▁منو": 8382,
      "▁طب": 8383,
      "▁ظ": 8384,
      "▁زىن": 8385,
      "hat": 8386,
      "▁وع": 8387,
      "▁مفروض": 8388,
      "▁كب": 8389,
      "▁المس": 8390,
      "▁الأم": 8391,
      "▁زات": 8392,
      "بب": 8393,
      "ad": 8394,
      "▁اسم": 8395,
      "ow": 8396,
      "طي": 8397,
      "20": 8398,
      "▁بر": 8399,
      "▁of": 8400,
      "🌚🌚": 8401,
      "▁شكل": 8402,
      "▁حتى": 8403,
      "نين": 8404,
      "▁المص": 8405,
      "▁الات": 8406,
      "ئة": 8407,
      "▁له": 8408,
      "بع": 8409,
      "▁B": 8410,
      "▁and": 8411,
      "حق": 8412,
      "▁!": 8413,
      "▁حلو": 8414,
      "▁H": 8415,
      "▁الاست": 8416,
      "▁المع": 8417,
      "فضل": 8418,
      "▁ميقات": 8419,
      "▁وك": 8420,
      "ot": 8421,
      "▁به": 8422,
      "ly": 8423,
      "ظر": 8424,
      "تو": 8425,
      "▁e": 8426,
      "سبة": 8427,
      "▁de": 8428,
      "▁4": 8429,
      "▁ون": 8430,
      "يه": 8431,
      "//": 8432,
      "زل": 8433,
      "وقع": 8434,
      "▁المست": 8435,
      "دمة": 8436,
      "جة": 8437,
      "▁الحاج": 8438,
      "▁كوي": 8439,
      "://": 8440,
      "يات": 8441,
      "▁😂😂😂😂😂😂😂😂😂": 8442,
      "▁محطم": 8443,
      "▁انه": 8444,
      "ــ": 8445,
      "▁دقي": 8446,
      "▁حاجة": 8447,
      "▁العمل": 8448,
      "▁مطحنة": 8449,
      "▁حيث": 8450,
      "ضر": 8451,
      "سع": 8452,
      "▁L": 8453,
      "▁ماف": 8454,
      "▁معا": 8455,
      "▁ى": 8456,
      "▁يح": 8457,
      "الك": 8458,
      "بات": 8459,
      "▁لسه": 8460,
      "▁\r\n": 8461,
      "▁يتم": 8462,
      "دات": 8463,
      "ديل": 8464,
      "▁!!!!": 8465,
      "st": 8466,
      "فل": 8467,
      "ttps": 8468,
      "صول": 8469,
      "ess": 8470,
      "صف": 8471,
      "ttps://": 8472,
      "كا": 8473,
      "جز": 8474,
      "▁كما": 8475,
      "▁آلة": 8476,
      "▁re": 8477,
      "اق": 8478,
      "▁هل": 8479,
      "▁العام": 8480,
      "زم": 8481,
      "▁اش": 8482,
      "قى": 8483,
      "هل": 8484,
      "ربية": 8485,
      "ذهب": 8486,
      "▁تف": 8487,
      "▁مق": 8488,
      "▁اسا": 8489,
      "ئيس": 8490,
      "▁اكت": 8491,
      "☺️": 8492,
      "▁سم": 8493,
      "هههه": 8494,
      "▁وج": 8495,
      "▁P": 8496,
      "😱😱": 8497,
      "صة": 8498,
      "ركات": 8499,
      "▁مؤ": 8500,
      "بك": 8501,
      "اط": 8502,
      "▁ست": 8503,
      "ظام": 8504,
      "\nال": 8505,
      "▁is": 8506,
      "▁اول": 8507,
      "انة": 8508,
      "▁شك": 8509,
      "▁١": 8510,
      "▁it": 8511,
      "▁u": 8512,
      "▁+": 8513,
      "▁لالا": 8514,
      "▁الض": 8515,
      "ومة": 8516,
      "▁العالم": 8517,
      "عية": 8518,
      "ختلف": 8519,
      "بس": 8520,
      "▁الموا": 8521,
      "بو": 8522,
      "▁بشكل": 8523,
      "▁ري": 8524,
      "▁تى": 8525,
      "▁تو": 8526,
      "▁on": 8527,
      "▁هناك": 8528,
      "▁موا": 8529,
      "▁وز": 8530,
      "هد": 8531,
      "▁لان": 8532,
      "▁للبيع": 8533,
      "▁صباح": 8534,
      "▁بط": 8535,
      "▁مخ": 8536,
      "▁@": 8537,
      "▁ليه": 8538,
      "سك": 8539,
      "▁الان": 8540,
      "▁for": 8541,
      "ut": 8542,
      "▁i": 8543,
      "الات": 8544,
      "حم": 8545,
      "ابة": 8546,
      "▁6": 8547,
      "▁اق": 8548,
      "▁😂😂😂😂😂😂😂😂😂😂": 8549,
      "el": 8550,
      "وار": 8551,
      "قم": 8552,
      "رائ": 8553,
      "▁طل": 8554,
      "نس": 8555,
      "▁?": 8556,
      "▁طبعا": 8557,
      "دى": 8558,
      "▁Y": 8559,
      "ليم": 8560,
      "باب": 8561,
      "▁إذا": 8562,
      "▁لق": 8563,
      "▁أكثر": 8564,
      "ig": 8565,
      "▁عندي": 8566,
      "ذكر": 8567,
      "🤣🤣🤣🤣": 8568,
      "ليل": 8569,
      "▁أيض": 8570,
      "▁عليك": 8571,
      "ساب": 8572,
      "ستخدم": 8573,
      "▁أنه": 8574,
      "▁ha": 8575,
      "U+": 8576,
      "▁.\n": 8577,
      "▁عليه": 8578,
      "ديم": 8579,
      "▁حصل": 8580,
      "▁انك": 8581,
      "رطوم": 8582,
      "لاح": 8583,
      "▁فيه": 8584,
      "▁ma": 8585,
      "▁D": 8586,
      "com": 8587,
      "ااا": 8588,
      "▁تأ": 8589,
      "▁لأ": 8590,
      "▁اظن": 8591,
      "><U+": 8592,
      "♥️": 8593,
      "▁الخرطوم": 8594,
      "شة": 8595,
      "▁والأ": 8596,
      "▁للت": 8597,
      "ضع": 8598,
      "‎‏": 8599,
      "▁قر": 8600,
      "وان": 8601,
      "▁8": 8602,
      "▁يق": 8603,
      "نى": 8604,
      "▁اج": 8605,
      "▁يس": 8606,
      "ab": 8607,
      "><U+00": 8608,
      "خرى": 8609,
      "‎‏‎‏": 8610,
      "▁اساسا": 8611,
      "▁اني": 8612,
      "99": 8613,
      "جع": 8614,
      "طبي": 8615,
      "il": 8616,
      "نام": 8617,
      "▁وإ": 8618,
      "▁استخ": 8619,
      "▁فا": 8620,
      "▁زابط": 8621,
      "▁R": 8622,
      "▁ديل": 8623,
      "ييي": 8624,
      "▁اظني": 8625,
      "قدر": 8626,
      "▁G": 8627,
      "▁حق": 8628,
      "▁لك": 8629,
      "وة": 8630,
      "▁*": 8631,
      "تما": 8632,
      "اصة": 8633,
      "🏻‍♀": 8634,
      "▁فر": 8635,
      "24": 8636,
      "▁مصر": 8637,
      "روع": 8638,
      "💔💔💔": 8639,
      "▁منا": 8640,
      "لس": 8641,
      "مار": 8642,
      "▁الوق": 8643,
      "▁بالم": 8644,
      "لاء": 8645,
      "▁مثل": 8646,
      "▁موش": 8647,
      "▁بأ": 8648,
      "▁😋": 8649,
      "حا": 8650,
      "▁الأول": 8651,
      "▁الى": 8652,
      "▁جد": 8653,
      "▁https://": 8654,
      "▁الموضوع": 8655,
      "▁201": 8656,
      "▁تحت": 8657,
      "\nم": 8658,
      "▁محمد": 8659,
      "ميل": 8660,
      "▁بكره": 8661,
      "ol": 8662,
      "نه": 8663,
      "▁برا": 8664,
      "ريب": 8665,
      "▁ممت": 8666,
      "حك": 8667,
      "▁be": 8668,
      "شار": 8669,
      "لاد": 8670,
      "--": 8671,
      "▁يو": 8672,
      "نب": 8673,
      "▁كلام": 8674,
      "▁الانت": 8675,
      "مال": 8676,
      "زىن": 8677,
      "im": 8678,
      "سودان": 8679,
      "ديدة": 8680,
      "▁طحن": 8681,
      "يادة": 8682,
      "▁خط": 8683,
      "▁النا": 8684,
      "ادل": 8685,
      "▁جا": 8686,
      "▁المج": 8687,
      "▁قط": 8688,
      "▁متين": 8689,
      "▁صف": 8690,
      "مم": 8691,
      "▁منت": 8692,
      "▁ومن": 8693,
      "ct": 8694,
      "▁الأس": 8695,
      "وره": 8696,
      "pp": 8697,
      "▁نحن": 8698,
      "▁جاي": 8699,
      "▁عبد": 8700,
      "ter": 8701,
      "▁الفك": 8702,
      "لط": 8703,
      "▁كويس": 8704,
      "ir": 8705,
      "▁معاك": 8706,
      "nd": 8707,
      "تر": 8708,
      "قب": 8709,
      "▁أس": 8710,
      "▁تخ": 8711,
      "شف": 8712,
      "ايف": 8713,
      "وه": 8714,
      "❤️❤️❤️": 8715,
      "▁مصنع": 8716,
      "▁قالت": 8717,
      "ة،": 8718,
      "▁ور": 8719,
      "ضي": 8720,
      "بيل": 8721,
      "▁اك": 8722,
      "▁التح": 8723,
      "▁جميع": 8724,
      "▁me": 8725,
      "▁N": 8726,
      "حه": 8727,
      "▁الام": 8728,
      "لهم": 8729,
      "▁جدا": 8730,
      "▁بالت": 8731,
      "طف": 8732,
      "غال": 8733,
      "ith": 8734,
      "ch": 8735,
      "▁#": 8736,
      "حو": 8737,
      "ودة": 8738,
      "ah": 8739,
      "▁E": 8740,
      "▁المط": 8741,
      "جات": 8742,
      ".com": 8743,
      "ربي": 8744,
      "ver": 8745,
      "▁السعو": 8746,
      "▁الجم": 8747,
      "▁المنا": 8748,
      "▁ماشي": 8749,
      "كلة": 8750,
      "والي": 8751,
      "▁الذهب": 8752,
      "انات": 8753,
      "يك": 8754,
      "▁الاح": 8755,
      "▁اف": 8756,
      "▁تد": 8757,
      "▁K": 8758,
      "▁حن": 8759,
      "داء": 8760,
      "هرب": 8761,
      "▁لأن": 8762,
      "ريقة": 8763,
      "▁ممتاز": 8764,
      "▁F": 8765,
      "▁أح": 8766,
      "يتي": 8767,
      "ted": 8768,
      "▁احسن": 8769,
      "▁الجام": 8770,
      "ri": 8771,
      "ee": 8772,
      "▁تقول": 8773,
      "▁الفي": 8774,
      "▁ولكن": 8775,
      "▁أع": 8776,
      "زين": 8777,
      "▁المتح": 8778,
      "رى": 8779,
      "ريد": 8780,
      "ها،": 8781,
      "دير": 8782,
      "ريك": 8783,
      "▁حل": 8784,
      "age": 8785,
      "▁شركة": 8786,
      "▁اخت": 8787,
      "غي": 8788,
      "▁وش": 8789,
      "▁عاي": 8790,
      "▁O": 8791,
      "ak": 8792,
      "دينة": 8793,
      "ركز": 8794,
      "ill": 8795,
      "▁وهو": 8796,
      "صد": 8797,
      "▁حول": 8798,
      "عات": 8799,
      "▁علا": 8800,
      "▁عديل": 8801,
      "ية.": 8802,
      "قيق": 8803,
      "▁ساي": 8804,
      "▁جم": 8805,
      ":\n": 8806,
      "▁فإن": 8807,
      "ييد": 8808,
      "▁شدييد": 8809,
      "وط": 8810,
      "▁مد": 8811,
      "ادر": 8812,
      "ation": 8813,
      "▁وقت": 8814,
      "ثة": 8815,
      "▁تعال": 8816,
      "وات": 8817,
      "▁الرا": 8818,
      "ww": 8819,
      "▁حسي": 8820,
      "▁وه": 8821,
      "ومات": 8822,
      "▁التج": 8823,
      "فاع": 8824,
      "جلس": 8825,
      "▁فتح": 8826,
      "▁الوا": 8827,
      "الح": 8828,
      "▁🤤": 8829,
      "▁نق": 8830,
      "▁10": 8831,
      "لق": 8832,
      "▁الوقت": 8833,
      "▁❤": 8834,
      "out": 8835,
      "▁لله": 8836,
      "▁بنت": 8837,
      "▁وف": 8838,
      "▁اشت": 8839,
      "داد": 8840,
      "زيد": 8841,
      "▁الدول": 8842,
      "يش": 8843,
      "واء": 8844,
      "▁اقول": 8845,
      "راق": 8846,
      "▁le": 8847,
      "▁بتح": 8848,
      "▁خام": 8849,
      "رر": 8850,
      "🤦‍♂🤦‍♂": 8851,
      "▁يجب": 8852,
      "ونة": 8853,
      "▁رب": 8854,
      "▁st": 8855,
      "▁ثم": 8856,
      "يج": 8857,
      "لاً": 8858,
      "▁خير": 8859,
      "▁وما": 8860,
      "▁😂😂😂😂😂😂😂😂😂😂😂": 8861,
      "▁سعر": 8862,
      "لاق": 8863,
      "سين": 8864,
      "▁🌚": 8865,
      "▁البح": 8866,
      "▁تب": 8867,
      "▁عندك": 8868,
      "▁😂💔": 8869,
      "داك": 8870,
      "اريخ": 8871,
      "ta": 8872,
      "▁أنا": 8873,
      "اعه": 8874,
      "طقة": 8875,
      "▁الاج": 8876,
      "رسل": 8877,
      "فه": 8878,
      "▁للا": 8879,
      "☹️☹️": 8880,
      "ارج": 8881,
      "▁j": 8882,
      "▁was": 8883,
      "قال": 8884,
      "▁كلو": 8885,
      "وال": 8886,
      "ra": 8887,
      "▁المهم": 8888,
      "▁الري": 8889,
      "▁فهم": 8890,
      "▁فت": 8891,
      "أس": 8892,
      "▁نص": 8893,
      "▁استخدام": 8894,
      "▁with": 8895,
      "▁ليهو": 8896,
      "▁زاتو": 8897,
      "▁انتو": 8898,
      "▁المؤ": 8899,
      "▁فقط": 8900,
      "▁البيت": 8901,
      "نامج": 8902,
      "سعار": 8903,
      "▁بعدين": 8904,
      "▁دول": 8905,
      "▁قاعد": 8906,
      "▁اكتر": 8907,
      "▁اعمل": 8908,
      "ين،": 8909,
      "ه،": 8910,
      "▁ملي": 8911,
      "▁معاي": 8912,
      "▁رو": 8913,
      "▁كبير": 8914,
      "▁–": 8915,
      "ce": 8916,
      "▁قاع": 8917,
      "نق": 8918,
      "دمات": 8919,
      "▁بقيت": 8920,
      "رجع": 8921,
      "han": 8922,
      "ديو": 8923,
      "▁خلي": 8924,
      "اكل": 8925,
      "▁💔": 8926,
      "ائل": 8927,
      ".com/": 8928,
      "▁كتير": 8929,
      "▁نم": 8930,
      "▁مرة": 8931,
      "▁الوط": 8932,
      "ضافة": 8933,
      "طلع": 8934,
      "22": 8935,
      "طبيق": 8936,
      "❤️❤️❤️❤️❤️❤️❤️❤️": 8937,
      "موعة": 8938,
      "▁هم": 8939,
      "قع": 8940,
      "▁عبر": 8941,
      "▁منها": 8942,
      "هور": 8943,
      "▁لن": 8944,
      "▁المنت": 8945,
      "▁بتت": 8946,
      ".\nال": 8947,
      "😍😍": 8948,
      "▁معدات": 8949,
      "▁بها": 8950,
      "دث": 8951,
      "واصل": 8952,
      "غط": 8953,
      "▁الدا": 8954,
      "▁😂😂😂😂😂😂😂😂😂😂😂😂😂😂😂😂😂😂😂😂😂😂😂😂": 8955,
      "▁بكرة": 8956,
      "ويه": 8957,
      "روط": 8958,
      "▁السي": 8959,
      "▁بج": 8960,
      "ليش": 8961,
      "اضي": 8962,
      "عبة": 8963,
      "▁نس": 8964,
      "▁ود": 8965,
      "🤷‍♂️🤷‍♂️": 8966,
      "اة": 8967,
      "وقف": 8968,
      "سبوع": 8969,
      "▁الرس": 8970,
      "▁بيت": 8971,
      "▁وفي": 8972,
      "▁عدد": 8973,
      "▁يد": 8974,
      "▁0": 8975,
      "كد": 8976,
      "نوب": 8977,
      "ضرب": 8978,
      "رنت": 8979,
      "قتص": 8980,
      "▁لحدي": 8981,
      "▁اللا": 8982,
      "▁اعت": 8983,
      ".\n\n": 8984,
      "▁؟😂": 8985,
      "لفون": 8986,
      "ارية": 8987,
      "ئية": 8988,
      "عمال": 8989,
      "ثي": 8990,
      "؟؟": 8991,
      "▁اد": 8992,
      "▁😭😭😭😭": 8993,
      "▁واض": 8994,
      "▁لدي": 8995,
      "نتاج": 8996,
      "▁العربية": 8997,
      "▁اه": 8998,
      "op": 8999,
      "▁لانو": 9000,
      "▁ين": 9001,
      "▁this": 9002,
      "▁امشي": 9003,
      "▁عليها": 9004,
      "▁نف": 9005,
      "الب": 9006,
      "▁الكرة": 9007,
      "▁بخ": 9008,
      "▁we": 9009,
      "▁أص": 9010,
      "th": 9011,
      "▁نج": 9012,
      "▁ارح": 9013,
      "▁شخص": 9014,
      "▁محت": 9015,
      "كين": 9016,
      "وفي": 9017,
      "🙆‍♂": 9018,
      "▁عرف": 9019,
      "▁النت": 9020,
      "روف": 9021,
      "▁ااا": 9022,
      "غيرة": 9023,
      "▁يش": 9024,
      "اقة": 9025,
      "▁وخ": 9026,
      "▁رج": 9027,
      "ماء": 9028,
      "قاط": 9029,
      "▁التن": 9030,
      "وص": 9031,
      "▁المد": 9032,
      "ظم": 9033,
      "▁رئيس": 9034,
      "▁الساعة": 9035,
      "ذر": 9036,
      "▁التق": 9037,
      "▁تعمل": 9038,
      "▁بص": 9039,
      "اعت": 9040,
      "▁سحق": 9041,
      "21": 9042,
      "▁9": 9043,
      "▁لها": 9044,
      "▁«": 9045,
      "ace": 9046,
      "▁sh": 9047,
      "ونا": 9048,
      "▁السيا": 9049,
      "▁Th": 9050,
      "▁!!!": 9051,
      "▁مب": 9052,
      "▁هوي": 9053,
      "se": 9054,
      "▁mo": 9055,
      "▁مه": 9056,
      "▁😌": 9057,
      "راض": 9058,
      "▁بإ": 9059,
      "🥺🥺🥺🥺": 9060,
      "▁يج": 9061,
      "ياة": 9062,
      "▁تست": 9063,
      "ضاء": 9064,
      "يار": 9065,
      "▁دقيقه": 9066,
      "انون": 9067,
      "▁that": 9068,
      "رعة": 9069,
      "▁موضوع": 9070,
      "اخ": 9071,
      "▁الزول": 9072,
      "▁as": 9073,
      "▁قصدي": 9074,
      "▁بعداك": 9075,
      "خلص": 9076,
      "▁😭": 9077,
      "▁قول": 9078,
      "مس": 9079,
      "🤦🏻‍♀": 9080,
      "هيم": 9081,
      "ويل": 9082,
      "▁الخير": 9083,
      "▁٢": 9084,
      "▁وصل": 9085,
      "كله": 9086,
      "عادة": 9087,
      "50": 9088,
      "▁لما": 9089,
      ".\nوأ": 9090,
      "▁لإ": 9091,
      "▁معليش": 9092,
      "▁أف": 9093,
      "▁الجز": 9094,
      "▁مشت": 9095,
      "ment": 9096,
      "▁الإس": 9097,
      "▁حب": 9098,
      "ولا": 9099,
      "رم": 9100,
      "اتي": 9101,
      "يتو": 9102,
      "▁نش": 9103,
      "▁😂😂😂😂😂😂😂😂😂😂😂😂😂": 9104,
      "▁شكرا": 9105,
      "▁مختلف": 9106,
      "▁تمام": 9107,
      "▁العم": 9108,
      "▁شفت": 9109,
      "ناها": 9110,
      "10": 9111,
      "روب": 9112,
      "▁,": 9113,
      "ربت": 9114,
      "ومي": 9115,
      "اس": 9116,
      "▁mess": 9117,
      "▁ولد": 9118,
      "ذي": 9119,
      "23": 9120,
      "ستخدام": 9121,
      "طلب": 9122,
      "▁المق": 9123,
      "▁المتحدة": 9124,
      "▁رقم": 9125,
      "▁بأن": 9126,
      "▁بالن": 9127,
      "لعب": 9128,
      "▁إلي": 9129,
      "▁كلم": 9130,
      "▁نها": 9131,
      "راهيم": 9132,
      "▁سودان": 9133,
      "▁عادل": 9134,
      "ur": 9135,
      "▁مك": 9136,
      "▁الآن": 9137,
      "ud": 9138,
      "▁عي": 9139,
      "غة": 9140,
      "▁السعودية": 9141,
      "▁الصين": 9142,
      "▁إلا": 9143,
      "🏻‍♂": 9144,
      "▁للأ": 9145,
      "▁السلام": 9146,
      "▁حرف": 9147,
      "ظهر": 9148,
      "▁القر": 9149,
      "▁الحك": 9150,
      "ؤال": 9151,
      "▁قل": 9152,
      "▁طريق": 9153,
      "▁يست": 9154,
      "رجة": 9155,
      "▁حنك": 9156,
      "▁message": 9157,
      "▁😹😹😹😹": 9158,
      "بير": 9159,
      "اذ": 9160,
      "▁الذين": 9161,
      "شك": 9162,
      "رير": 9163,
      "▁ايوا": 9164,
      "▁الحمد": 9165,
      "▁بقول": 9166,
      "▁عملية": 9167,
      "▁عارفه": 9168,
      "طق": 9169,
      "▁الأخ": 9170,
      "ظيف": 9171,
      "▁أفضل": 9172,
      "▁واحدة": 9173,
      "ظة": 9174,
      "▁الهند": 9175,
      "▁أحد": 9176,
      "▁البت": 9177,
      "ub": 9178,
      "ابت": 9179,
      "شن": 9180,
      "كو": 9181,
      "▁عاين": 9182,
      "ثل": 9183,
      "▁نوع": 9184,
      "انه": 9185,
      "ياء": 9186,
      "▁👈👉": 9187,
      "▁أخ": 9188,
      "▁دون": 9189,
      "leted": 9190,
      "ميم": 9191,
      "▁المخ": 9192,
      "▁بف": 9193,
      "hal": 9194,
      "زا": 9195,
      "▁بالله": 9196,
      "ضاف": 9197,
      "▁بكون": 9198,
      "▁وَ": 9199,
      "▁deleted": 9200,
      "▁لينا": 9201,
      "▁مما": 9202,
      "😭😭😭": 9203,
      "لد": 9204,
      "برة": 9205,
      "▁المغ": 9206,
      "▁شكلو": 9207,
      "▁ذات": 9208,
      "▁للح": 9209,
      "▁أخرى": 9210,
      "كتب": 9211,
      "▁حجر": 9212,
      "▁شايف": 9213,
      "ere": 9214,
      "sh": 9215,
      "▁والع": 9216,
      "▁والح": 9217,
      "وفر": 9218,
      "▁حال": 9219,
      "one": 9220,
      "ِّ": 9221,
      "▁وص": 9222,
      "ايل": 9223,
      "▁🤷": 9224,
      "\nت": 9225,
      "▁ماش": 9226,
      "▁ترك": 9227,
      "ساس": 9228,
      "▁شهر": 9229,
      "ظيم": 9230,
      "▁اصلا": 9231,
      "أة": 9232,
      "▁:(": 9233,
      "اول": 9234,
      "انيا": 9235,
      "مين": 9236,
      "est": 9237,
      "دارة": 9238,
      "▁كلها": 9239,
      "مام": 9240,
      "وائ": 9241,
      "▁الشي": 9242,
      "هاز": 9243,
      "▁وهي": 9244,
      "if": 9245,
      "ديث": 9246,
      "▁أيضًا": 9247,
      "▁/": 9248,
      "▁كدي": 9249,
      "راف": 9250,
      "▁r": 9251,
      "▁فك": 9252,
      "....": 9253,
      "▁ساعة": 9254,
      "▁المو": 9255,
      "ul": 9256,
      "انب": 9257,
      "لع": 9258,
      "▁This": 9259,
      "حية": 9260,
      "▁الوز": 9261,
      "😂😂😂😂😂": 9262,
      "طب": 9263,
      "طور": 9264,
      "▁لع": 9265,
      "عدات": 9266,
      "ونس": 9267,
      "▁شغال": 9268,
      "جراء": 9269,
      "▁والتي": 9270,
      "▁مشيت": 9271,
      "▁فع": 9272,
      "▁الكلام": 9273,
      "▁لى": 9274,
      "ld": 9275,
      "▁U": 9276,
      "▁...\n": 9277,
      "▁الليله": 9278,
      "▁الفر": 9279,
      "▁مان": 9280,
      "▁التعدين": 9281,
      "ريف": 9282,
      "▁اوكي": 9283,
      "غم": 9284,
      "وبي": 9285,
      "نات": 9286,
      "ريم": 9287,
      "▁خلص": 9288,
      "nt": 9289,
      "♥️♥️": 9290,
      "▁المر": 9291,
      "ate": 9292,
      "▁يخ": 9293,
      "▁أول": 9294,
      "ine": 9295,
      "▁واي": 9296,
      "لل": 9297,
      "ائر": 9298,
      "نيا": 9299,
      "ميز": 9300,
      "><U+00B": 9301,
      "▁بدري": 9302,
      "راك": 9303,
      "▁حاجات": 9304,
      "ستر": 9305,
      "▁كي": 9306,
      "دك": 9307,
      "▁شدييييي": 9308,
      "وداني": 9309,
      "▁طوالي": 9310,
      "▁كبيرة": 9311,
      "▁مالك": 9312,
      "شرة": 9313,
      "🔥🔥🔥🔥🔥🔥🔥🔥": 9314,
      "يري": 9315,
      "ht": 9316,
      "راج": 9317,
      "▁do": 9318,
      "▁تر": 9319,
      "▁آخر": 9320,
      "▁صور": 9321,
      "▁بعمل": 9322,
      "▁مكان": 9323,
      "▁19": 9324,
      "▁pro": 9325,
      "▁كعب": 9326,
      "▁ليس": 9327,
      "ارع": 9328,
      "ابه": 9329,
      "▁لج": 9330,
      "▁الليلة": 9331,
      "▁عملت": 9332,
      "🙆‍♂️🙆‍♂️🙆‍♂️🙆‍♂️": 9333,
      "▁شديييد": 9334,
      "▁حرفيا": 9335,
      "ورد": 9336,
      "▁جز": 9337,
      "▁لب": 9338,
      "▁يمكنك": 9339,
      "▁العديد": 9340,
      "▁بسبب": 9341,
      "▁لقيت": 9342,
      "▁الاجتما": 9343,
      "وووو": 9344,
      "▁سودانى": 9345,
      "علم": 9346,
      "السودان": 9347,
      "نان": 9348,
      "اله": 9349,
      "هاب": 9350,
      "▁العلا": 9351,
      "▁سو": 9352,
      "▁موقع": 9353,
      "la": 9354,
      "طه": 9355,
      "end": 9356,
      "❤❤❤❤❤❤❤❤": 9357,
      "ارت": 9358,
      "25": 9359,
      "ديني": 9360,
      "halid": 9361,
      "▁بب": 9362,
      "▁احت": 9363,
      "▁أش": 9364,
      "▁شوف": 9365,
      "▁نو": 9366,
      "ات،": 9367,
      "▁مر": 9368,
      "يام": 9369,
      "▁جام": 9370,
      "ارس": 9371,
      "▁المه": 9372,
      "▁are": 9373,
      "▁تجي": 9374,
      "▁ارت": 9375,
      "▁يُ": 9376,
      "نيه": 9377,
      "▁والس": 9378,
      "خالد": 9379,
      "30": 9380,
      "▁رسلت": 9381,
      "سان": 9382,
      "▁كمان": 9383,
      "قيقة": 9384,
      "▁يلا": 9385,
      "▁زمن": 9386,
      "▁أب": 9387,
      "▁٣": 9388,
      "▁)": 9389,
      "▁عادي": 9390,
      "نج": 9391,
      "ريت": 9392,
      "‎‏‎‏‎‏‎‏": 9393,
      "لية": 9394,
      "▁بعرف": 9395,
      "▁منذ": 9396,
      "مون": 9397,
      "▁بما": 9398,
      "▁رم": 9399,
      "ليات": 9400,
      "▁نظام": 9401,
      "دت": 9402,
      "ملكة": 9403,
      "فاق": 9404,
      "▁وقد": 9405,
      "▁الما": 9406,
      "زام": 9407,
      "قبل": 9408,
      "▁دقيقة": 9409,
      "صال": 9410,
      "▁مجموعة": 9411,
      "ke": 9412,
      "11": 9413,
      "▁السعر": 9414,
      "واع": 9415,
      "▁عمار": 9416,
      "▁have": 9417,
      "زبط": 9418,
      "\nع": 9419,
      "▁قبيل": 9420,
      "▁عدم": 9421,
      "رية": 9422,
      "▁fe": 9423,
      "▁داخل": 9424,
      "مرين": 9425,
      "▁بدي": 9426,
      "▁يب": 9427,
      "سمنت": 9428,
      "na": 9429,
      "ِي": 9430,
      "طن": 9431,
      "َل": 9432,
      "▁زولي": 9433,
      "▁فض": 9434,
      "بارح": 9435,
      "▁منه": 9436,
      "▁احكي": 9437,
      "all": 9438,
      "▁قائ": 9439,
      "▁بالإ": 9440,
      "كسارة": 9441,
      "دف": 9442,
      "طار": 9443,
      "▁نمت": 9444,
      "aa": 9445,
      "art": 9446,
      "▁الكهرب": 9447,
      "قص": 9448,
      "▁طن": 9449,
      "طفال": 9450,
      "▁قالو": 9451,
      "\nأ": 9452,
      "ارب": 9453,
      "▁😔": 9454,
      "ينة": 9455,
      "اتو": 9456,
      "ّة": 9457,
      "▁بو": 9458,
      "▁عندما": 9459,
      "▁جديد": 9460,
      "سات": 9461,
      "ry": 9462,
      "od": 9463,
      "لاف": 9464,
      "▁تك": 9465,
      "!!!!": 9466,
      "▁سنة": 9467,
      "▁اشوف": 9468,
      "بكة": 9469,
      "▁الحديد": 9470,
      "لاث": 9471,
      "000": 9472,
      "لال": 9473,
      "سر": 9474,
      "يران": 9475,
      "ma": 9476,
      "▁he": 9477,
      "▁امبارح": 9478,
      "▁بلا": 9479,
      "▁التص": 9480,
      "un": 9481,
      "▁يقول": 9482,
      "ارك": 9483,
      "لسط": 9484,
      "لوب": 9485,
      "دق": 9486,
      "▁قام": 9487,
      "▁المحم": 9488,
      "▁فيك": 9489,
      "اش": 9490,
      "زه": 9491,
      "ريع": 9492,
      "🤦‍♀": 9493,
      "ثناء": 9494,
      "ابع": 9495,
      "▁زط": 9496,
      "ont": 9497,
      "▁شباب": 9498,
      "▁😹😹": 9499,
      "👊👊👊👊": 9500,
      "▁te": 9501,
      "▁ليهم": 9502,
      "▁والإ": 9503,
      "💔💔💔💔💔💔💔💔": 9504,
      "▁تعب": 9505,
      "▁جيت": 9506,
      "▁الشركة": 9507,
      "▁الخاصة": 9508,
      "▁can": 9509,
      "▁v": 9510,
      "▁الكت": 9511,
      "▁منك": 9512,
      "▁not": 9513,
      "ers": 9514,
      "▁لاع": 9515,
      "فك": 9516,
      ".\nت": 9517,
      "رفة": 9518,
      "▁الشخص": 9519,
      "خخ": 9520,
      "زمة": 9521,
      "▁ne": 9522,
      "ياه": 9523,
      "يتم": 9524,
      "غا": 9525,
      "🙆‍♂🙆‍♂": 9526,
      "▁وتح": 9527,
      "▁وانت": 9528,
      "▁جديدة": 9529,
      "ذك": 9530,
      "نوات": 9531,
      "وح": 9532,
      "▁شويه": 9533,
      "ياً": 9534,
      "▁مدينة": 9535,
      "ks": 9536,
      "عيد": 9537,
      "😂😂😂😂😂😂😂😂😂😂😂😂😂😂😂😂": 9538,
      "▁وذلك": 9539,
      "خلي": 9540,
      "▁مرت": 9541,
      "▁جي": 9542,
      "لاب": 9543,
      "َن": 9544,
      "داول": 9545,
      "2499": 9546,
      "um": 9547,
      "ناعة": 9548,
      "▁حسب": 9549,
      "▁😹": 9550,
      "▁شيء": 9551,
      "▁حساب": 9552,
      "▁مض": 9553,
      "▁محتاج": 9554,
      "ربع": 9555,
      "ood": 9556,
      "▁😎": 9557,
      "ربة": 9558,
      "تمال": 9559,
      "▁طلعت": 9560,
      "▁مال": 9561,
      "خي": 9562,
      "اصيل": 9563,
      "فظ": 9564,
      "كثر": 9565,
      "▁كور": 9566,
      "َا": 9567,
      "▁عمر": 9568,
      "▁النها": 9569,
      "▁وات": 9570,
      "قتصا": 9571,
      "▁أنت": 9572,
      "▁تلك": 9573,
      "كتور": 9574,
      "▁غال": 9575,
      "▁بدا": 9576,
      "خور": 9577,
      "▁غلط": 9578,
      "شاء": 9579,
      "▁ضد": 9580,
      "▁نفسك": 9581,
      "▁عالية": 9582,
      "▁حس": 9583,
      "our": 9584,
      "▁مشروع": 9585,
      "▁:)": 9586,
      "جاه": 9587,
      "▁فقد": 9588,
      "▁جنوب": 9589,
      "رائيل": 9590,
      "▁واضح": 9591,
      "▁الفت": 9592,
      "▁Al": 9593,
      "ust": 9594,
      "▁إس": 9595,
      "😱😱😱😱": 9596,
      "▁حبيبي": 9597,
      "امة": 9598,
      "بدأ": 9599,
      "▁كسارات": 9600,
      "----": 9601,
      "▁يعمل": 9602,
      "▁الولا": 9603,
      "▁اع": 9604,
      "صح": 9605,
      "▁دائ": 9606,
      "▁☹️": 9607,
      "داً": 9608,
      "جاز": 9609,
      "ink": 9610,
      "▁will": 9611,
      "▁انها": 9612,
      "▁com": 9613,
      "▁مز": 9614,
      "ائق": 9615,
      "▁حالة": 9616,
      "▁يسس": 9617,
      "▁نح": 9618,
      "است": 9619,
      "اعات": 9620,
      "\nو": 9621,
      "هههههههه": 9622,
      "▁الشعب": 9623,
      "▁دايره": 9624,
      "▁الساعه": 9625,
      "اته": 9626,
      "▁بتاعت": 9627,
      "▁برنامج": 9628,
      "▁لازم": 9629,
      "__": 9630,
      "وها": 9631,
      "قدم": 9632,
      "▁يف": 9633,
      "ظمة": 9634,
      "qu": 9635,
      "شل": 9636,
      "▁الكثير": 9637,
      "▁ابر": 9638,
      "▁بدون": 9639,
      "▁مخروط": 9640,
      "رين": 9641,
      "▁اكل": 9642,
      "اره": 9643,
      "💕💕": 9644,
      "▁معناها": 9645,
      "12": 9646,
      "19": 9647,
      "▁فيهو": 9648,
      "ابل": 9649,
      "▁لعب": 9650,
      "ريقيا": 9651,
      "▁؟🌚": 9652,
      "الع": 9653,
      "ملة": 9654,
      "▁12": 9655,
      "▁طلب": 9656,
      "▁الحاجه": 9657,
      "▁دق": 9658,
      "▁الأح": 9659,
      "▁الخاص": 9660,
      "احة": 9661,
      "▁الحاجات": 9662,
      "ضا": 9663,
      "دود": 9664,
      "الله": 9665,
      "▁الفحم": 9666,
      "▁my": 9667,
      "يفة": 9668,
      "▁مشكلة": 9669,
      "▁البر": 9670,
      "ابات": 9671,
      "▁الجاي": 9672,
      "▁معاها": 9673,
      "▁ولي": 9674,
      "▁200": 9675,
      "جمع": 9676,
      "ure": 9677,
      "▁سوف": 9678,
      "▁مهم": 9679,
      "▁عز": 9680,
      "كلفة": 9681,
      "ية.\n": 9682,
      "تمع": 9683,
      "▁أهم": 9684,
      "▁😂😂😂😂😂😂😂😂😂😂😂😂😂😂": 9685,
      "▁مل": 9686,
      "مارات": 9687,
      "غيير": 9688,
      "▁اخر": 9689,
      "▁الصباح": 9690,
      "ضان": 9691,
      "▁am": 9692,
      "▁🥺🥺": 9693,
      "▁الأش": 9694,
      "▁أجل": 9695,
      "▁اغ": 9696,
      "▁جه": 9697,
      "▁☺️": 9698,
      "بلغ": 9699,
      "▁الاحت": 9700,
      "▁دولار": 9701,
      "زيز": 9702,
      "حات": 9703,
      "لاقي": 9704,
      "🤦‍♂️🤦‍♂️🤦‍♂️🤦‍♂️": 9705,
      "▁You": 9706,
      "▁وحده": 9707,
      "▁حلوه": 9708,
      "▁فاهم": 9709,
      "▁حك": 9710,
      "ِن": 9711,
      "▁رسل": 9712,
      "><ed": 9713,
      "▁المملكة": 9714,
      "▁ااه": 9715,
      "▁كذ": 9716,
      "▁الطبي": 9717,
      "طوير": 9718,
      "تين": 9719,
      "▁الرياض": 9720,
      "▁طلع": 9721,
      "▁حبيب": 9722,
      "▁your": 9723,
      "lo": 9724,
      "15": 9725,
      "▁li": 9726,
      "▁مليون": 9727,
      "▁؟😂😂": 9728,
      "🤤🤤🤤🤤": 9729,
      "▁بحب": 9730,
      "فاء": 9731,
      "ابق": 9732,
      "▁تل": 9733,
      "؟\n": 9734,
      "زب": 9735,
      "▁بيع": 9736,
      "لامي": 9737,
      "▁صحي": 9738,
      "▁باقي": 9739,
      "▁الاول": 9740,
      "❤❤❤": 9741,
      "▁تصبح": 9742,
      "قف": 9743,
      "جيل": 9744,
      "▁عمرو": 9745,
      "▁سب": 9746,
      "كسير": 9747,
      "▁تستخدم": 9748,
      "مه": 9749,
      "▁❤️": 9750,
      "▁دور": 9751,
      "▁زاتي": 9752,
      "▁🤭": 9753,
      "▁فوق": 9754,
      "حل": 9755,
      "▁باي": 9756,
      "بيض": 9757,
      "ort": 9758,
      "▁الحاجة": 9759,
      "يز": 9760,
      "💁‍♂️": 9761,
      ")،": 9762,
      "▁بقدر": 9763,
      "يييد": 9764,
      "▁العامة": 9765,
      "فيذ": 9766,
      "▁والش": 9767,
      "راب": 9768,
      "▁🤔": 9769,
      "no": 9770,
      "▁مجلس": 9771,
      "▁يؤ": 9772,
      "▁خاصة": 9773,
      "▁الجديد": 9774,
      "🔥🔥🔥": 9775,
      "▁أنها": 9776,
      "▁وان": 9777,
      "نيع": 9778,
      "👊🏻": 9779,
      "هُ": 9780,
      "▁صرا": 9781,
      "شو": 9782,
      "طط": 9783,
      "راد": 9784,
      "▁قدر": 9785,
      "▁الإنس": 9786,
      "▁so": 9787,
      "**": 9788,
      "▁الرو": 9789,
      "▁التش": 9790,
      "تني": 9791,
      "▁\n\n": 9792,
      "تنا": 9793,
      "▁وجود": 9794,
      "▁احتمال": 9795,
      "رع": 9796,
      "▁ab": 9797,
      "▁لس": 9798,
      "▁دى": 9799,
      "▁قصدك": 9800,
      "▁النو": 9801,
      "علومات": 9802,
      "▁وضع": 9803,
      "▁الحكومة": 9804,
      "تز": 9805,
      "▁للش": 9806,
      "ind": 9807,
      "▁التس": 9808,
      "16": 9809,
      "ight": 9810,
      "صي": 9811,
      "▁صفاء": 9812,
      "▁مبا": 9813,
      "مع": 9814,
      "▁لاح": 9815,
      "مشي": 9816,
      "تا": 9817,
      "▁ترح": 9818,
      "▁بتعمل": 9819,
      "▁لش": 9820,
      "▁@2499": 9821,
      "املة": 9822,
      "يرا": 9823,
      "▁🤦‍♂": 9824,
      "▁الأولى": 9825,
      "احن": 9826,
      "▁مافي": 9827,
      "▁حمد": 9828,
      "اعدة": 9829,
      "ould": 9830,
      "ia": 9831,
      "عملي": 9832,
      "بية": 9833,
      "▁عامل": 9834,
      "▁بتكلم": 9835,
      "▁ex": 9836,
      "▁الكس": 9837,
      "ore": 9838,
      "▁at": 9839,
      "▁wor": 9840,
      "خذ": 9841,
      "▁قدام": 9842,
      "▁جات": 9843,
      "▁الظ": 9844,
      "▁ربنا": 9845,
      "▁عل": 9846,
      "٠٠": 9847,
      "▁٤": 9848,
      "جهة": 9849,
      "▁صغيرة": 9850,
      "حدث": 9851,
      ".\nوق": 9852,
      "▁الحياة": 9853,
      "▁الدولة": 9854,
      "▁تطبيق": 9855,
      "ant": 9856,
      "▁الار": 9857,
      "'s": 9858,
      "▁عب": 9859,
      "▁غا": 9860,
      "عار": 9861,
      "ook": 9862,
      "▁قعد": 9863,
      "▁وأن": 9864,
      "هام": 9865,
      "▁الحل": 9866,
      "44": 9867,
      ".\nأ": 9868,
      "▁أمام": 9869,
      "ويت": 9870,
      "▁الفات": 9871,
      "▁😂🤦‍♂": 9872,
      "رش": 9873,
      "▁رجعت": 9874,
      "▁الأمر": 9875,
      "▁صحيت": 9876,
      "غيل": 9877,
      "▁نفسي": 9878,
      "▁wh": 9879,
      "▁عليكم": 9880,
      "▁يص": 9881,
      "▁يحت": 9882,
      "▁شوية": 9883,
      "▁الاس": 9884,
      "▁نعم": 9885,
      "قاء": 9886,
      "now": 9887,
      "▁مشكله": 9888,
      "ضة": 9889,
      "تيار": 9890,
      "▁وط": 9891,
      "راسة": 9892,
      "اتف": 9893,
      "▁😋😋": 9894,
      "▁مره": 9895,
      "▁لكل": 9896,
      "▁الرئي": 9897,
      "شش": 9898,
      "علان": 9899,
      "بال": 9900,
      "انع": 9901,
      "▁بتعرف": 9902,
      "▁المف": 9903,
      "▁غالبا": 9904,
      "▁🤣": 9905,
      "ائية": 9906,
      "😂😂😂😂😂😂": 9907,
      "▁تنا": 9908,
      "ورية": 9909,
      "▁شا": 9910,
      "ابعة": 9911,
      "▁الأن": 9912,
      "▁بالنسبة": 9913,
      "▁100": 9914,
      ".\nي": 9915,
      "ووو": 9916,
      "ادرة": 9917,
      "▁رأ": 9918,
      "▁تض": 9919,
      "واب": 9920,
      "ect": 9921,
      "▁الرح": 9922,
      "▁سيا": 9923,
      "▁الصح": 9924,
      "▁الصخور": 9925,
      "ss": 9926,
      "w.": 9927,
      "💔💔💔💔💔": 9928,
      "ice": 9929,
      "▁انوم": 9930,
      "احونة": 9931,
      "جا": 9932,
      "▁الدين": 9933,
      "ck": 9934,
      "▁RT": 9935,
      "▁لذلك": 9936,
      "يمة": 9937,
      "▁اجي": 9938,
      "ُّ": 9939,
      "▁حض": 9940,
      "▁العربي": 9941,
      "▁للع": 9942,
      "▁النف": 9943,
      "▁15": 9944,
      "▁عرض": 9945,
      "▁الاتنين": 9946,
      "خاص": 9947,
      "17": 9948,
      "ally": 9949,
      "▁للد": 9950,
      "▁مني": 9951,
      "▁تز": 9952,
      "18": 9953,
      "يجة": 9954,
      "وبة": 9955,
      "بيت": 9956,
      "▁كلهم": 9957,
      "ity": 9958,
      "ؤول": 9959,
      "▁طريقة": 9960,
      "▁والد": 9961,
      "افر": 9962,
      "▁الرئيس": 9963,
      "▁رمضان": 9964,
      "روش": 9965,
      "ريبا": 9966,
      "راً": 9967,
      "خب": 9968,
      "الف": 9969,
      "صور": 9970,
      "ائي": 9971,
      "▁قادر": 9972,
      "▁الحي": 9973,
      "الجة": 9974,
      "▁وانا": 9975,
      "▁أكبر": 9976,
      "▁us": 9977,
      "ميس": 9978,
      "▁know": 9979,
      "\nي": 9980,
      "جهزة": 9981,
      "حوم": 9982,
      "▁رح": 9983,
      "▁ني": 9984,
      "▁وغير": 9985,
      "سى": 9986,
      "افي": 9987,
      "🏼‍♀": 9988,
      "ــــ": 9989,
      "▁خدمة": 9990,
      "▁نظ": 9991,
      "▁منهم": 9992,
      "▁🤣🤣🤣🤣": 9993,
      "14": 9994,
      "▁داك": 9995,
      "▁الأع": 9996,
      "▁وزارة": 9997,
      "▁تمشي": 9998,
      "جاج": 9999,
      "مية": 10000,
      "سبب": 10001,
      "▁النظام": 10002,
      "بارك": 10003,
      "قق": 10004,
      "حاد": 10005,
      "▁التأ": 10006,
      "قطع": 10007,
      "▁z": 10008,
      "افه": 10009,
      "▁بقت": 10010,
      "▁طبي": 10011,
      "▁ومع": 10012,
      "▁اذا": 10013,
      "cc": 10014,
      "▁إنتاج": 10015,
      "▁العق": 10016,
      "▁حين": 10017,
      "وفير": 10018,
      "ame": 10019,
      "▁en": 10020,
      "▁المك": 10021,
      "▁الحصول": 10022,
      "▁الدم": 10023,
      "بحث": 10024,
      "13": 10025,
      "▁الأرض": 10026,
      "▁30": 10027,
      "▁الني": 10028,
      "هيهي": 10029,
      "افظ": 10030,
      "▁ار": 10031,
      "▁السوداني": 10032,
      "▁مرات": 10033,
      "▁سؤال": 10034,
      "َي": 10035,
      "▁زيادة": 10036,
      "▁ابرار": 10037,
      "▁بغ": 10038,
      ":\n-": 10039,
      "وما": 10040,
      "😳😳": 10041,
      "اتك": 10042,
      "▁تعرف": 10043,
      "▁الحر": 10044,
      "وسط": 10045,
      "and": 10046,
      "ها.": 10047,
      "em": 10048,
      "▁ليكم": 10049,
      "▁or": 10050,
      "▁J": 10051,
      "▁المث": 10052,
      "▁النوم": 10053,
      "▁\"ال": 10054,
      "▁٥": 10055,
      "😭😭😭😭😭😭😭😭": 10056,
      "▁ااي": 10057,
      "▁جما": 10058,
      "روس": 10059,
      "▁الثاني": 10060,
      "يارات": 10061,
      "وء": 10062,
      "▁بحبك": 10063,
      "▁الجامعة": 10064,
      "▁الاي": 10065,
      "▁الصف": 10066,
      "طلاق": 10067,
      "▁!!!!!": 10068,
      "لاك": 10069,
      "حب": 10070,
      "▁المشروع": 10071,
      "لكتر": 10072,
      "▁الشركات": 10073,
      "❤️❤️❤️❤️❤️": 10074,
      "▁اتخ": 10075,
      "▁الحب": 10076,
      "▁كنا": 10077,
      "www.": 10078,
      "▁Ma": 10079,
      "وتر": 10080,
      "▁الجامعه": 10081,
      "سط": 10082,
      "▁حيكون": 10083,
      "▁محطة": 10084,
      "▁سا": 10085,
      "▁حتكون": 10086,
      "’s": 10087,
      "▁حما": 10088,
      "▁شركات": 10089,
      "▁هاي": 10090,
      "▁المواد": 10091,
      "rom": 10092,
      "▁فار": 10093,
      "▁شنو؟": 10094,
      "▁المشكلة": 10095,
      "ولوج": 10096,
      "▁الوح": 10097,
      "\"،": 10098,
      "77": 10099,
      "▁بالع": 10100,
      "▁ياتو": 10101,
      "▁(ال": 10102,
      "▁والخ": 10103,
      "سكر": 10104,
      "▁مم": 10105,
      "▁قطع": 10106,
      "▁فيما": 10107,
      "أل": 10108,
      "▁نعمل": 10109,
      "دل": 10110,
      "▁الجديدة": 10111,
      "▁؟😋": 10112,
      "▁نز": 10113,
      "be": 10114,
      "▁الاخ": 10115,
      "▁اااه": 10116,
      "▁الخارج": 10117,
      "▁جبرة": 10118,
      "▁إي": 10119,
      "بره": 10120,
      "اهرة": 10121,
      "▁احي": 10122,
      "▁بكل": 10123,
      "اقين": 10124,
      ").": 10125,
      "▁المحت": 10126,
      "▁در": 10127,
      "▁لد": 10128,
      "▁اتح": 10129,
      "حص": 10130,
      "ىة": 10131,
      "▁لتح": 10132,
      "▁[": 10133,
      "▁للإ": 10134,
      "نقلة": 10135,
      "▁الحا": 10136,
      "ديك": 10137,
      "▁أق": 10138,
      "بيه": 10139,
      "▁منطقة": 10140,
      "لكن": 10141,
      "🤭🤭": 10142,
      "ناك": 10143,
      "ist": 10144,
      "حاب": 10145,
      "▁سن": 10146,
      "▁الولايات": 10147,
      "ارد": 10148,
      "▁قب": 10149,
      "▁تقديم": 10150,
      "▁الدنيا": 10151,
      "▁زمان": 10152,
      "ان،": 10153,
      "▁خص": 10154,
      "▁الأخرى": 10155,
      "كسر": 10156,
      "ونه": 10157,
      "▁القط": 10158,
      "هج": 10159,
      "ni": 10160,
      "▁ترحال": 10161,
      "▁مستوى": 10162,
      "▁صنع": 10163,
      "▁تأثير": 10164,
      "▁وهذا": 10165,
      "▁لاعب": 10166,
      "خول": 10167,
      "act": 10168,
      "▁نع": 10169,
      "جار": 10170,
      "▁ألف": 10171,
      "▁الدولي": 10172,
      "شتغل": 10173,
      "▁درجة": 10174,
      "▁الخام": 10175,
      ".\nك": 10176,
      "ثق": 10177,
      "تمام": 10178,
      "▁التف": 10179,
      "▁بناء": 10180,
      "▁اسمع": 10181,
      "▁البحث": 10182,
      "▁والف": 10183,
      "▁أج": 10184,
      "نف": 10185,
      "▁He": 10186,
      ".\nم": 10187,
      "▁ذكر": 10188,
      "وبا": 10189,
      "لامة": 10190,
      "▁دولة": 10191,
      "حح": 10192,
      "▁سلام": 10193,
      "▁by": 10194,
      "تبر": 10195,
      "▁واست": 10196,
      "▁بالأ": 10197,
      "كمة": 10198,
      "▁دايرين": 10199,
      "زن": 10200,
      "pt": 10201,
      "▁all": 10202,
      "ولد": 10203,
      "ليه": 10204,
      "ساء": 10205,
      "▁رائ": 10206,
      "ندي": 10207,
      "▁الماضي": 10208,
      "▁عندو": 10209,
      "▁التاني": 10210,
      "داف": 10211,
      "▁الكل": 10212,
      "▁هسي": 10213,
      "سلسل": 10214,
      "▁جو": 10215,
      "▁حم": 10216,
      "▁الملك": 10217,
      "▁خش": 10218,
      "▁مرا": 10219,
      "’t": 10220,
      "▁اهل": 10221,
      "><U+00A": 10222,
      "اااااااا": 10223,
      "▁بالإضافة": 10224,
      "▁The": 10225,
      "▁رك": 10226,
      "لله": 10227,
      "كية": 10228,
      "▁الوطني": 10229,
      "▁تقدم": 10230,
      "▁jo": 10231,
      "َر": 10232,
      "▁مركز": 10233,
      "اتها": 10234,
      "▁بيها": 10235,
      "▁كثير": 10236,
      "▁الفور": 10237,
      "▁الفلسط": 10238,
      "▁صورة": 10239,
      "ive": 10240,
      "'t": 10241,
      "ard": 10242,
      "ack": 10243,
      "▁قلب": 10244,
      "▁سبب": 10245,
      "هم،": 10246,
      "▁البلد": 10247,
      "▁🌚🌚": 10248,
      "▁أيضا": 10249,
      "مْ": 10250,
      "رحلة": 10251,
      "▁الخط": 10252,
      "80": 10253,
      "▁تغ": 10254,
      "66": 10255,
      "علام": 10256,
      "▁تاريخ": 10257,
      "▁نحو": 10258,
      "ie": 10259,
      "▁ته": 10260,
      "▁وزير": 10261,
      "▁بري": 10262,
      "😌😌": 10263,
      "يين": 10264,
      "ه.": 10265,
      "▁ya": 10266,
      "▁بقى": 10267,
      "دوب": 10268,
      "▁غايتو": 10269,
      "▁خدمات": 10270,
      "عام": 10271,
      "▁معل": 10272,
      "▁؛": 10273,
      "▁واو": 10274,
      "خصص": 10275,
      "▁الفيديو": 10276,
      "▁المنطقة": 10277,
      "▁الشر": 10278,
      "▁عرفت": 10279,
      "▁عيد": 10280,
      "▁مجال": 10281,
      "ناة": 10282,
      "عاون": 10283,
      "ime": 10284,
      "▁اكون": 10285,
      "▁أثناء": 10286,
      "▁معانا": 10287,
      "كتر": 10288,
      "ip": 10289,
      "إذا": 10290,
      "ين.": 10291,
      "▁تعدين": 10292,
      "ختار": 10293,
      "ديه": 10294,
      "▁فيني": 10295,
      "يره": 10296,
      "قرا": 10297,
      "▁جامعة": 10298,
      "▁طاحونة": 10299,
      "▁كف": 10300,
      "اتب": 10301,
      "▁علم": 10302,
      "🤦🏻‍♂": 10303,
      "▁😂😂😂😂😂😂😂😂😂😂😂😂😂😂😂": 10304,
      "▁والص": 10305,
      "▁مستح": 10306,
      "os": 10307,
      "▁بالس": 10308,
      "very": 10309,
      "جيب": 10310,
      "▁الشباب": 10311,
      "▁عايز": 10312,
      "▁عندنا": 10313,
      "خة": 10314,
      "ec": 10315,
      "▁24": 10316,
      "▁الحق": 10317,
      "▁السوق": 10318,
      "▁فريق": 10319,
      "علق": 10320,
      "سيط": 10321,
      "▁فترة": 10322,
      "زز": 10323,
      "▁قدم": 10324,
      ")\n": 10325,
      "ظف": 10326,
      ".5": 10327,
      "▁الطاقة": 10328,
      "▁الصور": 10329,
      "▁زا": 10330,
      "▁ذلك،": 10331,
      "▁وض": 10332,
      "😎😎": 10333,
      "ome": 10334,
      "▁المعلومات": 10335,
      "▁السبت": 10336,
      "▁لط": 10337,
      "لاة": 10338,
      "سو": 10339,
      "هما": 10340,
      "صى": 10341,
      "▁وصلت": 10342,
      "نسي": 10343,
      "▁رؤ": 10344,
      "▁عالم": 10345,
      "🙂🙂": 10346,
      "ابقة": 10347,
      "▁وريني": 10348,
      "▁لهم": 10349,
      "▁اسمها": 10350,
      "ib": 10351,
      "▁الْ": 10352,
      "▁المب": 10353,
      "▁تصميم": 10354,
      "ناه": 10355,
      ".السودان": 10356,
      "ÙØ": 10357,
      "▁الخميس": 10358,
      "تمر": 10359,
      "اكد": 10360,
      "▁القانون": 10361,
      "▁التعليم": 10362,
      "لوك": 10363,
      "▁الأمن": 10364,
      "▁any": 10365,
      "▁صعب": 10366,
      "أت": 10367,
      "رفع": 10368,
      "▁والب": 10369,
      "▁تُ": 10370,
      "هذا": 10371,
      "▁وكان": 10372,
      "60": 10373,
      "ليك": 10374,
      "▁بتكون": 10375,
      "▁الاع": 10376,
      "😂😂😂😂😂😂😂": 10377,
      "▁V": 10378,
      "ool": 10379,
      "▁الترك": 10380,
      "طيع": 10381,
      "▁القا": 10382,
      "▁عق": 10383,
      "▁آلات": 10384,
      "▁أسعار": 10385,
      "باراة": 10386,
      "عاء": 10387,
      "▁pl": 10388,
      "▁11": 10389,
      "▁صغير": 10390,
      "▁اعرف": 10391,
      "tw": 10392,
      "▁قاعده": 10393,
      "▁تصل": 10394,
      "تمد": 10395,
      "▁ضمن": 10396,
      "🏽‍♀": 10397,
      "جارة": 10398,
      "▁تلفون": 10399,
      "▁والن": 10400,
      "▁الانترنت": 10401,
      "▁التلفون": 10402,
      "▁المشت": 10403,
      "▁أد": 10404,
      "▁14": 10405,
      "واق": 10406,
      "▁Khalid": 10407,
      "▁قريب": 10408,
      ".\nوت": 10409,
      "da": 10410,
      "▁فهمت": 10411,
      "فيف": 10412,
      "day": 10413,
      "▁بى": 10414,
      "لن": 10415,
      "▁تكسير": 10416,
      "▁٦": 10417,
      "▁شدييييد": 10418,
      "▁بالك": 10419,
      "طاء": 10420,
      "▁ترا": 10421,
      "▁مفت": 10422,
      "▁مختلفة": 10423,
      "رص": 10424,
      "ائج": 10425,
      "▁ولم": 10426,
      "▁عارفة": 10427,
      "▁ولاء": 10428,
      "😔😔": 10429,
      "▁جاه": 10430,
      "▁النص": 10431,
      "▁بالف": 10432,
      "تهم": 10433,
      "▁ضربت": 10434,
      "▁مغ": 10435,
      "▁لدى": 10436,
      "udan": 10437,
      "are": 10438,
      "▁تقريبا": 10439,
      "▁الجيري": 10440,
      "طاق": 10441,
      "▁الشغل": 10442,
      "ars": 10443,
      "▁خطو": 10444,
      "▁صلاح": 10445,
      "▁دو": 10446,
      "ساسية": 10447,
      "▁صوت": 10448,
      "▁البط": 10449,
      "”،": 10450,
      "هِ": 10451,
      "ًا،": 10452,
      "آن": 10453,
      "ينا": 10454,
      "▁الشع": 10455,
      "▁التد": 10456,
      "▁Ø": 10457,
      "واج": 10458,
      "لاثة": 10459,
      "ide": 10460,
      "🤨🤨": 10461,
      "▁con": 10462,
      "▁حزين": 10463,
      "▁يادوب": 10464,
      "▁الإنت": 10465,
      "▁بتعملي": 10466,
      "▁أبو": 10467,
      "▁بجي": 10468,
      "▁الصنا": 10469,
      "ount": 10470,
      "وريا": 10471,
      "راءة": 10472,
      "26": 10473,
      "▁رد": 10474,
      "▁أحمد": 10475,
      "▁أنواع": 10476,
      "▁لكم": 10477,
      "شوف": 10478,
      "ase": 10479,
      "▁حقي": 10480,
      "ph": 10481,
      "▁الاقتصا": 10482,
      "▁؟🥺": 10483,
      "سبه": 10484,
      "▁وحدة": 10485,
      "▁لمدة": 10486,
      "▁اضرب": 10487,
      "\nخالد": 10488,
      "▁١٠": 10489,
      "رامج": 10490,
      "▁بتقول": 10491,
      "لسلة": 10492,
      "▁العرب": 10493,
      "vel": 10494,
      "\nعم": 10495,
      "▁حبيبتي": 10496,
      "▁أفريقيا": 10497,
      "▁18": 10498,
      "▁جنيه": 10499,
      "فاظ": 10500,
      "▁go": 10501,
      "▁قائمة": 10502,
      "يتها": 10503,
      "▁للس": 10504,
      "🙆🙆": 10505,
      "▁وفق": 10506,
      "▁باستخدام": 10507,
      "▁عندهم": 10508,
      "سباب": 10509,
      "▁خال": 10510,
      "الث": 10511,
      "▁المزيد": 10512,
      "▁الشيخ": 10513,
      "▁نهاية": 10514,
      "حوق": 10515,
      "▁الكورة": 10516,
      "عود": 10517,
      "▁ابراهيم": 10518,
      "▁😍": 10519,
      "ضمن": 10520,
      "▁النظر": 10521,
      "▁للج": 10522,
      "▁ياا": 10523,
      "▁والله😂": 10524,
      "يس": 10525,
      "▁كيفية": 10526,
      "▁ابن": 10527,
      "▁المعدات": 10528,
      "▁الطلب": 10529,
      "يدان": 10530,
      "▁بور": 10531,
      "روري": 10532,
      "▁الموقع": 10533,
      "▁حسن": 10534,
      "🤦‍♂🤦‍♂🤦‍♂🤦‍♂": 10535,
      "▁يم": 10536,
      "▁ضرب": 10537,
      "▁مُ": 10538,
      "▁حاسي": 10539,
      "rou": 10540,
      "روج": 10541,
      "فى": 10542,
      "فار": 10543,
      "روك": 10544,
      "▁نمشي": 10545,
      "▁الدكتور": 10546,
      "▁والق": 10547,
      "▁شع": 10548,
      "▁سريع": 10549,
      "▁إدارة": 10550,
      "▁اتكلم": 10551,
      "▁لاب": 10552,
      "▁if": 10553,
      "ach": 10554,
      "▁إب": 10555,
      "ئا": 10556,
      "▁لص": 10557,
      "😹😹😹😹😹😹😹😹": 10558,
      "▁والذي": 10559,
      "▁أغ": 10560,
      "ييييي": 10561,
      "▁تعالي": 10562,
      "▁ماي": 10563,
      "صابة": 10564,
      "اااااا": 10565,
      "ast": 10566,
      "▁🥰": 10567,
      "شا": 10568,
      "▁13": 10569,
      "▁تقوم": 10570,
      "▁باب": 10571,
      "طلق": 10572,
      "ويات": 10573,
      "▁الإسلام": 10574,
      "نن": 10575,
      "▁الصغيرة": 10576,
      "ريح": 10577,
      "▁إجراء": 10578,
      "ok": 10579,
      "▁المصري": 10580,
      "ذب": 10581,
      "▁از": 10582,
      "▁ديك": 10583,
      "kg": 10584,
      "فو": 10585,
      "حى": 10586,
      "▁جهاز": 10587,
      "ساسي": 10588,
      "هاء": 10589,
      "▁|": 10590,
      "▁حلوة": 10591,
      "><U+00A0": 10592,
      "▁جاب": 10593,
      "ريبة": 10594,
      "ثمار": 10595,
      "><ed><U+00B": 10596,
      "><U+00A0><U+00B": 10597,
      "▁from": 10598,
      "ااااا": 10599,
      "ne": 10600,
      "َب": 10601,
      "▁والج": 10602,
      "كب": 10603,
      "ning": 10604,
      "▁وإن": 10605,
      "▁طوي": 10606,
      "▁احمد": 10607,
      "▁فيديو": 10608,
      "▁شغل": 10609,
      "▁تؤ": 10610,
      "▁الإلكتر": 10611,
      "▁المال": 10612,
      "▁شكلها": 10613,
      "▁50": 10614,
      "▁الرمل": 10615,
      "▁حد": 10616,
      "▁sa": 10617,
      "▁!!!!!!": 10618,
      "▁انته": 10619,
      "▁جزء": 10620,
      "▁بالح": 10621,
      "▁تصنيع": 10622,
      "▁ىا": 10623,
      "▁بوا": 10624,
      "افظة": 10625,
      "اده": 10626,
      "▁نفسه": 10627,
      "▁الزمن": 10628,
      "▁وتع": 10629,
      "👊🏻👊🏻": 10630,
      "افية": 10631,
      "▁what": 10632,
      "اجر": 10633,
      "شير": 10634,
      "كنولوج": 10635,
      "▁واج": 10636,
      "نعة": 10637,
      "ريكية": 10638,
      "▁الداخل": 10639,
      ".g": 10640,
      "▁It": 10641,
      "سف": 10642,
      "واد": 10643,
      "😂👈👉": 10644,
      "▁فصل": 10645,
      "▁عدة": 10646,
      "▁ابو": 10647,
      "▁ورا": 10648,
      "اهر": 10649,
      "reat": 10650,
      "ريكي": 10651,
      "▁وسلم": 10652,
      "ماً": 10653,
      "اهد": 10654,
      "▁العلم": 10655,
      "▁كهرب": 10656,
      "▁🤗": 10657,
      "▁؟🙂": 10658,
      ".\nفي": 10659,
      "▁خاص": 10660,
      "▁إذ": 10661,
      "ىر": 10662,
      "▁ويت": 10663,
      "▁التواصل": 10664,
      "▁الإنسان": 10665,
      "▁البنات": 10666,
      "▁اتصل": 10667,
      "ge": 10668,
      "▁سلم": 10669,
      "▁اض": 10670,
      "▁دم": 10671,
      "▁القص": 10672,
      "ذج": 10673,
      "َة": 10674,
      "▁ولاية": 10675,
      "▁لف": 10676,
      "▁العل": 10677,
      "▁يأ": 10678,
      "▁بنات": 10679,
      "per": 10680,
      "▁البلاد": 10681,
      "▁مالي": 10682,
      "▁سام": 10683,
      "▁؟👈👉": 10684,
      "▁الجمعة": 10685,
      "ذية": 10686,
      "ائف": 10687,
      "▁سنه": 10688,
      "▁app": 10689,
      "▁الإمارات": 10690,
      "te": 10691,
      "▁نشوف": 10692,
      "▁العراق": 10693,
      "▁قمت": 10694,
      "▁المركز": 10695,
      "▁المنزل": 10696,
      "https://": 10697,
      "▁get": 10698,
      "▁السنة": 10699,
      "▁الصحي": 10700,
      "▁In": 10701,
      "▁https://www.": 10702,
      "▁يقوم": 10703,
      "ثيوبي": 10704,
      "عداد": 10705,
      "▁شغ": 10706,
      "▁ماشه": 10707,
      "▁السف": 10708,
      "▁وجه": 10709,
      "داع": 10710,
      "اهل": 10711,
      "▁المختلف": 10712,
      "▁حجم": 10713,
      "▁الاتصال": 10714,
      "▁ملا": 10715,
      "▁about": 10716,
      "ue": 10717,
      "▁مبس": 10718,
      "▁نوم": 10719,
      "ميد": 10720,
      "▁up": 10721,
      "اصمة": 10722,
      "▁الور": 10723,
      "▁الرمال": 10724,
      "حمد": 10725,
      "َع": 10726,
      "▁الدوري": 10727,
      "▁الآخر": 10728,
      "▁جادي": 10729,
      "ونية": 10730,
      "هدف": 10731,
      "▁المجتمع": 10732,
      "▁غبي": 10733,
      "▁وقال": 10734,
      "▁😹😹😹": 10735,
      "▁أيام": 10736,
      "قرأ": 10737,
      "▁عندها": 10738,
      "‎‏‎‏‎‏‎‏‎‏‎‏‎‏‎‏": 10739,
      "▁افت": 10740,
      "▁قررت": 10741,
      "▁one": 10742,
      "▁لـ": 10743,
      "▁المحمول": 10744,
      "▁لأنه": 10745,
      "▁عسل": 10746,
      "▁الشهر": 10747,
      "▁سنوات": 10748,
      "▁أما": 10749,
      "▁جانب": 10750,
      "▁ينت": 10751,
      "27": 10752,
      "▁الماء": 10753,
      "▁والك": 10754,
      "قتصاد": 10755,
      "بعد": 10756,
      "▁الصورة": 10757,
      "ربط": 10758,
      "▁خلصت": 10759,
      ".زىن": 10760,
      "▁برو": 10761,
      "▁لنا": 10762,
      "▁عنه": 10763,
      "صب": 10764,
      "▁الأج": 10765,
      "▁تنت": 10766,
      "امين": 10767,
      "▁الأطفال": 10768,
      "▁سلسلة": 10769,
      "ضم": 10770,
      "de": 10771,
      "▁da": 10772,
      "عض": 10773,
      "لغ": 10774,
      "▁الأعمال": 10775,
      "💔💔💔💔💔💔": 10776,
      "▁وعلى": 10777,
      "وضع": 10778,
      "▁صناعة": 10779,
      "▁صد": 10780,
      "كَ": 10781,
      "▁يوجد": 10782,
      "▁ارسل": 10783,
      "D><ed><U+00B": 10784,
      "><U+00A0><U+00BD><ed><U+00B": 10785,
      "her": 10786,
      "ديت": 10787,
      "▁\nو": 10788,
      "▁تحقيق": 10789,
      "▁العا": 10790,
      "▁توا": 10791,
      "▁التاريخ": 10792,
      "▁بير": 10793,
      "▁الفترة": 10794,
      "▁وكل": 10795,
      "▁فأ": 10796,
      "▁😅": 10797,
      "▁القد": 10798,
      "عين": 10799,
      "▁ساعه": 10800,
      "▁الصحة": 10801,
      "▁النبات": 10802,
      "▁داي": 10803,
      "▁فات": 10804,
      "▁٧": 10805,
      "▁عص": 10806,
      "كسك": 10807,
      "▁حار": 10808,
      "▁اقت": 10809,
      "▁سك": 10810,
      "▁السم": 10811,
      "▁acc": 10812,
      "▁كامل": 10813,
      "غب": 10814,
      "▁خارج": 10815,
      "▁قايل": 10816,
      "▁حاض": 10817,
      "▁دعم": 10818,
      "▁تكلفة": 10819,
      "▁تحتاج": 10820,
      "▁تحديد": 10821,
      "▁اوك": 10822,
      "▁الحرب": 10823,
      "وضح": 10824,
      "ران": 10825,
      "صرية": 10826,
      "ثنين": 10827,
      "ركه": 10828,
      "قية": 10829,
      "ئات": 10830,
      "اريع": 10831,
      "ولات": 10832,
      "لكم": 10833,
      "▁الشعر": 10834,
      "طع": 10835,
      "سسة": 10836,
      "▁شكلك": 10837,
      "صنع": 10838,
      "هداف": 10839,
      "▁المالية": 10840,
      "▁مدير": 10841,
      "▁ضع": 10842,
      "▁يز": 10843,
      "▁قم": 10844,
      "▁التطبيق": 10845,
      "▁السل": 10846,
      "▁مشتاقين": 10847,
      "سمح": 10848,
      "▁وري": 10849,
      "▁معاهم": 10850,
      "▁حر": 10851,
      "داث": 10852,
      "قاً": 10853,
      "▁فلا": 10854,
      "وير": 10855,
      "▁لخ": 10856,
      "▁16": 10857,
      "ff": 10858,
      "يييييييي": 10859,
      "▁كدة": 10860,
      "اخر": 10861,
      "oc": 10862,
      "▁شبكة": 10863,
      "اليا": 10864,
      "ليز": 10865,
      "▁الموج": 10866,
      "▁بالق": 10867,
      "▁الجسم": 10868,
      "▁نقل": 10869,
      "شان": 10870,
      "▁كورة": 10871,
      "صار": 10872,
      "ong": 10873,
      "▁شعب": 10874,
      "تل": 10875,
      "▁إنه": 10876,
      "▁الشه": 10877,
      "▁😂😂😂😂😂😂😂😂😂😂😂😂😂😂😂😂😂": 10878,
      "تع": 10879,
      "▁القروب": 10880,
      "▁دة": 10881,
      "▁شراء": 10882,
      "▁face": 10883,
      "▁الجيش": 10884,
      "▁الهي": 10885,
      "كيف": 10886,
      "▁مقابل": 10887,
      "▁حرام": 10888,
      "مرار": 10889,
      "▁مات": 10890,
      "▁اجتما": 10891,
      "▁الدرا": 10892,
      "▁سمعت": 10893,
      "▁محم": 10894,
      "نوعة": 10895,
      "▁بـ": 10896,
      "الس": 10897,
      "▁الخدمات": 10898,
      "▁مباشرة": 10899,
      "▁صلى": 10900,
      "ass": 10901,
      "ديق": 10902,
      "▁المجلس": 10903,
      "▁❤️❤️": 10904,
      "كنولوجيا": 10905,
      "▁دف": 10906,
      "▁ومت": 10907,
      "ليق": 10908,
      "▁بعيد": 10909,
      "ber": 10910,
      "صرف": 10911,
      "▁رجع": 10912,
      "جموع": 10913,
      "ماع": 10914,
      "▁أقل": 10915,
      "برا": 10916,
      "▁السؤال": 10917,
      "▁👍": 10918,
      "▁25": 10919,
      "med": 10920,
      "ىل": 10921,
      "يته": 10922,
      "▁اللهم": 10923,
      "▁متح": 10924,
      "ينية": 10925,
      "فلت": 10926,
      "▁جاء": 10927,
      "▁امدر": 10928,
      "وله": 10929,
      "▁الاعت": 10930,
      "ًا.": 10931,
      "▁فرق": 10932,
      "app": 10933,
      "\nمن": 10934,
      "▁معاه": 10935,
      "▁ماكين": 10936,
      "▁تلف": 10937,
      "🤣🤣🤣": 10938,
      "امي": 10939,
      "وبر": 10940,
      "▁بتش": 10941,
      "▁الاتحاد": 10942,
      "\n[": 10943,
      "▁قض": 10944,
      "▁كتاب": 10945,
      "for": 10946,
      "ادات": 10947,
      "▁حلا": 10948,
      "🤦🏻‍♀🤦🏻‍♀": 10949,
      "▁الرسم": 10950,
      "▁بتق": 10951,
      "▁مساء": 10952,
      "▁think": 10953,
      "▁حتي": 10954,
      "▁المز": 10955,
      "▁كول": 10956,
      "ence": 10957,
      "▁الوطنية": 10958,
      "🙆🏼‍♀": 10959,
      "ناصر": 10960,
      "▁معالجة": 10961,
      "▁just": 10962,
      "َيْ": 10963,
      "▁إنت": 10964,
      "▁المشكله": 10965,
      "▁وبعد": 10966,
      "صالات": 10967,
      "🖤🖤": 10968,
      "▁ايي": 10969,
      "سكري": 10970,
      "رز": 10971,
      "صلاح": 10972,
      "▁out": 10973,
      "▁يك": 10974,
      "▁حاول": 10975,
      "▁did": 10976,
      "▁17": 10977,
      "دة،": 10978,
      "▁مستحيل": 10979,
      "▁اااي": 10980,
      "اند": 10981,
      "▁ساعات": 10982,
      "َم": 10983,
      "ظه": 10984,
      "ايق": 10985,
      "▁قرار": 10986,
      "▁شر": 10987,
      "▁....": 10988,
      "▁بتن": 10989,
      "iv": 10990,
      "▁كافة": 10991,
      "▁مثلا": 10992,
      "▁وكذلك": 10993,
      "▁صحيح": 10994,
      "▁بالزبط": 10995,
      "ions": 10996,
      "كود": 10997,
      "▁الفريق": 10998,
      "ite": 10999,
      "▁2021": 11000,
      "خفض": 11001,
      "▁اختيار": 11002,
      "▁مكت": 11003,
[...]
