{
  "version": "1.0",
  "truncation": null,
  "padding": null,
  "added_tokens": [
    {
      "id": 0,
      "content": "<unk>",
      "single_word": false,
      "lstrip": false,
      "rstrip": false,
      "normalized": false,
      "special": true
    }
  ],
  "normalizer": {
    "type": "NFKC"
  },
  "pre_tokenizer": {
    "type": "Metaspace",
    "replacement": "▁",
    "prepend_scheme": "always",
    "split": true
  },
  "post_processor": {
    "type": "TemplateProcessing",
    "single": [
      {
        "Sequence": {
          "id": "A",
          "type_id": 0
        }
      }
    ],
    "pair": [
      {
        "Sequence": {
          "id": "A",
          "type_id": 0
        }
      },
      {
        "Sequence": {
          "id": "B",
          "type_id": 1
        }
      }
    ],
    "special_tokens": {}
  },
  "decoder": {
    "type": "Metaspace",
    "replacement": "▁",
    "prepend_scheme": "always",
    "split": true
  },
  "model": {
    "type": "BPE",
    "dropout": null,
    "unk_token": "<unk>",
    "continuing_subword_prefix": null,
    "end_of_word_suffix": null,
    "fuse_unk": false,
    "byte_fallback": false,
    "ignore_merges": false,
    "vocab": {
      "<unk>": 0,
      "\n": 1,
      "!": 2,
      "\"": 3,
      "#": 4,
      "$": 5,
      "%": 6,
      "&": 7,
      "'": 8,
      "(": 9,
      ")": 10,
      "*": 11,
      "+": 12,
      ",": 13,
      "-": 14,
      ".": 15,
      "/": 16,
      "0": 17,
      "1": 18,
      "2": 19,
      "3": 20,
      "4": 21,
      "5": 22,
      "6": 23,
      "7": 24,
      "8": 25,
      "9": 26,
      ":": 27,
      ";": 28,
      "<": 29,
      "=": 30,
      ">": 31,
      "?": 32,
      "@": 33,
      "A": 34,
      "B": 35,
      "C": 36,
      "D": 37,
      "E": 38,
      "F": 39,
      "G": 40,
      "H": 41,
      "I": 42,
      "J": 43,
      "K": 44,
      "L": 45,
      "M": 46,
      "N": 47,
      "O": 48,
      "P": 49,
      "Q": 50,
      "R": 51,
      "S": 52,
      "T": 53,
      "U": 54,
      "V": 55,
      "W": 56,
      "X": 57,
      "Y": 58,
      "Z": 59,
      "[": 60,
      "\\": 61,
      "]": 62,
      "^": 63,
      "_": 64,
      "`": 65,
      "a": 66,
      "b": 67,
      "c": 68,
      "d": 69,
      "e": 70,
      "f": 71,
      "g": 72,
      "h": 73,
      "i": 74,
      "j": 75,
      "k": 76,
      "l": 77,
      "m": 78,
      "n": 79,
      "o": 80,
      "p": 81,
      "q": 82,
      "r": 83,
      "s": 84,
      "t": 85,
      "u": 86,
      "v": 87,
      "w": 88,
      "x": 89,
      "y": 90,
      "z": 91,
      "{": 92,
      "|": 93,
      "}": 94,
      "~": 95,
      "¡": 96,
      "¢": 97,
      "£": 98,
      "¤": 99,
      "¥": 100,
      "¦": 101,
      "§": 102,
      "©": 103,
      "«": 104,
      "¬": 105,
      "®": 106,
      "°": 107,
      "±": 108,
      "¶": 109,
      "·": 110,
      "»": 111,
      "¿": 112,
      "À": 113,
      "Á": 114,
      "Â": 115,
      "Ã": 116,
      "Ä": 117,
      "Å": 118,
      "Æ": 119,
      "Ç": 120,
      "È": 121,
      "É": 122,
      "Ê": 123,
      "Ë": 124,
      "Ì": 125,
      "Í": 126,
      "Î": 127,
      "Ï": 128,
      "Ð": 129,
      "Ñ": 130,
      "Ò": 131,
      "Ó": 132,
      "Ô": 133,
      "Õ": 134,
      "Ö": 135,
      "×": 136,
      "Ø": 137,
      "Ù": 138,
      "Ú": 139,
      "Û": 140,
      "Ü": 141,
      "Ý": 142,
      "Þ": 143,
      "ß": 144,
      "à": 145,
      "á": 146,
      "â": 147,
      "ã": 148,
      "ä": 149,
      "å": 150,
      "æ": 151,
      "ç": 152,
      "è": 153,
      "é": 154,
      "ê": 155,
      "ë": 156,
      "ì": 157,
      "í": 158,
      "î": 159,
      "ï": 160,
      "ð": 161,
      "ñ": 162,
      "ò": 163,
      "ó": 164,
      "ô": 165,
      "õ": 166,
      "ö": 167,
      "÷": 168,
      "ø": 169,
      "ù": 170,
      "ú": 171,
      "û": 172,
      "ü": 173,
      "ý": 174,
      "ā": 175,
      "ă": 176,
      "ą": 177,
      "ć": 178,
      "Č": 179,
      "č": 180,
      "đ": 181,
      "ē": 182,
      "ę": 183,
      "ě": 184,
      "ğ": 185,
      "ī": 186,
      "İ": 187,
      "ı": 188,
      "Ł": 189,
      "ł": 190,
      "ń": 191,
      "ō": 192,
      "Ř": 193,
      "ś": 194,
      "Ş": 195,
      "ş": 196,
      "Š": 197,
      "š": 198,
      "ū": 199,
      "Ů": 200,
      "ų": 201,
      "Ż": 202,
      "ż": 203,
      "ž": 204,
      "ƒ": 205,
      "ɑ": 206,
      "ə": 207,
      "ɡ": 208,
      "ɪ": 209,
      "ʃ": 210,
      "ʻ": 211,
      "ʾ": 212,
      "ˆ": 213,
      "ˈ": 214,
      "ː": 215,
      "́": 216,
      "̃": 217,
      "̄": 218,
      "̅": 219,
      "̈": 220,
      "̋": 221,
      "̧": 222,
      "̨": 223,
      "̯": 224,
      "̲": 225,
      "͠": 226,
      "͡": 227,
      "Δ": 228,
      "Φ": 229,
      "Ω": 230,
      "ά": 231,
      "έ": 232,
      "ή": 233,
      "ί": 234,
      "α": 235,
      "β": 236,
      "γ": 237,
      "δ": 238,
      "ε": 239,
      "η": 240,
      "θ": 241,
      "ι": 242,
      "κ": 243,
      "λ": 244,
      "μ": 245,
      "ν": 246,
      "ο": 247,
      "π": 248,
      "ρ": 249,
      "ς": 250,
      "σ": 251,
      "τ": 252,
      "υ": 253,
      "φ": 254,
      "χ": 255,
      "ω": 256,
      "ό": 257,
      "ύ": 258,
      "Ђ": 259,
      "Ѓ": 260,
      "Є": 261,
      "Ѕ": 262,
      "І": 263,
      "Ј": 264,
      "Ќ": 265,
      "Ў": 266,
      "Џ": 267,
      "А": 268,
      "Б": 269,
      "В": 270,
      "Г": 271,
      "Д": 272,
      "Е": 273,
      "З": 274,
      "И": 275,
      "К": 276,
      "Л": 277,
      "М": 278,
      "Н": 279,
      "О": 280,
      "П": 281,
      "Р": 282,
      "С": 283,
      "Т": 284,
      "У": 285,
      "Ф": 286,
      "Х": 287,
      "Ч": 288,
      "Ш": 289,
      "а": 290,
      "б": 291,
      "в": 292,
      "г": 293,
      "д": 294,
      "е": 295,
      "ж": 296,
      "з": 297,
      "и": 298,
      "й": 299,
      "к": 300,
      "л": 301,
      "м": 302,
      "н": 303,
      "о": 304,
      "п": 305,
      "р": 306,
      "с": 307,
      "т": 308,
      "у": 309,
      "ф": 310,
      "х": 311,
      "ц": 312,
      "ч": 313,
      "ш": 314,
      "щ": 315,
      "ъ": 316,
      "ы": 317,
      "ь": 318,
      "э": 319,
      "ю": 320,
      "я": 321,
      "ё": 322,
      "ѓ": 323,
      "є": 324,
      "ѕ": 325,
      "і": 326,
      "ї": 327,
      "ј": 328,
      "њ": 329,
      "ћ": 330,
      "ќ": 331,
      "џ": 332,
      "Ґ": 333,
      "ґ": 334,
      "ү": 335,
      "ө": 336,
      "ׄ": 337,
      "א": 338,
      "ב": 339,
      "ג": 340,
      "ד": 341,
      "ה": 342,
      "ו": 343,
      "ז": 344,
      "ח": 345,
      "ט": 346,
      "י": 347,
      "כ": 348,
      "ל": 349,
      "ם": 350,
      "מ": 351,
      "ן": 352,
      "נ": 353,
      "ס": 354,
      "ע": 355,
      "פ": 356,
      "ץ": 357,
      "צ": 358,
      "ק": 359,
      "ר": 360,
      "ש": 361,
      "ת": 362,
      "،": 363,
      "؎": 364,
      "؏": 365,
      "؛": 366,
      "؟": 367,
      "ء": 368,
      "آ": 369,
      "أ": 370,
      "ؤ": 371,
      "إ": 372,
      "ئ": 373,
      "ا": 374,
      "ب": 375,
      "ة": 376,
      "ت": 377,
      "ث": 378,
      "ج": 379,
      "ح": 380,
      "خ": 381,
      "د": 382,
      "ذ": 383,
      "ر": 384,
      "ز": 385,
      "س": 386,
      "ش": 387,
      "ص": 388,
      "ض": 389,
      "ط": 390,
      "ظ": 391,
      "ع": 392,
      "غ": 393,
      "ػ": 394,
      "ؼ": 395,
      "ؽ": 396,
      "ؾ": 397,
      "ؿ": 398,
      "ـ": 399,
      "ف": 400,
      "ق": 401,
      "ك": 402,
      "ل": 403,
      "م": 404,
      "ن": 405,
      "ه": 406,
      "و": 407,
      "ى": 408,
      "ي": 409,
      "ً": 410,
      "ٌ": 411,
      "ٍ": 412,
      "َ": 413,
      "ُ": 414,
      "ِ": 415,
      "ّ": 416,
      "ْ": 417,
      "ٓ": 418,
      "ٔ": 419,
      "ٕ": 420,
      "ٖ": 421,
      "ٗ": 422,
      "ٙ": 423,
      "ٞ": 424,
      "٠": 425,
      "١": 426,
      "٢": 427,
      "٣": 428,
      "٤": 429,
      "٥": 430,
      "٦": 431,
      "٧": 432,
      "٨": 433,
      "٩": 434,
      "٪": 435,
      "٫": 436,
      "٬": 437,
      "٭": 438,
      "ٰ": 439,
      "ٱ": 440,
      "ٲ": 441,
      "ٳ": 442,
      "ٴ": 443,
      "ٹ": 444,
      "ٻ": 445,
      "ټ": 446,
      "پ": 447,
      "ٿ": 448,
      "ڀ": 449,
      "چ": 450,
      "ڈ": 451,
      "ډ": 452,
      "ړ": 453,
      "ڕ": 454,
      "ژ": 455,
      "ڤ": 456,
      "ڨ": 457,
      "ک": 458,
      "ڪ": 459,
      "ڭ": 460,
      "گ": 461,
      "ڳ": 462,
      "ڵ": 463,
      "ں": 464,
      "ڻ": 465,
      "ھ": 466,
      "ہ": 467,
      "ۃ": 468,
      "ۆ": 469,
      "ۈ": 470,
      "ی": 471,
      "ێ": 472,
      "ې": 473,
      "ے": 474,
      "۔": 475,
      "ە": 476,
      "ۖ": 477,
      "ۗ": 478,
      "ۚ": 479,
      "۞": 480,
      "۟": 481,
      "ۡ": 482,
      "ۢ": 483,
      "ۤ": 484,
      "ۥ": 485,
      "ۦ": 486,
      "۩": 487,
      "۰": 488,
      "۱": 489,
      "۲": 490,
      "۳": 491,
      "۴": 492,
      "۵": 493,
      "۶": 494,
      "۷": 495,
      "۸": 496,
      "۹": 497,
      "ࣰ": 498,
      "ࣱ": 499,
      "ं": 500,
      "क": 501,
      "ग": 502,
      "ज": 503,
      "ट": 504,
      "त": 505,
      "द": 506,
      "न": 507,
      "प": 508,
      "ब": 509,
      "म": 510,
      "य": 511,
      "र": 512,
      "ल": 513,
      "व": 514,
      "श": 515,
      "स": 516,
      "ह": 517,
      "ा": 518,
      "ि": 519,
      "ी": 520,
      "े": 521,
      "ो": 522,
      "्": 523,
      "।": 524,
      "এ": 525,
      "ক": 526,
      "গ": 527,
      "চ": 528,
      "জ": 529,
      "ট": 530,
      "ড": 531,
      "ত": 532,
      "দ": 533,
      "ন": 534,
      "প": 535,
      "ব": 536,
      "ভ": 537,
      "ম": 538,
      "য": 539,
      "র": 540,
      "ল": 541,
      "শ": 542,
      "স": 543,
      "হ": 544,
      "়": 545,
      "া": 546,
      "ি": 547,
      "ু": 548,
      "ে": 549,
      "ো": 550,
      "্": 551,
      "ก": 552,
      "ท": 553,
      "น": 554,
      "ย": 555,
      "ร": 556,
      "ล": 557,
      "อ": 558,
      "า": 559,
      "เ": 560,
      "ไ": 561,
      "ღ": 562,
      "ḥ": 563,
      "‐": 564,
      "–": 565,
      "—": 566,
      "‘": 567,
      "’": 568,
      "‚": 569,
      "“": 570,
      "”": 571,
      "„": 572,
      "†": 573,
      "‡": 574,
      "•": 575,
      "‰": 576,
      "′": 577,
      "‹": 578,
      "›": 579,
      "※": 580,
      "⁄": 581,
      "₪": 582,
      "€": 583,
      "⃣": 584,
      "←": 585,
      "↑": 586,
      "→": 587,
      "↓": 588,
      "↩": 589,
      "⇐": 590,
      "⇒": 591,
      "∆": 592,
      "−": 593,
      "∗": 594,
      "∙": 595,
      "√": 596,
      "∫": 597,
      "≈": 598,
      "≤": 599,
      "≥": 600,
      "⋆": 601,
      "─": 602,
      "│": 603,
      "═": 604,
      "▁": 605,
      "▂": 606,
      "█": 607,
      "■": 608,
      "□": 609,
      "▪": 610,
      "▬": 611,
      "▭": 612,
      "▲": 613,
      "▶": 614,
      "▷": 615,
      "►": 616,
      "◀": 617,
      "◄": 618,
      "◆": 619,
      "◇": 620,
      "◉": 621,
      "○": 622,
      "◎": 623,
      "●": 624,
      "◙": 625,
      "◾": 626,
      "☀": 627,
      "★": 628,
      "☆": 629,
      "☎": 630,
      "☑": 631,
      "☜": 632,
      "☺": 633,
      "♀": 634,
      "♂": 635,
      "♡": 636,
      "♢": 637,
      "♥": 638,
      "♦": 639,
      "♪": 640,
      "⚡": 641,
      "⚽": 642,
      "✅": 643,
      "✌": 644,
      "✍": 645,
      "✓": 646,
      "✔": 647,
      "✠": 648,
      "✤": 649,
      "✨": 650,
      "✯": 651,
      "❊": 652,
      "❌": 653,
      "❝": 654,
      "❞": 655,
      "❤": 656,
      "❯": 657,
      "➖": 658,
      "➡": 659,
      "⠀": 660,
      "⦁": 661,
      "⬅": 662,
      "⬇": 663,
      "⭐": 664,
      "⭕": 665,
      "、": 666,
      "。": 667,
      "《": 668,
      "》": 669,
      "「": 670,
      "」": 671,
      "【": 672,
      "】": 673,
      "い": 674,
      "お": 675,
      "が": 676,
      "し": 677,
      "す": 678,
      "た": 679,
      "て": 680,
      "で": 681,
      "と": 682,
      "に": 683,
      "の": 684,
      "は": 685,
      "び": 686,
      "ま": 687,
      "も": 688,
      "よ": 689,
      "り": 690,
      "る": 691,
      "れ": 692,
      "を": 693,
      "ん": 694,
      "ァ": 695,
      "ア": 696,
      "ィ": 697,
      "イ": 698,
      "ゥ": 699,
      "ウ": 700,
      "ェ": 701,
      "オ": 702,
      "カ": 703,
      "キ": 704,
      "ク": 705,
      "ケ": 706,
      "ジ": 707,
      "ス": 708,
      "ソ": 709,
      "タ": 710,
      "ッ": 711,
      "ツ": 712,
      "ト": 713,
      "ド": 714,
      "ブ": 715,
      "メ": 716,
      "モ": 717,
      "ャ": 718,
      "ュ": 719,
      "ラ": 720,
      "リ": 721,
      "ル": 722,
      "ン": 723,
      "・": 724,
      "ー": 725,
      "䥨": 726,
      "䨰": 727,
      "䫆": 728,
      "䭜": 729,
      "一": 730,
      "上": 731,
      "不": 732,
      "与": 733,
      "业": 734,
      "个": 735,
      "中": 736,
      "为": 737,
      "主": 738,
      "么": 739,
      "之": 740,
      "了": 741,
      "争": 742,
      "事": 743,
      "于": 744,
      "亚": 745,
      "些": 746,
      "产": 747,
      "人": 748,
      "以": 749,
      "价": 750,
      "份": 751,
      "会": 752,
      "伯": 753,
      "体": 754,
      "作": 755,
      "例": 756,
      "供": 757,
      "信": 758,
      "做": 759,
      "入": 760,
      "全": 761,
      "公": 762,
      "关": 763,
      "内": 764,
      "出": 765,
      "分": 766,
      "别": 767,
      "到": 768,
      "制": 769,
      "前": 770,
      "力": 771,
      "加": 772,
      "动": 773,
      "化": 774,
      "区": 775,
      "半": 776,
      "原": 777,
      "及": 778,
      "发": 779,
      "取": 780,
      "句": 781,
      "可": 782,
      "合": 783,
      "同": 784,
      "和": 785,
      "品": 786,
      "器": 787,
      "国": 788,
      "图": 789,
      "在": 790,
      "地": 791,
      "型": 792,
      "城": 793,
      "基": 794,
      "备": 795,
      "多": 796,
      "大": 797,
      "天": 798,
      "字": 799,
      "安": 800,
      "定": 801,
      "家": 802,
      "容": 803,
      "对": 804,
      "小": 805,
      "展": 806,
      "岩": 807,
      "工": 808,
      "巴": 809,
      "市": 810,
      "年": 811,
      "度": 812,
      "开": 813,
      "式": 814,
      "当": 815,
      "思": 816,
      "性": 817,
      "息": 818,
      "意": 819,
      "成": 820,
      "我": 821,
      "戦": 822,
      "所": 823,
      "拉": 824,
      "提": 825,
      "搜": 826,
      "放": 827,
      "数": 828,
      "文": 829,
      "料": 830,
      "方": 831,
      "日": 832,
      "时": 833,
      "是": 834,
      "更": 835,
      "月": 836,
      "有": 837,
      "本": 838,
      "机": 839,
      "来": 840,
      "查": 841,
      "格": 842,
      "欧": 843,
      "步": 844,
      "民": 845,
      "水": 846,
      "法": 847,
      "洲": 848,
      "海": 849,
      "版": 850,
      "特": 851,
      "理": 852,
      "生": 853,
      "用": 854,
      "畏": 855,
      "的": 856,
      "知": 857,
      "石": 858,
      "破": 859,
      "碎": 860,
      "磨": 861,
      "站": 862,
      "粉": 863,
      "系": 864,
      "索": 865,
      "级": 866,
      "组": 867,
      "经": 868,
      "统": 869,
      "网": 870,
      "翻": 871,
      "者": 872,
      "联": 873,
      "能": 874,
      "自": 875,
      "行": 876,
      "西": 877,
      "要": 878,
      "解": 879,
      "计": 880,
      "议": 881,
      "设": 882,
      "词": 883,
      "译": 884,
      "语": 885,
      "资": 886,
      "这": 887,
      "进": 888,
      "造": 889,
      "部": 890,
      "采": 891,
      "量": 892,
      "金": 893,
      "钟": 894,
      "长": 895,
      "问": 896,
      "间": 897,
      "阿": 898,
      "需": 899,
      "面": 900,
      "韓": 901,
      "页": 902,
      "题": 903,
      "館": 904,
      "高": 905,
      "魔": 906,
      "국": 907,
      "기": 908,
      "는": 909,
      "대": 910,
      "리": 911,
      "마": 912,
      "번": 913,
      "보": 914,
      "사": 915,
      "색": 916,
      "어": 917,
      "역": 918,
      "의": 919,
      "이": 920,
      "자": 921,
      "장": 922,
      "지": 923,
      "출": 924,
      "토": 925,
      "팠": 926,
      "푌": 927,
      "하": 928,
      "한": 929,
      "﴾": 930,
      "﴿": 931,
      "︎": 932,
      "️": 933,
      "￼": 934,
      "�": 935,
      "🇦": 936,
      "🇧": 937,
      "🇪": 938,
      "🇲": 939,
      "🇵": 940,
      "🇷": 941,
      "🇸": 942,
      "🇹": 943,
      "🌟": 944,
      "🌷": 945,
      "🌸": 946,
      "🌹": 947,
      "🍃": 948,
      "🎶": 949,
      "🏆": 950,
      "🏻": 951,
      "🏼": 952,
      "👇": 953,
      "👈": 954,
      "👉": 955,
      "👌": 956,
      "👍": 957,
      "👏": 958,
      "👨": 959,
      "💔": 960,
      "💕": 961,
      "💗": 962,
      "💙": 963,
      "💚": 964,
      "💛": 965,
      "💜": 966,
      "💡": 967,
      "💥": 968,
      "💪": 969,
      "💫": 970,
      "💰": 971,
      "📌": 972,
      "📍": 973,
      "🔥": 974,
      "🔴": 975,
      "🔵": 976,
      "🔷": 977,
      "🔸": 978,
      "🔹": 979,
      "🔺": 980,
      "😀": 981,
      "😁": 982,
      "😂": 983,
      "😃": 984,
      "😅": 985,
      "😉": 986,
      "😊": 987,
      "😍": 988,
      "😘": 989,
      "😝": 990,
      "😭": 991,
      "🙁": 992,
      "🙂": 993,
      "🙏": 994,
      "🚨": 995,
      "🤍": 996,
      "🤔": 997,
      "🤣": 998,
      "🤩": 999,
      "🥰": 1000,
      "ال": 1001,
      "▁ال": 1002,
      "▁م": 1003,
      "▁و": 1004,
      "▁ب": 1005,
      "▁ف": 1006,
      "▁ل": 1007,
      "▁أ": 1008,
      "ات": 1009,
      "▁الم": 1010,
      "ية": 1011,
      "▁ت": 1012,
      "▁ع": 1013,
      "ار": 1014,
      "▁في": 1015,
      "ان": 1016,
      "▁من": 1017,
      "▁ي": 1018,
      "ين": 1019,
      "لى": 1020,
      "ام": 1021,
      "▁ك": 1022,
      "▁إ": 1023,
      "ها": 1024,
      "ير": 1025,
      "▁الت": 1026,
      ".\n": 1027,
      "▁وال": 1028,
      "ول": 1029,
      "▁الأ": 1030,
      "ست": 1031,
      "ون": 1032,
      "▁ح": 1033,
      "را": 1034,
      "نا": 1035,
      "ري": 1036,
      "▁على": 1037,
      "▁س": 1038,
      "▁ه": 1039,
      "لا": 1040,
      "▁الع": 1041,
      "ما": 1042,
      "لي": 1043,
      "▁ق": 1044,
      "دي": 1045,
      "▁لل": 1046,
      "▁ا": 1047,
      "وا": 1048,
      "▁الح": 1049,
      "ور": 1050,
      "▁ن": 1051,
      "▁أن": 1052,
      "▁ج": 1053,
      "دة": 1054,
      "يا": 1055,
      "▁الس": 1056,
      "بي": 1057,
      "▁،": 1058,
      "اب": 1059,
      "عد": 1060,
      "▁خ": 1061,
      "▁ش": 1062,
      "وم": 1063,
      "لة": 1064,
      "لك": 1065,
      "▁الج": 1066,
      "ائ": 1067,
      "ارة": 1068,
      "▁بال": 1069,
      "▁د": 1070,
      "هم": 1071,
      "▁إلى": 1072,
      "▁الف": 1073,
      "اء": 1074,
      "▁ر": 1075,
      "رة": 1076,
      "عة": 1077,
      "▁مع": 1078,
      "▁عن": 1079,
      "اد": 1080,
      "▁الق": 1081,
      "رك": 1082,
      "ذا": 1083,
      "▁الش": 1084,
      "▁الب": 1085,
      "مي": 1086,
      "مل": 1087,
      "▁الك": 1088,
      "▁ص": 1089,
      "▁الإ": 1090,
      "▁ط": 1091,
      "من": 1092,
      "اف": 1093,
      "وق": 1094,
      "▁الص": 1095,
      "▁الد": 1096,
      "▁الن": 1097,
      "ًا": 1098,
      "رب": 1099,
      "قة": 1100,
      "كن": 1101,
      "▁الا": 1102,
      "▁الخ": 1103,
      "مة": 1104,
      "رو": 1105,
      "يل": 1106,
      "يد": 1107,
      "..": 1108,
      "تم": 1109,
      "▁الر": 1110,
      "▁مح": 1111,
      "اح": 1112,
      "سي": 1113,
      "▁2": 1114,
      "سب": 1115,
      "ود": 1116,
      "في": 1117,
      "عل": 1118,
      "قد": 1119,
      "ذه": 1120,
      "▁أو": 1121,
      "▁1": 1122,
      "▁التي": 1123,
      "▁ما": 1124,
      "نت": 1125,
      "▁وت": 1126,
      "كل": 1127,
      "اع": 1128,
      "بر": 1129,
      "وي": 1130,
      "جر": 1131,
      "سارة": 1132,
      "قي": 1133,
      "عر": 1134,
      "▁الط": 1135,
      "ني": 1136,
      "▁غ": 1137,
      "وب": 1138,
      "▁(": 1139,
      "ذلك": 1140,
      "▁لا": 1141,
      "حن": 1142,
      "▁الل": 1143,
      "حت": 1144,
      "▁الذ": 1145,
      "خد": 1146,
      "يف": 1147,
      "اص": 1148,
      "▁آ": 1149,
      "وج": 1150,
      "تي": 1151,
      "▁ان": 1152,
      "مكن": 1153,
      "سم": 1154,
      "لم": 1155,
      "▁كسارة": 1156,
      "▁مص": 1157,
      "▁لم": 1158,
      "اج": 1159,
      "تح": 1160,
      "اً": 1161,
      "مر": 1162,
      "▁است": 1163,
      "ارات": 1164,
      "بل": 1165,
      "كون": 1166,
      "يس": 1167,
      "00": 1168,
      "وف": 1169,
      "▁وم": 1170,
      "▁هذا": 1171,
      "خر": 1172,
      "لال": 1173,
      "صل": 1174,
      "▁أي": 1175,
      "ديد": 1176,
      "جم": 1177,
      "▁وأ": 1178,
      "فة": 1179,
      "يرة": 1180,
      "سا": 1181,
      "حد": 1182,
      "▁مت": 1183,
      "ية،": 1184,
      "▁الو": 1185,
      "▁\"": 1186,
      "▁كان": 1187,
      "يت": 1188,
      "كر": 1189,
      "حة": 1190,
      "عم": 1191,
      "بة": 1192,
      "وع": 1193,
      "قت": 1194,
      "▁هذه": 1195,
      "▁علي": 1196,
      "الم": 1197,
      "راء": 1198,
      "طة": 1199,
      "▁كل": 1200,
      "خت": 1201,
      "عت": 1202,
      ".\nو": 1203,
      "بد": 1204,
      "هر": 1205,
      "شر": 1206,
      "قل": 1207,
      "سل": 1208,
      "▁والم": 1209,
      "هد": 1210,
      "▁تح": 1211,
      "▁الث": 1212,
      "ند": 1213,
      "اني": 1214,
      "الي": 1215,
      "▁ث": 1216,
      "جل": 1217,
      "بيع": 1218,
      "ثر": 1219,
      "▁ز": 1220,
      "أن": 1221,
      "▁هو": 1222,
      "▁20": 1223,
      "سة": 1224,
      "فا": 1225,
      "نع": 1226,
      "▁يمكن": 1227,
      "▁الذي": 1228,
      "هي": 1229,
      "▁المت": 1230,
      "خص": 1231,
      "كت": 1232,
      "▁تع": 1233,
      "▁بين": 1234,
      "▁المح": 1235,
      "لب": 1236,
      "▁..": 1237,
      "▁ذلك": 1238,
      "▁مط": 1239,
      "وس": 1240,
      "\n-": 1241,
      "ركة": 1242,
      "▁ض": 1243,
      "ستخد": 1244,
      "با": 1245,
      "▁وي": 1246,
      "عا": 1247,
      "ولة": 1248,
      ".\n-": 1249,
      "وت": 1250,
      "خل": 1251,
      "يات": 1252,
      "در": 1253,
      "▁إن": 1254,
      "▁بعد": 1255,
      "فض": 1256,
      "▁لت": 1257,
      "▁الي": 1258,
      "فس": 1259,
      "دا": 1260,
      "▁خلال": 1261,
      "رض": 1262,
      "▁-": 1263,
      "▁تم": 1264,
      "الة": 1265,
      "اري": 1266,
      "▁أك": 1267,
      "▁“": 1268,
      "يم": 1269,
      "كان": 1270,
      "لف": 1271,
      "ته": 1272,
      "▁اله": 1273,
      "كم": 1274,
      "قا": 1275,
      "كس": 1276,
      "الية": 1277,
      "عض": 1278,
      "عب": 1279,
      "▁بش": 1280,
      "إن": 1281,
      "دم": 1282,
      "نة": 1283,
      "ريق": 1284,
      "رق": 1285,
      "▁.": 1286,
      "وات": 1287,
      "▁تق": 1288,
      "▁هي": 1289,
      "اض": 1290,
      "▁يت": 1291,
      "▁الغ": 1292,
      "▁بن": 1293,
      "▁الحجر": 1294,
      "▁مش": 1295,
      "يث": 1296,
      "▁المن": 1297,
      "َّ": 1298,
      "جة": 1299,
      "زي": 1300,
      "in": 1301,
      "صر": 1302,
      "▁والت": 1303,
      "عي": 1304,
      "طم": 1305,
      "حنة": 1306,
      "افة": 1307,
      "▁الله": 1308,
      "ثل": 1309,
      "▁بم": 1310,
      "ورة": 1311,
      "امة": 1312,
      "وض": 1313,
      "بار": 1314,
      "جه": 1315,
      "▁الأم": 1316,
      "▁وه": 1317,
      "حق": 1318,
      "▁أم": 1319,
      "حم": 1320,
      "▁3": 1321,
      "ثير": 1322,
      "▁وب": 1323,
      "▁مس": 1324,
      "وية": 1325,
      "▁سي": 1326,
      "▁للم": 1327,
      "قط": 1328,
      "▁الز": 1329,
      "ميع": 1330,
      "ئيس": 1331,
      "قر": 1332,
      "وى": 1333,
      "▁قد": 1334,
      "دين": 1335,
      "امل": 1336,
      "تها": 1337,
      "▁محطم": 1338,
      "عدات": 1339,
      "▁تت": 1340,
      "▁ذ": 1341,
      "ناء": 1342,
      "رائ": 1343,
      "▁المش": 1344,
      "طر": 1345,
      "وز": 1346,
      "نية": 1347,
      "▁وا": 1348,
      "▁الأس": 1349,
      "▁مطحنة": 1350,
      "▁تص": 1351,
      "▁الآ": 1352,
      "وان": 1353,
      "حي": 1354,
      "زة": 1355,
      "▁مست": 1356,
      "جب": 1357,
      "▁حيث": 1358,
      "▁تن": 1359,
      "▁تج": 1360,
      "▁بي": 1361,
      "▁آلة": 1362,
      "اه": 1363,
      "▁عند": 1364,
      "ئة": 1365,
      "▁بت": 1366,
      "er": 1367,
      "انية": 1368,
      "فع": 1369,
      "\nال": 1370,
      "وري": 1371,
      "دد": 1372,
      "▁عام": 1373,
      "▁يتم": 1374,
      "فر": 1375,
      "ذهب": 1376,
      "صول": 1377,
      "▁المص": 1378,
      "▁المست": 1379,
      "لات": 1380,
      "كي": 1381,
      "تر": 1382,
      "▁:": 1383,
      "وة": 1384,
      "▁با": 1385,
      "سية": 1386,
      "▁عمل": 1387,
      "▁تش": 1388,
      "▁للبيع": 1389,
      "▁وس": 1390,
      "▁غير": 1391,
      "▁كما": 1392,
      "فضل": 1393,
      "ه،": 1394,
      "تى": 1395,
      "▁الان": 1396,
      "وقع": 1397,
      "فق": 1398,
      "▁بد": 1399,
      "طي": 1400,
      "on": 1401,
      "فت": 1402,
      "▁قبل": 1403,
      "▁أس": 1404,
      "▁الاست": 1405,
      "▁بشكل": 1406,
      "an": 1407,
      "▁اليوم": 1408,
      "وك": 1409,
      "بح": 1410,
      "▁المع": 1411,
      "▁العمل": 1412,
      "▁أيض": 1413,
      "از": 1414,
      "▁المس": 1415,
      "▁له": 1416,
      "▁يع": 1417,
      "بات": 1418,
      "▁هنا": 1419,
      "▁كب": 1420,
      "ارت": 1421,
      "ــ": 1422,
      "▁أكثر": 1423,
      "لق": 1424,
      "ستخدم": 1425,
      "▁بر": 1426,
      "وعة": 1427,
      "أس": 1428,
      "سبة": 1429,
      "قال": 1430,
      "▁النا": 1431,
      "▁إذا": 1432,
      "رت": 1433,
      "▁حتى": 1434,
      "عدين": 1435,
      "▁بعض": 1436,
      "صف": 1437,
      "قدم": 1438,
      "ليم": 1439,
      ".\nال": 1440,
      "▁الض": 1441,
      "عية": 1442,
      "ربية": 1443,
      "خرى": 1444,
      "▁لي": 1445,
      "▁ولا": 1446,
      "▁بح": 1447,
      "▁وج": 1448,
      "▁5": 1449,
      "رات": 1450,
      "ودة": 1451,
      "صة": 1452,
      "▁مصنع": 1453,
      "▁أنه": 1454,
      "▁4": 1455,
      "رد": 1456,
      "▁ست": 1457,
      "▁للت": 1458,
      "لس": 1459,
      "▁طحن": 1460,
      "اصة": 1461,
      "ظام": 1462,
      "▁مثل": 1463,
      "قات": 1464,
      "جات": 1465,
      "▁وع": 1466,
      "غير": 1467,
      "▁تأ": 1468,
      "▁بل": 1469,
      "رح": 1470,
      "▁نا": 1471,
      "▁العالم": 1472,
      "▁مد": 1473,
      "كة": 1474,
      "▁وإ": 1475,
      "يج": 1476,
      "▁...": 1477,
      "▁والأ": 1478,
      "كا": 1479,
      "▁مج": 1480,
      "20": 1481,
      "عار": 1482,
      "▁يكون": 1483,
      "▁201": 1484,
      "مت": 1485,
      "▁الفك": 1486,
      "▁الموا": 1487,
      "▁واح": 1488,
      "re": 1489,
      "▁وز": 1490,
      "رف": 1491,
      "بت": 1492,
      "▁وح": 1493,
      "▁وك": 1494,
      "بط": 1495,
      "لام": 1496,
      "ولي": 1497,
      "ية.": 1498,
      "اط": 1499,
      "▁.\n": 1500,
      "▁عم": 1501,
      "▁الذهب": 1502,
      "بن": 1503,
      "▁به": 1504,
      "▁ول": 1505,
      "لكن": 1506,
      "ابة": 1507,
      "▁جميع": 1508,
      "ديدة": 1509,
      "زل": 1510,
      "ضع": 1511,
      "▁ومن": 1512,
      "ديم": 1513,
      "ركات": 1514,
      "ومة": 1515,
      "مد": 1516,
      "الت": 1517,
      "▁خط": 1518,
      "ين،": 1519,
      "تما": 1520,
      "ها،": 1521,
      "ولا": 1522,
      "نس": 1523,
      "▁مخ": 1524,
      "▁يوم": 1525,
      "▁استخد": 1526,
      "▁عليه": 1527,
      "طن": 1528,
      "▁ات": 1529,
      "▁تط": 1530,
      "▁فإن": 1531,
      "▁فى": 1532,
      "اس": 1533,
      "قيق": 1534,
      "▁الات": 1535,
      "ليل": 1536,
      "رج": 1537,
      "مال": 1538,
      "▁لأ": 1539,
      "طف": 1540,
      "بع": 1541,
      "عود": 1542,
      "يب": 1543,
      "▁البي": 1544,
      "ظر": 1545,
      "انة": 1546,
      "▁ون": 1547,
      "شة": 1548,
      "▁التج": 1549,
      "▁تحت": 1550,
      "▁ولكن": 1551,
      "ثة": 1552,
      "▁بأ": 1553,
      "▁مصر": 1554,
      "▁خام": 1555,
      "▁يق": 1556,
      "هل": 1557,
      "▁كانت": 1558,
      "▁التح": 1559,
      "▁المد": 1560,
      "عات": 1561,
      "at": 1562,
      "وار": 1563,
      "راض": 1564,
      "كية": 1565,
      "▁t": 1566,
      "en": 1567,
      "▁ثم": 1568,
      "صد": 1569,
      "▁نفس": 1570,
      "▁تد": 1571,
      "مو": 1572,
      "ar": 1573,
      "▁موا": 1574,
      "ارية": 1575,
      "رس": 1576,
      "▁المنا": 1577,
      "لاء": 1578,
      "▁يجب": 1579,
      "راق": 1580,
      "▁مؤ": 1581,
      "▁المتح": 1582,
      "بية": 1583,
      "وني": 1584,
      "▁استخدام": 1585,
      "شار": 1586,
      "وال": 1587,
      "▁هناك": 1588,
      "▁تس": 1589,
      "▁المج": 1590,
      "▁وق": 1591,
      "▁العام": 1592,
      "▁–": 1593,
      "▁C": 1594,
      "منت": 1595,
      "ومات": 1596,
      "▁التع": 1597,
      "▁معدات": 1598,
      "ريد": 1599,
      "▁S": 1600,
      "سبب": 1601,
      "▁وهو": 1602,
      "▁لأن": 1603,
      "اعة": 1604,
      "ضافة": 1605,
      "راج": 1606,
      "▁الى": 1607,
      "فل": 1608,
      "روط": 1609,
      "ئي": 1610,
      "طقة": 1611,
      "▁202": 1612,
      "امج": 1613,
      "▁M": 1614,
      "▁الوق": 1615,
      "▁شي": 1616,
      "الات": 1617,
      "\nت": 1618,
      "به": 1619,
      "يادة": 1620,
      "▁A": 1621,
      "جموعة": 1622,
      "▁لكن": 1623,
      "وص": 1624,
      "ونة": 1625,
      "لاح": 1626,
      "ميل": 1627,
      "▁الكرة": 1628,
      "واء": 1629,
      "روع": 1630,
      "نتاج": 1631,
      "رن": 1632,
      "عمال": 1633,
      "وح": 1634,
      "▁البح": 1635,
      "▁سعر": 1636,
      "▁لك": 1637,
      "طا": 1638,
      "عرف": 1639,
      "▁المنت": 1640,
      "▁سحق": 1641,
      "جد": 1642,
      "▁حول": 1643,
      "▁التن": 1644,
      "▁6": 1645,
      "▁المط": 1646,
      "▁ظ": 1647,
      "al": 1648,
      "زيد": 1649,
      "▁شركة": 1650,
      "جلس": 1651,
      "ائل": 1652,
      "جتما": 1653,
      "▁رئيس": 1654,
      "▁عبد": 1655,
      "عمل": 1656,
      "▁«": 1657,
      "مار": 1658,
      ".\nوأ": 1659,
      "▁بالم": 1660,
      "اخل": 1661,
      "ارج": 1662,
      "▁الصين": 1663,
      "▁أحد": 1664,
      ":\n": 1665,
      "ركز": 1666,
      "▁قال": 1667,
      "▁سن": 1668,
      "وير": 1669,
      "▁عبر": 1670,
      "▁السي": 1671,
      "سات": 1672,
      "▁تكون": 1673,
      "غيرة": 1674,
      "▁المؤ": 1675,
      "سارات": 1676,
      "▁فقط": 1677,
      "▁مخت": 1678,
      "▁قط": 1679,
      "اة": 1680,
      "انات": 1681,
      "قع": 1682,
      "اريخ": 1683,
      "▁العم": 1684,
      "دينة": 1685,
      "▁بها": 1686,
      "قم": 1687,
      "▁عدد": 1688,
      "▁أب": 1689,
      "ساب": 1690,
      "▁c": 1691,
      "▁P": 1692,
      "انون": 1693,
      "شف": 1694,
      "▁مق": 1695,
      "or": 1696,
      "\nم": 1697,
      "▁تر": 1698,
      "هور": 1699,
      "▁الهند": 1700,
      "▁أد": 1701,
      "▁بأن": 1702,
      "▁لإ": 1703,
      "▁الدول": 1704,
      "it": 1705,
      "وائ": 1706,
      "▁السيا": 1707,
      "ستخدام": 1708,
      "ينة": 1709,
      "▁يح": 1710,
      "وث": 1711,
      "▁بك": 1712,
      "▁عملية": 1713,
      "▁ين": 1714,
      "▁وفي": 1715,
      "ريقة": 1716,
      "▁المتحدة": 1717,
      "فاع": 1718,
      "▁انت": 1719,
      "▁لن": 1720,
      "لت": 1721,
      "▁العربية": 1722,
      "▁جن": 1723,
      "لاق": 1724,
      "قتص": 1725,
      "يني": 1726,
      "كد": 1727,
      "▁للأ": 1728,
      "▁أص": 1729,
      "▁أفضل": 1730,
      "▁أع": 1731,
      "رياض": 1732,
      "▁19": 1733,
      "▁كت": 1734,
      "▁أيضًا": 1735,
      "▁بالت": 1736,
      "▁ام": 1737,
      "▁محمد": 1738,
      "▁بس": 1739,
      "علم": 1740,
      "ظم": 1741,
      "ميم": 1742,
      "سلام": 1743,
      "جراء": 1744,
      "شي": 1745,
      "▁p": 1746,
      "▁الأول": 1747,
      "▁حد": 1748,
      "▁أخرى": 1749,
      "▁أف": 1750,
      "▁دول": 1751,
      "▁مما": 1752,
      "قب": 1753,
      "شرة": 1754,
      "▁السعود": 1755,
      "جز": 1756,
      "ضاف": 1757,
      "ou": 1758,
      "▁الذين": 1759,
      "▁التعدين": 1760,
      "▁بإ": 1761,
      "عادة": 1762,
      "▁فيها": 1763,
      "عرض": 1764,
      "▁ذات": 1765,
      "▁الأخ": 1766,
      "غي": 1767,
      "ظيف": 1768,
      "▁الرئيس": 1769,
      "ملك": 1770,
      "▁والتي": 1771,
      "لع": 1772,
      "▁...\n": 1773,
      "ادة": 1774,
      "مان": 1775,
      "لفة": 1776,
      "ظة": 1777,
      "▁ملي": 1778,
      "▁للح": 1779,
      "بيق": 1780,
      "es": 1781,
      "ريب": 1782,
      "▁المر": 1783,
      "الب": 1784,
      "▁منت": 1785,
      "غط": 1786,
      "▁لها": 1787,
      "▁حجر": 1788,
      "▁الوقت": 1789,
      "يري": 1790,
      "وط": 1791,
      "▁دون": 1792,
      "له": 1793,
      "ياة": 1794,
      "▁كيف": 1795,
      "▁الوا": 1796,
      "دارة": 1797,
      "الح": 1798,
      "▁تف": 1799,
      "ذي": 1800,
      "جن": 1801,
      "▁إلي": 1802,
      "ّة": 1803,
      "مس": 1804,
      "▁يمكنك": 1805,
      "ائر": 1806,
      "حية": 1807,
      "▁يد": 1808,
      "ميز": 1809,
      "ظهر": 1810,
      "أة": 1811,
      "▁العديد": 1812,
      "وه": 1813,
      "يز": 1814,
      "هاز": 1815,
      "ضر": 1816,
      "▁كبير": 1817,
      "ماء": 1818,
      "▁الجم": 1819,
      "▁وهي": 1820,
      "▁فيه": 1821,
      "▁دي": 1822,
      "▁أش": 1823,
      "ائية": 1824,
      "▁شخص": 1825,
      "ic": 1826,
      "▁7": 1827,
      "سن": 1828,
      "لاً": 1829,
      "فات": 1830,
      "▁الأو": 1831,
      "▁8": 1832,
      "▁G": 1833,
      "حو": 1834,
      "بق": 1835,
      "ربي": 1836,
      "▁الجز": 1837,
      "▁الحديد": 1838,
      "\n\n": 1839,
      "ac": 1840,
      "لاج": 1841,
      "▁قر": 1842,
      "▁المغ": 1843,
      "عتبر": 1844,
      "ديث": 1845,
      "▁لدي": 1846,
      "انب": 1847,
      "قبل": 1848,
      "ing": 1849,
      "كثر": 1850,
      "▁/": 1851,
      "▁والح": 1852,
      "واع": 1853,
      "خط": 1854,
      "مية": 1855,
      "هما": 1856,
      "▁لح": 1857,
      "ملكة": 1858,
      "قيقة": 1859,
      "يار": 1860,
      ".\nت": 1861,
      "كو": 1862,
      "ساعد": 1863,
      "▁طن": 1864,
      "وفر": 1865,
      "▁إلا": 1866,
      "▁الحك": 1867,
      "▁بط": 1868,
      "▁10": 1869,
      "▁وقد": 1870,
      "يش": 1871,
      "▁أول": 1872,
      "▁مجموعة": 1873,
      "دى": 1874,
      "▁موقع": 1875,
      "سين": 1876,
      "▁فر": 1877,
      "▁يش": 1878,
      "َل": 1879,
      "▁والع": 1880,
      "▁الوز": 1881,
      "ادر": 1882,
      "▁المحم": 1883,
      "راف": 1884,
      "▁حق": 1885,
      "لاب": 1886,
      "غة": 1887,
      "▁بالإ": 1888,
      "▁جد": 1889,
      "▁للا": 1890,
      "▁السعودية": 1891,
      "ائي": 1892,
      "حا": 1893,
      "ودي": 1894,
      "▁كبيرة": 1895,
      "ويل": 1896,
      "▁يُ": 1897,
      "بدأ": 1898,
      "▁الوط": 1899,
      "ينا": 1900,
      "▁در": 1901,
      "▁ور": 1902,
      "؟\n": 1903,
      "▁ترك": 1904,
      "ياً": 1905,
      "▁آخر": 1906,
      "▁يست": 1907,
      "خذ": 1908,
      "زام": 1909,
      "▁الخاصة": 1910,
      "▁منذ": 1911,
      "▁وقت": 1912,
      "▁القر": 1913,
      "▁m": 1914,
      "▁فت": 1915,
      "▁بع": 1916,
      "طفال": 1917,
      "نق": 1918,
      "غم": 1919,
      "▁s": 1920,
      "▁الاجتما": 1921,
      "▁الحر": 1922,
      "است": 1923,
      "واصل": 1924,
      "سرائ": 1925,
      "ريم": 1926,
      "ليات": 1927,
      "ناعة": 1928,
      "et": 1929,
      "لسط": 1930,
      "▁عليها": 1931,
      "50": 1932,
      "▁وذلك": 1933,
      "ذكر": 1934,
      "▁ليس": 1935,
      "▁عندما": 1936,
      "حدث": 1937,
      "ياء": 1938,
      "▁نوع": 1939,
      "▁وف": 1940,
      "▁كسارات": 1941,
      "▁الفحم": 1942,
      "▁الرا": 1943,
      "▁T": 1944,
      "يك": 1945,
      "▁السعر": 1946,
      "▁والإ": 1947,
      "داول": 1948,
      "خور": 1949,
      "علام": 1950,
      "▁بما": 1951,
      "om": 1952,
      "▁عالية": 1953,
      "كسارة": 1954,
      "هدف": 1955,
      "لاث": 1956,
      "▁,": 1957,
      "▁مخروط": 1958,
      "قص": 1959,
      "el": 1960,
      "ضي": 1961,
      "خب": 1962,
      "▁تلك": 1963,
      "لية": 1964,
      "طلب": 1965,
      "باد": 1966,
      "▁وش": 1967,
      "▁الماض": 1968,
      "▁وَ": 1969,
      "▁رس": 1970,
      "▁طريق": 1971,
      "دمات": 1972,
      ".\nي": 1973,
      "\nأ": 1974,
      "ائمة": 1975,
      "زم": 1976,
      "لاد": 1977,
      "▁200": 1978,
      "▁كنت": 1979,
      "اعدة": 1980,
      "▁الأش": 1981,
      "صال": 1982,
      "اث": 1983,
      "وجد": 1984,
      "كسير": 1985,
      "ات،": 1986,
      "▁التق": 1987,
      "▁منها": 1988,
      "شت": 1989,
      "▁وأن": 1990,
      "انيا": 1991,
      "يام": 1992,
      "ان،": 1993,
      "ِّ": 1994,
      "▁ارت": 1995,
      "▁الشخص": 1996,
      "مين": 1997,
      "▁مر": 1998,
      "▁الكثير": 1999,
      "هة": 2000,
      "احة": 2001,
      "▁الشركة": 2002,
      "▁داخل": 2003,
      "▁المه": 2004,
      "جي": 2005,
      "▁السل": 2006,
      "قول": 2007,
      "وبة": 2008,
      "وقف": 2009,
      "▁لج": 2010,
      "ضاء": 2011,
      "قتصاد": 2012,
      "َا": 2013,
      "راد": 2014,
      "حاد": 2015,
      "▁الآن": 2016,
      "▁عل": 2017,
      "عداد": 2018,
      "نى": 2019,
      "▁الاحت": 2020,
      "▁لع": 2021,
      "انت": 2022,
      "لاف": 2023,
      "حمد": 2024,
      "▁المملكة": 2025,
      "▁اللا": 2026,
      "▁ود": 2027,
      "ئية": 2028,
      "▁الانت": 2029,
      "▁الشي": 2030,
      "▁0": 2031,
      ".\nوق": 2032,
      "اذ": 2033,
      "▁أجل": 2034,
      "كلفة": 2035,
      "▁أث": 2036,
      "▁واحد": 2037,
      "َن": 2038,
      "ِي": 2039,
      "▁التط": 2040,
      "▁بسبب": 2041,
      "ظمة": 2042,
      "▁بيع": 2043,
      "دمة": 2044,
      "▁احت": 2045,
      "باب": 2046,
      "ed": 2047,
      "ربة": 2048,
      "خي": 2049,
      "▁فقد": 2050,
      "▁الرو": 2051,
      ")،": 2052,
      "▁الخط": 2053,
      "▁نت": 2054,
      "▁اخت": 2055,
      "ابع": 2056,
      "▁شيء": 2057,
      "▁مك": 2058,
      "is": 2059,
      "ابت": 2060,
      "▁9": 2061,
      "رير": 2062,
      "▁تستخدم": 2063,
      "راك": 2064,
      "▁أهم": 2065,
      "نيع": 2066,
      "هرب": 2067,
      "▁الأن": 2068,
      "▁حالة": 2069,
      "اقة": 2070,
      "▁نظام": 2071,
      "ظيم": 2072,
      "ختي": 2073,
      "زمة": 2074,
      "ابق": 2075,
      ".\nأ": 2076,
      "▁العامة": 2077,
      "▁بالن": 2078,
      "ه.": 2079,
      "▁يج": 2080,
      "▁100": 2081,
      "يران": 2082,
      "▁الإم": 2083,
      "فاق": 2084,
      "اي": 2085,
      "ورد": 2086,
      "زيز": 2087,
      "طار": 2088,
      "ضة": 2089,
      "us": 2090,
      "بلغ": 2091,
      "▁أنها": 2092,
      "▁وما": 2093,
      "غيل": 2094,
      "سك": 2095,
      "...": 2096,
      "▁أح": 2097,
      "شاء": 2098,
      "ارس": 2099,
      "قاء": 2100,
      "ولوج": 2101,
      "ro": 2102,
      "كرة": 2103,
      "▁جديدة": 2104,
      "قاط": 2105,
      "▁الأمري": 2106,
      "▁b": 2107,
      "احونة": 2108,
      "il": 2109,
      "مع": 2110,
      "ريف": 2111,
      "▁الجن": 2112,
      "ياه": 2113,
      "بير": 2114,
      "▁واحدة": 2115,
      "ورية": 2116,
      "وء": 2117,
      "▁التص": 2118,
      "▁والد": 2119,
      "لد": 2120,
      "▁الولا": 2121,
      "▁الأد": 2122,
      "جيل": 2123,
      "▁اعت": 2124,
      "ريقيا": 2125,
      "شا": 2126,
      "▁الخاص": 2127,
      "▁تست": 2128,
      "\nي": 2129,
      "روف": 2130,
      "اخ": 2131,
      "▁وص": 2132,
      "تمع": 2133,
      "▁الرياض": 2134,
      "▁وضع": 2135,
      "▁خاصة": 2136,
      "▁الأح": 2137,
      "▁الناس": 2138,
      "▁جنوب": 2139,
      "ad": 2140,
      "سع": 2141,
      "فاء": 2142,
      "▁المخت": 2143,
      "رعة": 2144,
      "بيل": 2145,
      "ربع": 2146,
      "▁الصخور": 2147,
      "▁العل": 2148,
      "▁عدم": 2149,
      "كتب": 2150,
      "ي،": 2151,
      "رفة": 2152,
      "فيذ": 2153,
      "▁الأمر": 2154,
      "▁الإنس": 2155,
      "▁مو": 2156,
      "▁لو": 2157,
      "ابل": 2158,
      "علومات": 2159,
      "▁الأولى": 2160,
      "امعة": 2161,
      "▁مل": 2162,
      "as": 2163,
      "ا،": 2164,
      "انع": 2165,
      "▁d": 2166,
      "ِن": 2167,
      "كين": 2168,
      "▁يؤ": 2169,
      "خاص": 2170,
      "جهزة": 2171,
      "الجة": 2172,
      "▁المو": 2173,
      "▁وجود": 2174,
      "▁حل": 2175,
      "▁تخ": 2176,
      "▁B": 2177,
      "10": 2178,
      "بيب": 2179,
      "ختيار": 2180,
      "▁والس": 2181,
      "▁الكت": 2182,
      "احن": 2183,
      "▁المخ": 2184,
      "نان": 2185,
      "ادي": 2186,
      "طات": 2187,
      "▁إنتاج": 2188,
      "بحث": 2189,
      "ضم": 2190,
      "▁لذلك": 2191,
      "▁بق": 2192,
      "▁سب": 2193,
      "غا": 2194,
      "▁دائ": 2195,
      "▁صغيرة": 2196,
      "▁الحصول": 2197,
      "ناول": 2198,
      "زا": 2199,
      "▁القط": 2200,
      "▁\"ال": 2201,
      "▁التد": 2202,
      "▁يحت": 2203,
      "ثال": 2204,
      "ؤول": 2205,
      "▁مجلس": 2206,
      "▁را": 2207,
      "he": 2208,
      "▁فه": 2209,
      "هُ": 2210,
      "ائق": 2211,
      "على": 2212,
      "▁جز": 2213,
      "ديو": 2214,
      "رام": 2215,
      "ابات": 2216,
      "املة": 2217,
      "برا": 2218,
      "▁التأ": 2219,
      "راسة": 2220,
      "يه": 2221,
      "ضا": 2222,
      "باح": 2223,
      "▁أسا": 2224,
      "نامج": 2225,
      ":\n-": 2226,
      "ية.\n": 2227,
      "▁(ال": 2228,
      "بال": 2229,
      "ابعة": 2230,
      "▁او": 2231,
      "▁أمام": 2232,
      "لكتر": 2233,
      "▁جديد": 2234,
      "▁L": 2235,
      "همة": 2236,
      "▁الخارج": 2237,
      "▁12": 2238,
      "طق": 2239,
      "وفير": 2240,
      "نقلة": 2241,
      "le": 2242,
      "طلاق": 2243,
      "▁وخ": 2244,
      "▁الرس": 2245,
      "▁وغير": 2246,
      "فك": 2247,
      "▁الام": 2248,
      "▁للع": 2249,
      "▁الإسلام": 2250,
      "▁اس": 2251,
      "وجه": 2252,
      "\"،": 2253,
      "▁سل": 2254,
      "ونا": 2255,
      "▁والن": 2256,
      "ent": 2257,
      "▁D": 2258,
      "كما": 2259,
      "▁بج": 2260,
      "دث": 2261,
      "ين.": 2262,
      "▁وكان": 2263,
      "▁حساب": 2264,
      "▁مبا": 2265,
      "صنع": 2266,
      "▁دولار": 2267,
      "▁أكبر": 2268,
      "ÙØ": 2269,
      "▁الأسا": 2270,
      "▁صنع": 2271,
      "▁الأخرى": 2272,
      "▁التش": 2273,
      "▁تأثير": 2274,
      "▁مكان": 2275,
      "طل": 2276,
      "▁الاس": 2277,
      "زب": 2278,
      "عيد": 2279,
      "▁F": 2280,
      "هم،": 2281,
      "▁الدولة": 2282,
      "▁البحث": 2283,
      "▁منا": 2284,
      "▁فيما": 2285,
      "▁ري": 2286,
      "▁مرة": 2287,
      "حل": 2288,
      "▁)": 2289,
      "اجة": 2290,
      "طب": 2291,
      "ساء": 2292,
      "▁الأرض": 2293,
      "▁نها": 2294,
      "هتم": 2295,
      "وضوع": 2296,
      "▁وتح": 2297,
      "▁طاحونة": 2298,
      "▁التس": 2299,
      "▁بالإضافة": 2300,
      "▁الثاني": 2301,
      "▁الفت": 2302,
      "ها.": 2303,
      "وسط": 2304,
      "تين": 2305,
      "▁ومع": 2306,
      "▁العق": 2307,
      "هاب": 2308,
      "غيير": 2309,
      ".\nم": 2310,
      "▁المواد": 2311,
      "▁دور": 2312,
      "▁نق": 2313,
      "يين": 2314,
      "▁كم": 2315,
      "▁محطة": 2316,
      ".\nوت": 2317,
      "جار": 2318,
      "▁ضد": 2319,
      "▁مشروع": 2320,
      "▁بص": 2321,
      "ضمن": 2322,
      "▁E": 2323,
      "▁تكسير": 2324,
      "كال": 2325,
      "▁للش": 2326,
      "اصيل": 2327,
      "▁تو": 2328,
      "▁سوف": 2329,
      "▁مدينة": 2330,
      "▁عرض": 2331,
      "▁وزارة": 2332,
      "َي": 2333,
      "رى": 2334,
      "▁حال": 2335,
      "▁لس": 2336,
      "▁المصن": 2337,
      "▁ساعة": 2338,
      "جمع": 2339,
      "▁وهذا": 2340,
      "ــــ": 2341,
      "▁لكل": 2342,
      "▁لش": 2343,
      "▁فع": 2344,
      "▁الشركات": 2345,
      "انا": 2346,
      "إذا": 2347,
      "▁الخام": 2348,
      "▁لتح": 2349,
      "▁اح": 2350,
      "▁الجيري": 2351,
      "▁ولي": 2352,
      "▁منطقة": 2353,
      "▁Ø": 2354,
      "غل": 2355,
      "▁البر": 2356,
      "▁الحياة": 2357,
      "▁والش": 2358,
      "▁مليون": 2359,
      "راً": 2360,
      "ab": 2361,
      "▁R": 2362,
      "▁واست": 2363,
      "▁وفق": 2364,
      "▁ذلك،": 2365,
      "تك": 2366,
      "▁سيا": 2367,
      "ويات": 2368,
      "▁الجديدة": 2369,
      "صح": 2370,
      "▁I": 2371,
      "▁H": 2372,
      "▁الدم": 2373,
      "جهة": 2374,
      "زال": 2375,
      "▁مستوى": 2376,
      "▁رقم": 2377,
      "داد": 2378,
      "▁مي": 2379,
      "▁الصح": 2380,
      "▁خص": 2381,
      "▁الشر": 2382,
      "▁مختلفة": 2383,
      "اعات": 2384,
      "سرائيل": 2385,
      "▁البن": 2386,
      "ub": 2387,
      "▁أيضا": 2388,
      "▁تعدين": 2389,
      "▁أثناء": 2390,
      "▁النظام": 2391,
      "عاون": 2392,
      "نتر": 2393,
      "يمة": 2394,
      "ماية": 2395,
      "اتف": 2396,
      "▁بناء": 2397,
      "▁أخ": 2398,
      "▁الولايات": 2399,
      "▁آلات": 2400,
      "▁تقديم": 2401,
      "▁يس": 2402,
      "ينية": 2403,
      "▁الأمن": 2404,
      "يط": 2405,
      "▁صف": 2406,
      "▁منه": 2407,
      "▁مض": 2408,
      "▁تصميم": 2409,
      "▁القانون": 2410,
      "جارة": 2411,
      "▁أنواع": 2412,
      "”،": 2413,
      "مات": 2414,
      "am": 2415,
      "▁حر": 2416,
      "▁المق": 2417,
      "سبوع": 2418,
      "ri": 2419,
      "▁الفلسط": 2420,
      "▁نحو": 2421,
      "▁تطبيق": 2422,
      "▁الطاقة": 2423,
      "الى": 2424,
      "▁يا": 2425,
      "▁an": 2426,
      "▁15": 2427,
      "▁h": 2428,
      "ويت": 2429,
      "▁الحكومة": 2430,
      ").": 2431,
      "▁وط": 2432,
      "كتور": 2433,
      "ًا،": 2434,
      "كات": 2435,
      "يق": 2436,
      "▁W": 2437,
      "يفة": 2438,
      "▁مز": 2439,
      "\nو": 2440,
      "راتيج": 2441,
      "حص": 2442,
      "▁مه": 2443,
      "مْ": 2444,
      "واب": 2445,
      "▁30": 2446,
      "خول": 2447,
      "▁المنطقة": 2448,
      "▁[": 2449,
      "▁للإ": 2450,
      "▁لما": 2451,
      "▁أسعار": 2452,
      "▁الظ": 2453,
      "حات": 2454,
      "▁الساعة": 2455,
      "كيف": 2456,
      "▁والص": 2457,
      "اول": 2458,
      "كنولوج": 2459,
      "▁مجال": 2460,
      "بس": 2461,
      "فعل": 2462,
      "▁الملك": 2463,
      "▁حين": 2464,
      "▁بالأ": 2465,
      "▁الفور": 2466,
      "▁التعليم": 2467,
      "حيح": 2468,
      "▁باستخدام": 2469,
      "ion": 2470,
      "افظة": 2471,
      "رع": 2472,
      "داء": 2473,
      "▁طلب": 2474,
      "▁الصنا": 2475,
      "▁النف": 2476,
      "▁المعلومات": 2477,
      "علق": 2478,
      "خصص": 2479,
      "▁رم": 2480,
      "ؤية": 2481,
      "▁المزيد": 2482,
      "ائج": 2483,
      "راءة": 2484,
      "▁المعدات": 2485,
      "افظ": 2486,
      "▁جم": 2487,
      "▁برنامج": 2488,
      "هِ": 2489,
      "▁شركات": 2490,
      "▁14": 2491,
      "▁الرمل": 2492,
      "▁تل": 2493,
      "▁هل": 2494,
      "▁جيد": 2495,
      "اك": 2496,
      "فاظ": 2497,
      "نج": 2498,
      "ُّ": 2499,
      "رحلة": 2500,
      "▁قص": 2501,
      "▁كثير": 2502,
      "▁مث": 2503,
      "باراة": 2504,
      "وبي": 2505,
      "جراءات": 2506,
      "▁ضمن": 2507,
      "▁الإلكتر": 2508,
      "َر": 2509,
      "▁كيفية": 2510,
      "حوق": 2511,
      "جاج": 2512,
      "لسلة": 2513,
      "▁تقدم": 2514,
      "ستر": 2515,
      "هداف": 2516,
      "وروب": 2517,
      "▁مف": 2518,
      "▁نقل": 2519,
      "▁شهر": 2520,
      "▁درجة": 2521,
      "▁الوطني": 2522,
      "▁تصنيع": 2523,
      "دية": 2524,
      "▁قطع": 2525,
      "ديل": 2526,
      "▁f": 2527,
      "▁اسم": 2528,
      "نترنت": 2529,
      "▁العد": 2530,
      "▁المحت": 2531,
      "▁أق": 2532,
      "وتر": 2533,
      "▁؛": 2534,
      "▁الدولي": 2535,
      "تمد": 2536,
      "▁والف": 2537,
      "ائف": 2538,
      "▁عليك": 2539,
      ".\nفي": 2540,
      "لاثة": 2541,
      "▁الجديد": 2542,
      "▁أفريقيا": 2543,
      "بين": 2544,
      "▁والذي": 2545,
      "روس": 2546,
      "▁المال": 2547,
      "دات": 2548,
      "▁السن": 2549,
      "ore": 2550,
      "ذج": 2551,
      "▁إدارة": 2552,
      "▁قام": 2553,
      "▁المحمول": 2554,
      "▁الشعب": 2555,
      "يلي": 2556,
      "▁البحر": 2557,
      "▁وزير": 2558,
      "▁لدى": 2559,
      "te": 2560,
      "▁الصغيرة": 2561,
      ".\n\n": 2562,
      "▁اليمن": 2563,
      "اش": 2564,
      "طاق": 2565,
      "▁الرمال": 2566,
      "▁سم": 2567,
      "▁سنة": 2568,
      "خة": 2569,
      "▁تُ": 2570,
      "وما": 2571,
      "▁تاريخ": 2572,
      "راب": 2573,
      "طيع": 2574,
      "▁ألف": 2575,
      "▁18": 2576,
      "▁الترك": 2577,
      "أت": 2578,
      "والي": 2579,
      "عام": 2580,
      "▁يعني": 2581,
      "كلة": 2582,
      "▁سنوات": 2583,
      "اء،": 2584,
      "▁اللي": 2585,
      "▁وان": 2586,
      "▁رائ": 2587,
      "▁بالنسبة": 2588,
      "000": 2589,
      "تع": 2590,
      "▁نج": 2591,
      "▁السوق": 2592,
      "سر": 2593,
      "بكة": 2594,
      "▁جي": 2595,
      "▁ها": 2596,
      "▁“ال": 2597,
      "▁يص": 2598,
      "هن": 2599,
      "▁المصر": 2600,
      "س،": 2601,
      "▁الاقتصاد": 2602,
      "▁العراق": 2603,
      "▁تعمل": 2604,
      "ثم": 2605,
      "▁عدة": 2606,
      "فظ": 2607,
      "▁القد": 2608,
      "19": 2609,
      "قف": 2610,
      "▁الكهرب": 2611,
      "عودي": 2612,
      "يارات": 2613,
      "▁فريق": 2614,
      "12": 2615,
      "ارب": 2616,
      "▁الحد": 2617,
      "▁تك": 2618,
      "▁لمدة": 2619,
      "جا": 2620,
      "سكر": 2621,
      "▁تحقيق": 2622,
      "سط": 2623,
      "▁ابن": 2624,
      "خفض": 2625,
      "▁to": 2626,
      "خام": 2627,
      "▁جانب": 2628,
      "▁ولم": 2629,
      "▁مركز": 2630,
      "▁علا": 2631,
      "▁الاتحاد": 2632,
      "202": 2633,
      "▁نظ": 2634,
      "ol": 2635,
      "▁الفر": 2636,
      "▁الأعمال": 2637,
      "▁صناعة": 2638,
      "خرج": 2639,
      "▁سلسلة": 2640,
      "ارك": 2641,
      "صابة": 2642,
      "لاك": 2643,
      "▁زيادة": 2644,
      "تيجة": 2645,
      "حب": 2646,
      "وضع": 2647,
      "▁تمام": 2648,
      "ذية": 2649,
      "▁الموج": 2650,
      "رم": 2651,
      "هود": 2652,
      "▁الطبيع": 2653,
      "اعت": 2654,
      "ائد": 2655,
      "▁حجم": 2656,
      "▁المنزل": 2657,
      "▁عشر": 2658,
      "▁الآخر": 2659,
      "▁وإن": 2660,
      "▁وسي": 2661,
      "جاه": 2662,
      "▁الشع": 2663,
      "علن": 2664,
      "▁مختلف": 2665,
      "▁الشعر": 2666,
      "▁خدمة": 2667,
      "▁العلا": 2668,
      "▁الأطفال": 2669,
      "▁الحي": 2670,
      "▁الداخل": 2671,
      "▁تكلفة": 2672,
      "▁تحديد": 2673,
      "▁قائمة": 2674,
      "اشة": 2675,
      "▁إذ": 2676,
      "▁أبو": 2677,
      "ريط": 2678,
      "▁الفي": 2679,
      "▁العربي": 2680,
      "▁جهاز": 2681,
      "ونية": 2682,
      "قرأ": 2683,
      "اهرة": 2684,
      "▁حسب": 2685,
      "سباب": 2686,
      "ًا.": 2687,
      "▁النبات": 2688,
      "ماد": 2689,
      "أتي": 2690,
      "سيق": 2691,
      "▁الحل": 2692,
      "▁معالجة": 2693,
      "▁أغ": 2694,
      "▁السود": 2695,
      "op": 2696,
      "ناك": 2697,
      "▁التف": 2698,
      "ادات": 2699,
      "▁بدا": 2700,
      "11": 2701,
      "▁a": 2702,
      "▁وجه": 2703,
      "▁المصنعة": 2704,
      "بو": 2705,
      "ئا": 2706,
      "▁أما": 2707,
      "▁حيات": 2708,
      "واد": 2709,
      "▁الجسم": 2710,
      "▁حم": 2711,
      "▁اي": 2712,
      "▁طريقة": 2713,
      "بيت": 2714,
      "▁الإنسان": 2715,
      "هار": 2716,
      "▁مم": 2717,
      "▁المركز": 2718,
      "يرا": 2719,
      "▁التواصل": 2720,
      "▁معد": 2721,
      "▁المنتجات": 2722,
      "▁الهي": 2723,
      "ك،": 2724,
      "ابقة": 2725,
      "اجر": 2726,
      "هذا": 2727,
      "▁الاتصال": 2728,
      "▁شراء": 2729,
      "▁الثال": 2730,
      "▁لـ": 2731,
      "▁شكل": 2732,
      "آن": 2733,
      "▁لف": 2734,
      "▁عمر": 2735,
      "▁الموقع": 2736,
      "▁الإنترنت": 2737,
      "▁عب": 2738,
      "ادن": 2739,
      "▁خاص": 2740,
      "30": 2741,
      "▁بدون": 2742,
      "▁المختلفة": 2743,
      "▁رأ": 2744,
      "وبر": 2745,
      "▁تؤ": 2746,
      "▁أمر": 2747,
      "يانة": 2748,
      "▁صح": 2749,
      "ستخدمة": 2750,
      "▁w": 2751,
      "نين": 2752,
      "▁نفسه": 2753,
      "▁اختيار": 2754,
      "عبة": 2755,
      "▁نش": 2756,
      "▁أحمد": 2757,
      "▁مرت": 2758,
      "ناصر": 2759,
      "▁الغذ": 2760,
      "▁بوا": 2761,
      "▁وقال": 2762,
      "▁جني": 2763,
      "▁الشيخ": 2764,
      "▁معل": 2765,
      "بدو": 2766,
      "▁مُ": 2767,
      "َب": 2768,
      "▁الاعت": 2769,
      "كنولوجيا": 2770,
      "▁المالية": 2771,
      "▁قدر": 2772,
      "روض": 2773,
      "▁”": 2774,
      "▁الثق": 2775,
      "مرار": 2776,
      "دت": 2777,
      "▁لهم": 2778,
      "طاء": 2779,
      "امي": 2780,
      "سان": 2781,
      "اً،": 2782,
      "▁ذكر": 2783,
      "▁يعمل": 2784,
      "ظف": 2785,
      "▁للج": 2786,
      "▁أنّ": 2787,
      "▁المجتمع": 2788,
      "▁الماء": 2789,
      ".\nوقال": 2790,
      "▁وكذلك": 2791,
      "▁دولة": 2792,
      "▁للد": 2793,
      "هات": 2794,
      "طح": 2795,
      "▁g": 2796,
      "▁والق": 2797,
      "ئات": 2798,
      "▁لق": 2799,
      "ثمار": 2800,
      "▁يقوم": 2801,
      "▁الْ": 2802,
      "سسة": 2803,
      "▁تحتاج": 2804,
      "▁إل": 2805,
      "صلاح": 2806,
      "▁لد": 2807,
      "▁بكل": 2808,
      "▁الصف": 2809,
      "▁فترة": 2810,
      "َيْ": 2811,
      "راع": 2812,
      "▁الجزائر": 2813,
      "ment": 2814,
      "▁كتاب": 2815,
      "▁الحق": 2816,
      "زين": 2817,
      "َة": 2818,
      "جال": 2819,
      "وريا": 2820,
      "▁صور": 2821,
      "َع": 2822,
      "▁نس": 2823,
      "قدمة": 2824,
      "ويلة": 2825,
      "▁الدكتور": 2826,
      "كمة": 2827,
      "▁النها": 2828,
      "حاس": 2829,
      "!\n": 2830,
      "▁مدير": 2831,
      "▁كافة": 2832,
      "▁للغا": 2833,
      "▁والج": 2834,
      "▁المصري": 2835,
      "▁الأكثر": 2836,
      "▁سبيل": 2837,
      "قرار": 2838,
      "يو": 2839,
      "▁وتع": 2840,
      "▁إم": 2841,
      "زن": 2842,
      "وضح": 2843,
      "ضح": 2844,
      "▁المستخدمة": 2845,
      "▁تتم": 2846,
      "▁o": 2847,
      "هتمام": 2848,
      "▁بـ": 2849,
      "▁الجهاز": 2850,
      "▁N": 2851,
      "▁تب": 2852,
      "▁يقول": 2853,
      "▁الإمارات": 2854,
      "▁وسلم": 2855,
      "▁نص": 2856,
      "ياب": 2857,
      "هيز": 2858,
      "ران": 2859,
      "▁وعلى": 2860,
      "ريع": 2861,
      "▁لص": 2862,
      "▁فال": 2863,
      "تنا": 2864,
      "سمح": 2865,
      "▁تناول": 2866,
      "لل": 2867,
      "▁المحمولة": 2868,
      "نف": 2869,
      "▁أقل": 2870,
      "▁أيام": 2871,
      "اليا": 2872,
      "طلق": 2873,
      "▁المنتج": 2874,
      "▁عالم": 2875,
      "▁يف": 2876,
      "ونات": 2877,
      "▁50": 2878,
      "وجة": 2879,
      "▁فوق": 2880,
      "▁خدمات": 2881,
      "سسات": 2882,
      "قق": 2883,
      "لاة": 2884,
      "▁نف": 2885,
      "▁الوطنية": 2886,
      "َم": 2887,
      "▁2023": 2888,
      "1.": 2889,
      "اق": 2890,
      "▁الخدمات": 2891,
      "▁توا": 2892,
      "ارد": 2893,
      "▁رب": 2894,
      "▁بو": 2895,
      "\".": 2896,
      "▁وعد": 2897,
      "▁يوجد": 2898,
      "نب": 2899,
      "▁إد": 2900,
      "▁نهاية": 2901,
      "▁التجارية": 2902,
      "▁الأل": 2903,
      "▁الماضي": 2904,
      "▁الاجتماعي": 2905,
      "▁الرئيسية": 2906,
      "افي": 2907,
      "▁إنه": 2908,
      "▁إعادة": 2909,
      "▁قم": 2910,
      "خلص": 2911,
      "▁بلا": 2912,
      "▁قدم": 2913,
      "غب": 2914,
      "▁مسحوق": 2915,
      "روج": 2916,
      "طاقة": 2917,
      "ومي": 2918,
      "اكل": 2919,
      "▁عق": 2920,
      "ch": 2921,
      "▁ارتفاع": 2922,
      "واج": 2923,
      "كيل": 2924,
      "▁ويمكن": 2925,
      "صار": 2926,
      "▁الحم": 2927,
      "فسير": 2928,
      "▁الخب": 2929,
      "الف": 2930,
      "▁علم": 2931,
      "▁أعمال": 2932,
      "اهد": 2933,
      "▁عنه": 2934,
      "▁أج": 2935,
      "▁الجودة": 2936,
      "▁البلاد": 2937,
      "فيف": 2938,
      "تز": 2939,
      "▁لبن": 2940,
      "▁2022": 2941,
      "▁المز": 2942,
      "▁تقوم": 2943,
      "سام": 2944,
      "عملة": 2945,
      ".\nوفي": 2946,
      "▁المرأة": 2947,
      "▁فتح": 2948,
      "▁نطاق": 2949,
      "بعد": 2950,
      "id": 2951,
      "▁مباشرة": 2952,
      "َد": 2953,
      "علان": 2954,
      "▁جدا": 2955,
      "▁العلم": 2956,
      "▁المواطن": 2957,
      "خراج": 2958,
      "▁رأس": 2959,
      "▁O": 2960,
      "▁خارج": 2961,
      "ختلف": 2962,
      "جموع": 2963,
      "▁السلام": 2964,
      "▁16": 2965,
      "ورات": 2966,
      "الد": 2967,
      "▁جاء": 2968,
      "▁ير": 2969,
      "▁أنا": 2970,
      "زيل": 2971,
      "كار": 2972,
      "▁والاست": 2973,
      "▁البناء": 2974,
      "شارة": 2975,
      "احب": 2976,
      ".\nوي": 2977,
      "▁أل": 2978,
      "▁24": 2979,
      "▁المل": 2980,
      "▁الأمريكية": 2981,
      "▁أعلى": 2982,
      "ضية": 2983,
      "▁متنقلة": 2984,
      "ow": 2985,
      "ولات": 2986,
      "▁إضافة": 2987,
      "▁تغ": 2988,
      "ذر": 2989,
      "عضاء": 2990,
      "المي": 2991,
      "▁توفير": 2992,
      "▁كور": 2993,
      "▁سواء": 2994,
      "▁فأ": 2995,
      "عرفة": 2996,
      "واق": 2997,
      "▁نمو": 2998,
      "بيض": 2999,
      "▁الثلاث": 3000,
      "▁الرسم": 3001,
      "زالة": 3002,
      "▁عبدال": 3003,
      "ارع": 3004,
      "▁صلى": 3005,
      "▁العملاء": 3006,
      "صب": 3007,
      "هولة": 3008,
      "أك": 3009,
      "▁عد": 3010,
      "▁الأمير": 3011,
      "ك.": 3012,
      "ناة": 3013,
      "▁المشت": 3014,
      "▁وتم": 3015,
      "▁صغير": 3016,
      "امين": 3017,
      "▁فلا": 3018,
      "▁11": 3019,
      "بول": 3020,
      "▁in": 3021,
      "ون،": 3022,
      "▁مقابل": 3023,
      "▁العرب": 3024,
      "نوعة": 3025,
      "افية": 3026,
      "▁تعالى": 3027,
      "▁منتجات": 3028,
      "▁الأشخاص": 3029,
      "يا،": 3030,
      "▁الدين": 3031,
      "ئيسي": 3032,
      "▁المدينة": 3033,
      "▁يكن": 3034,
      "لائ": 3035,
      "ev": 3036,
      "oo": 3037,
      "قطع": 3038,
      "▁المعد": 3039,
      "باط": 3040,
      "▁المياه": 3041,
      "▁وض": 3042,
      "طان": 3043,
      "بوب": 3044,
      "لة،": 3045,
      "تمر": 3046,
      "▁نحن": 3047,
      "▁دعم": 3048,
      "▁والب": 3049,
      "اتب": 3050,
      "▁بينما": 3051,
      "▁لمن": 3052,
      "جزاء": 3053,
      "قاومة": 3054,
      "▁المشروع": 3055,
      "▁السابق": 3056,
      "ومية": 3057,
      "▁the": 3058,
      "▁دع": 3059,
      "st": 3060,
      "▁الاسمنت": 3061,
      "▁نشر": 3062,
      "▁المطر": 3063,
      "اته": 3064,
      "▁وغ": 3065,
      "▁الإعلام": 3066,
      "▁والخ": 3067,
      "▁الفترة": 3068,
      "▁ثلاث": 3069,
      "اريع": 3070,
      "▁اللج": 3071,
      "التالي": 3072,
      "ستان": 3073,
      "▁للس": 3074,
      "▁»": 3075,
      "▁محم": 3076,
      "▁الأخيرة": 3077,
      "▁وآ": 3078,
      "▁لقد": 3079,
      "▁الثانية": 3080,
      "▁تنفيذ": 3081,
      "▁متر": 3082,
      "قيم": 3083,
      "▁أيضاً": 3084,
      "ائع": 3085,
      "▁بالك": 3086,
      "ph": 3087,
      "ياس": 3088,
      "▁والك": 3089,
      "nt": 3090,
      "▁المف": 3091,
      "▁l": 3092,
      "فير": 3093,
      "▁الدرا": 3094,
      "تل": 3095,
      "▁فل": 3096,
      "قديم": 3097,
      "▁المرك": 3098,
      "▁13": 3099,
      "▁مغ": 3100,
      "▁واض": 3101,
      "ذك": 3102,
      "دة،": 3103,
      "اركة": 3104,
      "▁2021": 3105,
      "▁شر": 3106,
      "▁مرا": 3107,
      "▁تطوير": 3108,
      "▁ته": 3109,
      "▁الأف": 3110,
      "▁جعل": 3111,
      "يدر": 3112,
      "ليف": 3113,
      "يع": 3114,
      "ماع": 3115,
      "▁الكسارات": 3116,
      "▁نتيجة": 3117,
      "ريح": 3118,
      "▁ويت": 3119,
      "▁التاريخ": 3120,
      "▁بب": 3121,
      "▁الشرق": 3122,
      "▁بالع": 3123,
      "ليق": 3124,
      "▁الفرن": 3125,
      "اهر": 3126,
      "▁بار": 3127,
      "▁فض": 3128,
      "ct": 3129,
      "▁الرغم": 3130,
      ".\nوأضاف": 3131,
      "\nالم": 3132,
      "▁قانون": 3133,
      "▁الصحة": 3134,
      ".\nكما": 3135,
      "▁النفط": 3136,
      "ى،": 3137,
      "اند": 3138,
      "▁on": 3139,
      "▁جزء": 3140,
      "▁الرائ": 3141,
      "▁الفوركس": 3142,
      "▁باست": 3143,
      "▁25": 3144,
      "▁بالح": 3145,
      "مط": 3146,
      "▁النحاس": 3147,
      "▁حك": 3148,
      "▁الفريق": 3149,
      "▁عمليات": 3150,
      "وفي": 3151,
      "▁الطفل": 3152,
      "وائد": 3153,
      "ظائف": 3154,
      "▁العالمية": 3155,
      "▁لب": 3156,
      "ضور": 3157,
      "تهم": 3158,
      "▁الأسعار": 3159,
      "▁ينت": 3160,
      "▁قطاع": 3161,
      "▁والر": 3162,
      "▁بغ": 3163,
      "فاءة": 3164,
      "▁بشأن": 3165,
      "ْت": 3166,
      "▁الـ": 3167,
      "▁فهو": 3168,
      "▁ليست": 3169,
      "صفات": 3170,
      "▁الخارجية": 3171,
      "▁عقد": 3172,
      "ئب": 3173,
      "▁وحدة": 3174,
      "15": 3175,
      "▁البط": 3176,
      "▁وث": 3177,
      "▁لط": 3178,
      "جرد": 3179,
      "▁هد": 3180,
      "طوير": 3181,
      "▁التر": 3182,
      "▁الحرب": 3183,
      "▁الإنتاج": 3184,
      "ثار": 3185,
      "▁المجلس": 3186,
      "ذة": 3187,
      "▁لهذا": 3188,
      "ay": 3189,
      "▁الوصول": 3190,
      "▁للن": 3191,
      "▁طويلة": 3192,
      "دينا": 3193,
      "▁للق": 3194,
      "▁الأحد": 3195,
      "▁سيكون": 3196,
      "▁التداول": 3197,
      "▁V": 3198,
      "▁المك": 3199,
      "▁كث": 3200,
      "▁نسبة": 3201,
      "▁زوج": 3202,
      ".\nوب": 3203,
      "▁الأع": 3204,
      "برز": 3205,
      "عاية": 3206,
      "اصمة": 3207,
      "▁روس": 3208,
      "▁لنا": 3209,
      "فية": 3210,
      "صدار": 3211,
      "عتقد": 3212,
      "▁السعودي": 3213,
      "▁الكسارة": 3214,
      "كَ": 3215,
      "حتى": 3216,
      "لبية": 3217,
      ")\n": 3218,
      "سيط": 3219,
      "تحدث": 3220,
      "▁ثلاثة": 3221,
      "▁تحميل": 3222,
      ".\nمن": 3223,
      "▁|": 3224,
      "▁الدولية": 3225,
      "ذب": 3226,
      "صور": 3227,
      "▁حوالي": 3228,
      "ميزة": 3229,
      "قيلة": 3230,
      "ِل": 3231,
      "▁يجعل": 3232,
      "▁الحجارة": 3233,
      "ؤال": 3234,
      "آلة": 3235,
      "▁المثال": 3236,
      "لوب": 3237,
      "▁إنشاء": 3238,
      "▁إليه": 3239,
      "▁السيد": 3240,
      "طور": 3241,
      "▁يعد": 3242,
      "ّا": 3243,
      "▁جودة": 3244,
      "َو": 3245,
      "ine": 3246,
      "وجود": 3247,
      "▁تشغيل": 3248,
      "▁ني": 3249,
      "فاض": 3250,
      "▁الرح": 3251,
      "▁بيت": 3252,
      "درسة": 3253,
      "كوين": 3254,
      "▁U": 3255,
      "▁عض": 3256,
      "بيقات": 3257,
      "▁والث": 3258,
      "▁للف": 3259,
      "▁الأص": 3260,
      "افت": 3261,
      "جير": 3262,
      "▁البلد": 3263,
      "▁ومت": 3264,
      "2.": 3265,
      "▁الروا": 3266,
      "حاء": 3267,
      "▁اكت": 3268,
      "ont": 3269,
      "جاز": 3270,
      "ده": 3271,
      "َت": 3272,
      "▁هم": 3273,
      "لعاب": 3274,
      "▁ألم": 3275,
      "زية": 3276,
      "رة،": 3277,
      "ظيفة": 3278,
      "شل": 3279,
      "▁رؤية": 3280,
      "▁ينا": 3281,
      "▁2016": 3282,
      "▁لأنه": 3283,
      "▁الأط": 3284,
      "ندا": 3285,
      "حاب": 3286,
      "▁ار": 3287,
      "ات.": 3288,
      "▁التالية": 3289,
      "▁إجراء": 3290,
      "سلسل": 3291,
      "▁القدم": 3292,
      "▁باسم": 3293,
      "▁لكم": 3294,
      "شطة": 3295,
      "▁سوق": 3296,
      "▁قرار": 3297,
      "▁بنسبة": 3298,
      "▁معظم": 3299,
      "حدى": 3300,
      "ائدة": 3301,
      "▁تنت": 3302,
      "مثل": 3303,
      "▁النظر": 3304,
      "▁الشباب": 3305,
      "وحة": 3306,
      "▁البل": 3307,
      "▁السب": 3308,
      "بيوتر": 3309,
      "▁فعل": 3310,
      "▁17": 3311,
      "هير": 3312,
      "▁وبعد": 3313,
      "انه": 3314,
      "▁الدفاع": 3315,
      "صى": 3316,
      "طوان": 3317,
      ").\n": 3318,
      "▁حدث": 3319,
      "أل": 3320,
      "ماً": 3321,
      "ومن": 3322,
      "سلحة": 3323,
      "راجع": 3324,
      "راضي": 3325,
      "ÙÙ": 3326,
      "سرائيلي": 3327,
      "▁وتن": 3328,
      "عة،": 3329,
      "▁الاخت": 3330,
      "▁قطر": 3331,
      "▁of": 3332,
      "▁يؤدي": 3333,
      "▁أر": 3334,
      "▁المرت": 3335,
      "▁جامعة": 3336,
      "▁معلومات": 3337,
      "▁وليس": 3338,
      "▁2020": 3339,
      "▁الشم": 3340,
      "▁ريال": 3341,
      "هورية": 3342,
      "صدر": 3343,
      "▁وسائل": 3344,
      "▁قوات": 3345,
      "▁رح": 3346,
      "دع": 3347,
      "▁غس": 3348,
      "قرا": 3349,
      "لاع": 3350,
      "▁محا": 3351,
      "▁الخرس": 3352,
      "16": 3353,
      "▁1.": 3354,
      "18": 3355,
      "▁؟": 3356,
      "▁قول": 3357,
      "سمى": 3358,
      "ia": 3359,
      "▁حي": 3360,
      "her": 3361,
      "▁البيانات": 3362,
      "▁الواقع": 3363,
      "▁مِن": 3364,
      "▁تغيير": 3365,
      "قتصادي": 3366,
      "▁ظل": 3367,
      "اطر": 3368,
      "▁القاد": 3369,
      "▁المناطق": 3370,
      "قامة": 3371,
      "▁الأسمنت": 3372,
      "صي": 3373,
      "▁السيارات": 3374,
      "▁الفلسطيني": 3375,
      "▁أوروب": 3376,
      "▁ولاية": 3377,
      "شرات": 3378,
      "▁تقرير": 3379,
      "▁المرا": 3380,
      "كام": 3381,
      "عيش": 3382,
      "سكرية": 3383,
      "▁يك": 3384,
      "▁المصنع": 3385,
      "ائلة": 3386,
      "▁بداية": 3387,
      "نائية": 3388,
      "▁بالق": 3389,
      "▁يلي": 3390,
      "▁للحصول": 3391,
      "ot": 3392,
      ".\nالم": 3393,
      "▁أشهر": 3394,
      "رية": 3395,
      "▁لاست": 3396,
      "\nفي": 3397,
      "▁ملف": 3398,
      "▁واج": 3399,
      "علنت": 3400,
      ".\nل": 3401,
      "لابس": 3402,
      "▁الكتاب": 3403,
      "▁المطرقة": 3404,
      "▁كون": 3405,
      "▁بذلك": 3406,
      "ريك": 3407,
      "شن": 3408,
      "ur": 3409,
      "▁كامل": 3410,
      "▁التطبيق": 3411,
      "▁الحالي": 3412,
      "▁الور": 3413,
      "غر": 3414,
      "▁الطب": 3415,
      "▁القيام": 3416,
      "▁كذلك": 3417,
      "ّر": 3418,
      "هج": 3419,
      "▁الجيش": 3420,
      "▁صورة": 3421,
      "▁التخ": 3422,
      "▁المرض": 3423,
      "خصصة": 3424,
      "صاص": 3425,
      "▁الحالة": 3426,
      "▁العملية": 3427,
      "▁غزة": 3428,
      "هيم": 3429,
      "ّل": 3430,
      "▁المستخدم": 3431,
      "▁العلاج": 3432,
      "ريات": 3433,
      "▁يساعد": 3434,
      "▁وصل": 3435,
      "▁اب": 3436,
      "▁طب": 3437,
      "ag": 3438,
      "رسال": 3439,
      "▁الفيديو": 3440,
      "ريض": 3441,
      "▁الخلي": 3442,
      "▁علاج": 3443,
      "راتيجية": 3444,
      "��": 3445,
      "▁اجتما": 3446,
      "▁الكب": 3447,
      "▁النوع": 3448,
      "14": 3449,
      "▁تريد": 3450,
      "ونس": 3451,
      "▁وتت": 3452,
      "▁قوة": 3453,
      "▁زيت": 3454,
      "ائرة": 3455,
      "17": 3456,
      "▁ضر": 3457,
      "شكل": 3458,
      "▁محت": 3459,
      "....": 3460,
      "وغ": 3461,
      "▁الرب": 3462,
      "▁أهمية": 3463,
      "الك": 3464,
      "▁نقطة": 3465,
      "▁سير": 3466,
      "▁سا": 3467,
      "منة": 3468,
      "حيان": 3469,
      "▁تمت": 3470,
      "كونات": 3471,
      "واح": 3472,
      "ليب": 3473,
      "صبح": 3474,
      "rus": 3475,
      "▁الوزراء": 3476,
      "▁مليار": 3477,
      "▁الوح": 3478,
      "▁بيان": 3479,
      "مارسة": 3480,
      "▁زي": 3481,
      "▁بِ": 3482,
      "ليا": 3483,
      "▁المعادن": 3484,
      "▁تداول": 3485,
      "▁السياسي": 3486,
      "جابة": 3487,
      "▁يستخدم": 3488,
      "كينة": 3489,
      "com": 3490,
      "▁النساء": 3491,
      "▁الخص": 3492,
      "▁ضع": 3493,
      "▁قدرة": 3494,
      "▁مواقع": 3495,
      "ارنة": 3496,
      "عمة": 3497,
      "▁إطار": 3498,
      "▁وحد": 3499,
      "▁بنا": 3500,
      "قام": 3501,
      "ثبيت": 3502,
      "ودية": 3503,
      "▁الأسبوع": 3504,
      "▁والا": 3505,
      "ئلة": 3506,
      "واعد": 3507,
      "▁المسلم": 3508,
      "▁الداخلية": 3509,
      "▁عنها": 3510,
      "▁دائم": 3511,
      "وامل": 3512,
      "▁الأساسية": 3513,
      "▁قيمة": 3514,
      "▁وكل": 3515,
      "ديق": 3516,
      "▁وات": 3517,
      "▁النق": 3518,
      "▁الاجتماعية": 3519,
      "▁السياسية": 3520,
      "هاد": 3521,
      "كينات": 3522,
      "بيعة": 3523,
      "بقى": 3524,
      "▁منهم": 3525,
      "▁لاح": 3526,
      "▁أنت": 3527,
      "un": 3528,
      "▁يل": 3529,
      "▁دبي": 3530,
      "سد": 3531,
      "▁الصحية": 3532,
      "ياجات": 3533,
      "▁الشهر": 3534,
      "▁الأور": 3535,
      "▁البشر": 3536,
      "ابي": 3537,
      "▁التعاون": 3538,
      "ir": 3539,
      "ديثة": 3540,
      "▁حقوق": 3541,
      "ريبة": 3542,
      "ig": 3543,
      "جاح": 3544,
      "رش": 3545,
      "▁النص": 3546,
      "▁متعد": 3547,
      "▁لاع": 3548,
      "اعر": 3549,
      "▁القطاع": 3550,
      "رز": 3551,
      "▁إنها": 3552,
      "ونيو": 3553,
      "▁البعض": 3554,
      "▁أت": 3555,
      "▁إسرائيل": 3556,
      "▁الحمل": 3557,
      "سكري": 3558,
      "▁الاحتلال": 3559,
      "▁وبالتالي": 3560,
      "▁الطرق": 3561,
      "3.": 3562,
      "َق": 3563,
      "▁بلغ": 3564,
      "▁نظر": 3565,
      "▁الحديث": 3566,
      "قليم": 3567,
      "روب": 3568,
      "ريمة": 3569,
      "عين": 3570,
      "▁لديك": 3571,
      "ثنين": 3572,
      "▁التى": 3573,
      "▁سيتم": 3574,
      "▁شع": 3575,
      "▁مساء": 3576,
      "ادرة": 3577,
      "▁ـ": 3578,
      "▁تنظيم": 3579,
      "افحة": 3580,
      "pp": 3581,
      "▁دم": 3582,
      "▁يحدث": 3583,
      "ه.\n": 3584,
      "▁by": 3585,
      "▁الكم": 3586,
      "▁تسجيل": 3587,
      "خاذ": 3588,
      "خيص": 3589,
      "قييم": 3590,
      "▁and": 3591,
      "▁يصل": 3592,
      "▁تساعد": 3593,
      "▁أبي": 3594,
      "▁يعتبر": 3595,
      "▁الصحي": 3596,
      "▁تصل": 3597,
      "رانيت": 3598,
      "▁أهل": 3599,
      "▁بف": 3600,
      "اتها": 3601,
      "ثور": 3602,
      "ادل": 3603,
      "▁فهي": 3604,
      "im": 3605,
      "▁الألم": 3606,
      "▁البد": 3607,
      "شاف": 3608,
      "ْم": 3609,
      "▁انه": 3610,
      "▁تنظيف": 3611,
      "▁ممت": 3612,
      "وردين": 3613,
      "▁وغيرها": 3614,
      "ندوق": 3615,
      "▁أمري": 3616,
      "▁تعرف": 3617,
      "كبر": 3618,
      "▁مب": 3619,
      "▁توفر": 3620,
      "▁الإلكتروني": 3621,
      "وارد": 3622,
      "▁حياة": 3623,
      "اصل": 3624,
      "▁شبكة": 3625,
      "ابلة": 3626,
      "اهدة": 3627,
      "▁الإس": 3628,
      "▁تعد": 3629,
      "▁حديث": 3630,
      "▁المث": 3631,
      "خابات": 3632,
      "▁للغاية": 3633,
      "▁40": 3634,
      "▁أنحاء": 3635,
      "▁الصور": 3636,
      "▁يخ": 3637,
      "هام": 3638,
      "▁بات": 3639,
      "▁اللبن": 3640,
      "▁لدينا": 3641,
      "▁صاحب": 3642,
      "▁إث": 3643,
      "▁يقدم": 3644,
      "▁(أ": 3645,
      "ائص": 3646,
      "فاعل": 3647,
      "شد": 3648,
      "▁الخدمة": 3649,
      "ثلة": 3650,
      "دير": 3651,
      "ويد": 3652,
      "روة": 3653,
      "حقق": 3654,
      "▁العالمي": 3655,
      "▁قلي": 3656,
      "▁الحرارة": 3657,
      "ديمة": 3658,
      "خفاض": 3659,
      "ماس": 3660,
      "قية": 3661,
      "روري": 3662,
      "وجيه": 3663,
      "▁لبنان": 3664,
      "▁المادة": 3665,
      "▁المُ": 3666,
      "▁الهاتف": 3667,
      "▁المحد": 3668,
      "▁المض": 3669,
      "▁الطلب": 3670,
      "▁رسم": 3671,
      "▁كال": 3672,
      "▁يحتوي": 3673,
      "▁أساس": 3674,
      "▁دفع": 3675,
      "▁المسؤول": 3676,
      "َنْ": 3677,
      "ميد": 3678,
      "▁فرن": 3679,
      "▁تحتوي": 3680,
      "▁الرجل": 3681,
      "هية": 3682,
      "▁بير": 3683,
      "▁الجما": 3684,
      "كُ": 3685,
      "شرين": 3686,
      "▁لر": 3687,
      "ائم": 3688,
      "جرة": 3689,
      "▁الطعام": 3690,
      "▁اللاعب": 3691,
      "▁المب": 3692,
      "قدر": 3693,
      "▁بالفعل": 3694,
      "▁مسؤول": 3695,
      "▁واس": 3696,
      "▁خل": 3697,
      "▁\n": 3698,
      "ice": 3699,
      "▁مواد": 3700,
      "▁جنيه": 3701,
      "▁الأمريكي": 3702,
      "ؤلاء": 3703,
      "▁والط": 3704,
      "▁فلسط": 3705,
      "▁طرق": 3706,
      "▁الرقم": 3707,
      "▁البرن": 3708,
      "▁حركة": 3709,
      "يرات": 3710,
      "▁جيدة": 3711,
      "▁الرئيسي": 3712,
      "▁الال": 3713,
      "▁K": 3714,
      "حسب": 3715,
      "ادية": 3716,
      "▁الثالث": 3717,
      "▁بالس": 3718,
      "▁الجميع": 3719,
      "ؤون": 3720,
      "بيعات": 3721,
      "▁More": 3722,
      "25": 3723,
      "جان": 3724,
      "زيع": 3725,
      "▁الدي": 3726,
      "عى": 3727,
      "▁البرنامج": 3728,
      "▁القلب": 3729,
      "bu": 3730,
      "▁المغرب": 3731,
      "▁موس": 3732,
      "▁باب": 3733,
      "▁دراسة": 3734,
      "وين": 3735,
      "قوم": 3736,
      "▁المنام": 3737,
      "ورا": 3738,
      "▁اللغة": 3739,
      "\".\n": 3740,
      "خال": 3741,
      "هيل": 3742,
      "▁يتعلق": 3743,
      "وام": 3744,
      "ْر": 3745,
      "▁دين": 3746,
      "خدمات": 3747,
      "▁مصدر": 3748,
      "▁فكية": 3749,
      "هلي": 3750,
      "▁وين": 3751,
      "▁المرحلة": 3752,
      "▁مباراة": 3753,
      "▁معرفة": 3754,
      "اية": 3755,
      "▁روسيا": 3756,
      "▁وسط": 3757,
      "▁Git": 3758,
      "شب": 3759,
      "َى": 3760,
      "ردشة": 3761,
      "ير،": 3762,
      "ادت": 3763,
      "▁مطاحن": 3764,
      "▁صحيح": 3765,
      "▁جهة": 3766,
      "▁الفن": 3767,
      "ديات": 3768,
      "سطة": 3769,
      "eb": 3770,
      "▁الخرسانة": 3771,
      "▁يعرف": 3772,
      "▁كي": 3773,
      "خبار": 3774,
      "▁شعب": 3775,
      "▁الكبير": 3776,
      "▁دقيقة": 3777,
      "▁غسل": 3778,
      "ind": 3779,
      "الج": 3780,
      "▁النفس": 3781,
      "وبات": 3782,
      "خرة": 3783,
      "▁مناط": 3784,
      "▁المتنقلة": 3785,
      "▁المصرية": 3786,
      "13": 3787,
      "▁الموضوع": 3788,
      "▁رفع": 3789,
      "▁الكل": 3790,
      "سيس": 3791,
      "▁محد": 3792,
      "▁عادة": 3793,
      "نيات": 3794,
      "▁أوروبا": 3795,
      "هم.": 3796,
      "طوانة": 3797,
      "▁العمر": 3798,
      "عليم": 3799,
      "▁إس": 3800,
      "▁الضغط": 3801,
      "واف": 3802,
      "▁جل": 3803,
      "▁التشغيل": 3804,
      "Hub": 3805,
      "▁تركيا": 3806,
      ".\nف": 3807,
      "ضان": 3808,
      "ve": 3809,
      "▁الكويت": 3810,
      "▁فا": 3811,
      "راعة": 3812,
      "يته": 3813,
      "▁اف": 3814,
      "▁السوري": 3815,
      "▁مناطق": 3816,
      "مح": 3817,
      "كسارات": 3818,
      "▁تض": 3819,
      "▁ملم": 3820,
      "▁مصانع": 3821,
      "▁المستقبل": 3822,
      "\nع": 3823,
      "reat": 3824,
      "▁إيج": 3825,
      "راحة": 3826,
      "▁الأرد": 3827,
      "▁اللجنة": 3828,
      "▁نتائج": 3829,
      "▁القص": 3830,
      "ريدة": 3831,
      "▁مرض": 3832,
      "▁موضوع": 3833,
      "▁جدًا": 3834,
      "و،": 3835,
      "▁طبيع": 3836,
      "▁وتش": 3837,
      "▁الخيارات": 3838,
      "▁مخروطية": 3839,
      "صلة": 3840,
      "▁تحسين": 3841,
      "▁التالي": 3842,
      "ْل": 3843,
      "24": 3844,
      "▁الإد": 3845,
      "باء": 3846,
      "▁الجلد": 3847,
      "▁الجانب": 3848,
      "▁الشاشة": 3849,
      "▁الطريق": 3850,
      "▁مدى": 3851,
      "li": 3852,
      "▁تعتبر": 3853,
      "▁مصادر": 3854,
      "صط": 3855,
      "غال": 3856,
      "ريس": 3857,
      "ار،": 3858,
      "▁إطلاق": 3859,
      "▁الهواء": 3860,
      "فن": 3861,
      "▁خلف": 3862,
      "شفى": 3863,
      "▁بسرعة": 3864,
      "▁أرض": 3865,
      "▁النبي": 3866,
      "▁فهم": 3867,
      "▁الأربع": 3868,
      "َال": 3869,
      "ضايا": 3870,
      "▁GitHub": 3871,
      "كانت": 3872,
      "ْن": 3873,
      "ندما": 3874,
      "”.": 3875,
      "▁القرآن": 3876,
      "▁فن": 3877,
      "جوم": 3878,
      "▁أط": 3879,
      "▁التعامل": 3880,
      "▁ac": 3881,
      "▁الخمي": 3882,
      "قصى": 3883,
      "▁صباح": 3884,
      "شاط": 3885,
      "▁شك": 3886,
      "ابية": 3887,
      "▁الجنوب": 3888,
      "ريت": 3889,
      "▁الطريقة": 3890,
      "▁إليها": 3891,
      "▁تنا": 3892,
      "▁خب": 3893,
      "▁الدعم": 3894,
      "▁Y": 3895,
      "▁يحتاج": 3896,
      "▁·": 3897,
      "▁ظهر": 3898,
      "ليه": 3899,
      "صرف": 3900,
      "▁والمت": 3901,
      "▁العض": 3902,
      "ة،": 3903,
      "▁اللازمة": 3904,
      "خير": 3905,
      "▁القاهرة": 3906,
      "▁بواسطة": 3907,
      "▁مالي": 3908,
      "▁إحدى": 3909,
      "راكز": 3910,
      "فاف": 3911,
      "▁v": 3912,
      "رين": 3913,
      "▁حصل": 3914,
      "فادة": 3915,
      "ريعة": 3916,
      "▁الجزء": 3917,
      "هادة": 3918,
      "تهاء": 3919,
      "اره": 3920,
      "▁قسم": 3921,
      ".\nول": 3922,
      "▁العلاقات": 3923,
      "▁الملف": 3924,
      "60": 3925,
      "قتل": 3926,
      "▁القرن": 3927,
      "طلبات": 3928,
      "▁للاست": 3929,
      "▁الدوري": 3930,
      "▁الإنج": 3931,
      "وش": 3932,
      "▁دليل": 3933,
      "▁الأفضل": 3934,
      "▁نصف": 3935,
      "▁منزل": 3936,
      "▁المحلية": 3937,
      "▁بدء": 3938,
      "▁كورونا": 3939,
      "▁سبب": 3940,
      "▁للب": 3941,
      "▁النمو": 3942,
      ".com": 3943,
      "لمان": 3944,
      "كتوبر": 3945,
      "▁التجارة": 3946,
      "▁حسن": 3947,
      "شركة": 3948,
      "▁السنة": 3949,
      "ّد": 3950,
      "▁تعرض": 3951,
      "▁اض": 3952,
      "م،": 3953,
      "▁رسول": 3954,
      "ha": 3955,
      "▁كلمة": 3956,
      "ناية": 3957,
      "\nمن": 3958,
      "▁إضاف": 3959,
      "▁البنك": 3960,
      "ساس": 3961,
      "ead": 3962,
      "ount": 3963,
      "▁الاقتصادية": 3964,
      "▁أرب": 3965,
      "ائن": 3966,
      "▁بنفس": 3967,
      "evel": 3968,
      "▁فمن": 3969,
      "رها": 3970,
      "وند": 3971,
      "كب": 3972,
      "▁إف": 3973,
      "▁ضغط": 3974,
      "▁يأتي": 3975,
      "▁2018": 3976,
      "ئاسة": 3977,
      "\nل": 3978,
      "▁J": 3979,
      "ang": 3980,
      "▁حلم": 3981,
      "ضير": 3982,
      "مم": 3983,
      "▁تعزيز": 3984,
      "سيطة": 3985,
      "ريل": 3986,
      "▁تفاصيل": 3987,
      "علقة": 3988,
      "▁#": 3989,
      "زع": 3990,
      "َس": 3991,
      "evelop": 3992,
      "جلة": 3993,
      "كانية": 3994,
      "▁اقت": 3995,
      "▁الشخصية": 3996,
      "▁تحدث": 3997,
      "٠٠": 3998,
      "▁مفت": 3999,
      "تيح": 4000,
      "تيب": 4001,
      "▁برو": 4002,
      "▁الوزن": 4003,
      "▁الجنس": 4004,
      "▁واسع": 4005,
      "▁البلا": 4006,
      "▁السلطة": 4007,
      "بيا": 4008,
      "ائح": 4009,
      "▁رجل": 4010,
      "يح": 4011,
      "▁المجال": 4012,
      "▁Ø§": 4013,
      "▁لهذه": 4014,
      "▁والغ": 4015,
      "▁الوضع": 4016,
      "»،": 4017,
      "1-": 4018,
      "▁وحتى": 4019,
      "▁أصبح": 4020,
      "سيوم": 4021,
      "▁+": 4022,
      "▁تحمل": 4023,
      "▁بث": 4024,
      "▁الوطن": 4025,
      "▁لذا": 4026,
      "راز": 4027,
      "▁الابت": 4028,
      "وتي": 4029,
      "▁22": 4030,
      "▁e": 4031,
      "ليقات": 4032,
      "▁١": 4033,
      "َهُ": 4034,
      "جاب": 4035,
      "▁الفق": 4036,
      "▁*": 4037,
      "▁500": 4038,
      "▁بهذا": 4039,
      "▁الصناعية": 4040,
      "▁لجنة": 4041,
      "لمات": 4042,
      "▁مارس": 4043,
      "▁الموجودة": 4044,
      "يريا": 4045,
      "▁أمن": 4046,
      "▁الأجن": 4047,
      "▁مهمة": 4048,
      "فيات": 4049,
      "▁بحث": 4050,
      "اني،": 4051,
      "▁تفسير": 4052,
      "▁الكبيرة": 4053,
      "خم": 4054,
      "▁الده": 4055,
      "▁عبارة": 4056,
      "أسعار": 4057,
      "قيقي": 4058,
      "▁للط": 4059,
      "▁الصورة": 4060,
      "ترنت": 4061,
      "حر": 4062,
      "ul": 4063,
      "▁الجام": 4064,
      "وسي": 4065,
      "▁العملات": 4066,
      "ُل": 4067,
      "▁المحجر": 4068,
      "▁المناسب": 4069,
      "▁روا": 4070,
      "▁لان": 4071,
      "▁ماكينة": 4072,
      "▁شعر": 4073,
      "▁للص": 4074,
      "ليك": 4075,
      "▁المقال": 4076,
      "▁وفقًا": 4077,
      "منع": 4078,
      "evelopment": 4079,
      "▁n": 4080,
      "▁ترا": 4081,
      "ّم": 4082,
      "طرة": 4083,
      "▁خطة": 4084,
      "▁الروسي": 4085,
      "▁كيل": 4086,
      "ق،": 4087,
      "▁سر": 4088,
      "▁بحيث": 4089,
      "▁يريد": 4090,
      "▁المقبل": 4091,
      "▁الإسرائيلي": 4092,
      "▁الممكن": 4093,
      "▁تجربة": 4094,
      "ساهم": 4095,
      "▁لعبة": 4096,
      "▁تز": 4097,
      "/ar": 4098,
      "طيط": 4099,
      "ها.\n": 4100,
      "عامل": 4101,
      "▁اللح": 4102,
      "▁الذات": 4103,
      "ثمر": 4104,
      "▁العاصمة": 4105,
      "”.\n": 4106,
      "▁قال:": 4107,
      "▁مشاكل": 4108,
      "▁طول": 4109,
      "▁أجهزة": 4110,
      "▁2019": 4111,
      "▁إي": 4112,
      "▁لجميع": 4113,
      "راقبة": 4114,
      "▁حص": 4115,
      "ديمقرا": 4116,
      "▁لتن": 4117,
      "منح": 4118,
      "▁الجد": 4119,
      "▁ويتم": 4120,
      "▁مجموع": 4121,
      "قرير": 4122,
      "▁إش": 4123,
      "ماذا": 4124,
      "▁الإدارة": 4125,
      "▁acc": 4126,
      "\nن": 4127,
      "▁الكريم": 4128,
      "▁أجزاء": 4129,
      "صاب": 4130,
      "▁الخلا": 4131,
      "▁المورد": 4132,
      "▁هيئة": 4133,
      "جع": 4134,
      "▁بعيد": 4135,
      "عملية": 4136,
      "▁حماية": 4137,
      "▁والتح": 4138,
      "▁نادي": 4139,
      "مكنك": 4140,
      "▁السيارة": 4141,
      "▁القدرة": 4142,
      "ut": 4143,
      "▁توجد": 4144,
      "بطة": 4145,
      "▁الثان": 4146,
      "▁الهيئة": 4147,
      "▁الطحن": 4148,
      "▁بالط": 4149,
      "▁امت": 4150,
      "▁جما": 4151,
      "اعد": 4152,
      "▁هدف": 4153,
      "▁مكتب": 4154,
      "ُوا": 4155,
      "▁الشمس": 4156,
      "▁الدخول": 4157,
      "▁الزيت": 4158,
      "َّة": 4159,
      "ribu": 4160,
      "يتها": 4161,
      "▁المواطنين": 4162,
      "▁هؤلاء": 4163,
      "▁خلا": 4164,
      "▁كاملة": 4165,
      "نيف": 4166,
      ".5": 4167,
      "ذور": 4168,
      "▁فقال": 4169,
      "شاركة": 4170,
      "صالات": 4171,
      "▁اليد": 4172,
      "▁البيت": 4173,
      "▁ظهور": 4174,
      "هرة": 4175,
      "أي": 4176,
      "▁سوريا": 4177,
      "نيا": 4178,
      "وقات": 4179,
      "▁وصف": 4180,
      "▁اند": 4181,
      "راح": 4182,
      "ظل": 4183,
      "▁السبت": 4184,
      "لبة": 4185,
      "صميم": 4186,
      "▁الجرانيت": 4187,
      "▁فرصة": 4188,
      "▁الحالات": 4189,
      "▁أمس": 4190,
      "▁المدني": 4191,
      "▁مشكلة": 4192,
      "بادل": 4193,
      "فيد": 4194,
      "رر": 4195,
      "▁الحكم": 4196,
      "▁المدير": 4197,
      "ht": 4198,
      "▁بهذه": 4199,
      "ايل": 4200,
      "▁الرك": 4201,
      "ناف": 4202,
      "سعر": 4203,
      "▁مهم": 4204,
      "واجه": 4205,
      "▁السابقة": 4206,
      "▁شمال": 4207,
      "▁السيلي": 4208,
      "▁الرسمي": 4209,
      "▁تجهيز": 4210,
      "▁رغم": 4211,
      "▁creat": 4212,
      "سون": 4213,
      "قطاع": 4214,
      "▁التحكم": 4215,
      "▁رد": 4216,
      "▁أداء": 4217,
      "▁سابق": 4218,
      "باس": 4219,
      ",ال": 4220,
      "▁شهد": 4221,
      "▁درا": 4222,
      "▁تظهر": 4223,
      "▁الناقل": 4224,
      "▁غرب": 4225,
      "▁الإن": 4226,
      "امية": 4227,
      "▁المكان": 4228,
      "▁الكر": 4229,
      "ation": 4230,
      "▁بالد": 4231,
      "ra": 4232,
      "▁account": 4233,
      "▁كأس": 4234,
      "▁يتح": 4235,
      "ستاذ": 4236,
      "سيم": 4237,
      "▁يبدو": 4238,
      "ribute": 4239,
      "▁development": 4240,
      "ّه": 4241,
      "all": 4242,
      "ناد": 4243,
      "فترة": 4244,
      "!!": 4245,
      "▁البار": 4246,
      "▁اش": 4247,
      "يص": 4248,
      "▁مرحلة": 4249,
      "▁بتح": 4250,
      "لاحظ": 4251,
      "▁احصل": 4252,
      "ثناء": 4253,
      "سيت": 4254,
      "▁وست": 4255,
      "▁الأقل": 4256,
      "▁بطريقة": 4257,
      "▁ماكينات": 4258,
      "▁عليهم": 4259,
      "▁الدقيقة": 4260,
      "▁مخط": 4261,
      "باع": 4262,
      "▁القوات": 4263,
      "▁الدع": 4264,
      "سيا": 4265,
      "عاد": 4266,
      "نائي": 4267,
      "▁199": 4268,
      "ontribute": 4269,
      "▁سجل": 4270,
      "قبال": 4271,
      "▁>": 4272,
      "80": 4273,
      "هه": 4274,
      "nd": 4275,
      "▁صنا": 4276,
      "▁اللَّ": 4277,
      "▁النس": 4278,
      "نا،": 4279,
      "▁مادة": 4280,
      "▁الاستثمار": 4281,
      "قدير": 4282,
      "▁creating": 4283,
      "▁الثقيلة": 4284,
      "جمالي": 4285,
      "▁يوفر": 4286,
      "▁المستوى": 4287,
      "لامات": 4288,
      "ب،": 4289,
      "▁بأنه": 4290,
      "▁60": 4291,
      "نوان": 4292,
      "▁كانوا": 4293,
      "▁بسهولة": 4294,
      "ew": 4295,
      "▁كس": 4296,
      "▁الأز": 4297,
      "▁الأجهزة": 4298,
      "hat": 4299,
      "▁ممكن": 4300,
      "زيا": 4301,
      "▁والتن": 4302,
      "ذن": 4303,
      "▁منصة": 4304,
      "▁ثق": 4305,
      "40": 4306,
      "▁وعدم": 4307,
      "بغي": 4308,
      "▁خيار": 4309,
      "▁بهدف": 4310,
      "▁محافظة": 4311,
      "طية": 4312,
      "نائ": 4313,
      "▁الانترنت": 4314,
      "▁قض": 4315,
      "▁محجر": 4316,
      "▁الإير": 4317,
      "يون": 4318,
      "داة": 4319,
      "▁تركيب": 4320,
      "▁ألمانيا": 4321,
      "and": 4322,
      "حين": 4323,
      "▁:\n": 4324,
      "▁لض": 4325,
      "▁كار": 4326,
      "تش": 4327,
      "يميا": 4328,
      "ادث": 4329,
      "برى": 4330,
      "ter": 4331,
      "▁صوت": 4332,
      "درجة": 4333,
      "▁أهداف": 4334,
      "▁عز": 4335,
      "▁الدور": 4336,
      "ميلة": 4337,
      "هناك": 4338,
      "اخلي": 4339,
      "▁الإجراءات": 4340,
      "▁المركزي": 4341,
      "▁الأمور": 4342,
      "▁الطلاب": 4343,
      "ظاهر": 4344,
      "ناق": 4345,
      "▁قناة": 4346,
      "▁مباشر": 4347,
      "خلا": 4348,
      "▁الجامعة": 4349,
      "▁أكتوبر": 4350,
      "▁النقل": 4351,
      "▁اشت": 4352,
      "▁الفني": 4353,
      "▁بالل": 4354,
      "▁فصل": 4355,
      "▁إعداد": 4356,
      "▁فإنه": 4357,
      "هلك": 4358,
      "ويم": 4359,
      "▁النار": 4360,
      "شارك": 4361,
      "em": 4362,
      "▁ريم": 4363,
      "جين": 4364,
      "▁الكمبيوتر": 4365,
      "▁الاستخدام": 4366,
      "ياد": 4367,
      "▁اج": 4368,
      "▁قلب": 4369,
      "4.": 4370,
      "▁حكم": 4371,
      "▁رمضان": 4372,
      "▁الأوروبي": 4373,
      "▁بلد": 4374,
      "▁نموذج": 4375,
      "▁السف": 4376,
      "▁الرق": 4377,
      "▁بيانات": 4378,
      "▁بور": 4379,
      "▁2017": 4380,
      "براهيم": 4381,
      "جاوز": 4382,
      "وخ": 4383,
      "قرر": 4384,
      "▁الحجم": 4385,
      "▁الحفاظ": 4386,
      "▁250": 4387,
      "ثي": 4388,
      "▁الحيوان": 4389,
      "2-": 4390,
      "os": 4391,
      "وافق": 4392,
      "ارتز": 4393,
      "one": 4394,
      "شرف": 4395,
      "▁حالات": 4396,
      "▁القراءة": 4397,
      "▁الأب": 4398,
      "▁صد": 4399,
      "▁وبال": 4400,
      "▁القرار": 4401,
      "▁الجبس": 4402,
      "ill": 4403,
      "▁المهم": 4404,
      "▁لله": 4405,
      "هلة": 4406,
      "أكد": 4407,
      "▁عص": 4408,
      "ولد": 4409,
      "▁الفع": 4410,
      "▁حزب": 4411,
      "▁القديمة": 4412,
      "▁الإسلامية": 4413,
      "▁الخض": 4414,
      "حتاج": 4415,
      "▁بان": 4416,
      "▁آل": 4417,
      "▁وصول": 4418,
      "rusher": 4419,
      "▁فيديو": 4420,
      "▁تدفق": 4421,
      "▁وبين": 4422,
      "ضيف": 4423,
      "▁المقب": 4424,
      ".\nع": 4425,
      "▁الحديثة": 4426,
      "▁المطل": 4427,
      "▁أحدث": 4428,
      "ته،": 4429,
      "▁الطبية": 4430,
      "▁400": 4431,
      "▁أَ": 4432,
      "▁رفض": 4433,
      "▁23": 4434,
      "▁y": 4435,
      "▁{": 4436,
      "▁سين": 4437,
      "ندي": 4438,
      "▁شرك": 4439,
      "▁التفاصيل": 4440,
      "▁الحركة": 4441,
      "▁العرض": 4442,
      "▁بدأ": 4443,
      "هذه": 4444,
      "▁اللون": 4445,
      "▁بالش": 4446,
      "▁معه": 4447,
      "▁مشت": 4448,
      "امت": 4449,
      "▁الحصى": 4450,
      "▁تجاه": 4451,
      "▁الصوت": 4452,
      "▁مسب": 4453,
      "ِين": 4454,
      "▁معينة": 4455,
      "زر": 4456,
      "▁والمع": 4457,
      "▁الطبيعية": 4458,
      "▁تقل": 4459,
      "طبيق": 4460,
      "اليات": 4461,
      "▁الأحمر": 4462,
      "▁مستعملة": 4463,
      "rice": 4464,
      "▁مقارنة": 4465,
      "▁السم": 4466,
      "ديا": 4467,
      "▁المسي": 4468,
      "كاليف": 4469,
      "▁لتحقيق": 4470,
      "▁المقا": 4471,
      "▁المفت": 4472,
      "▁جمع": 4473,
      "▁بقي": 4474,
      "▁رسالة": 4475,
      "▁المبا": 4476,
      "ww": 4477,
      "ّن": 4478,
      "▁300": 4479,
      "▁يزيد": 4480,
      "▁صيانة": 4481,
      "▁الكو": 4482,
      "▁افت": 4483,
      "▁لديه": 4484,
      "ظار": 4485,
      "ناه": 4486,
      "▁الأمم": 4487,
      "▁مناسبة": 4488,
      "▁\"أ": 4489,
      "▁مكت": 4490,
      "▁الأبيض": 4491,
      "▁تعليق": 4492,
      "▁بخ": 4493,
      "▁اللعبة": 4494,
      "عزيز": 4495,
      "ولى": 4496,
      "▁الغاز": 4497,
      "ُم": 4498,
      "▁ابت": 4499,
      "▁الأسطوانة": 4500,
      "سلوب": 4501,
      "▁عيد": 4502,
      "▁دائمًا": 4503,
      "▁بدأت": 4504,
      "▁المي": 4505,
      "خدمة": 4506,
      "لول": 4507,
      "▁الإف": 4508,
      "ري،": 4509,
      "ويق": 4510,
      "▁ساعات": 4511,
      "▁برامج": 4512,
      "بعاد": 4513,
      "▁المجموعة": 4514,
      "هوة": 4515,
      "زيارة": 4516,
      "▁إيران": 4517,
      "▁العسكرية": 4518,
      "▁العثور": 4519,
      "▁متنوعة": 4520,
      "▁المباراة": 4521,
      "▁وكانت": 4522,
      "قة،": 4523,
      "▁التم": 4524,
      "▁اتفاق": 4525,
      "▁الار": 4526,
      "شير": 4527,
      "▁الوزارة": 4528,
      "▁الجمعة": 4529,
      "▁القوة": 4530,
      "▁أبرز": 4531,
      "قائق": 4532,
      "ساعدة": 4533,
      "▁أصحاب": 4534,
      "▁اع": 4535,
      "▁لديها": 4536,
      "ميات": 4537,
      "▁الدورة": 4538,
      "▁المحلي": 4539,
      "▁٢": 4540,
      "▁الري": 4541,
      "▁سعيد": 4542,
      "▁الأغ": 4543,
      "▁الاقتصادي": 4544,
      ".\nن": 4545,
      "▁متعددة": 4546,
      "خطط": 4547,
      "شق": 4548,
      "▁إزالة": 4549,
      "▁حدوث": 4550,
      "▁العين": 4551,
      "▁التقلي": 4552,
      "راقي": 4553,
      "▁للر": 4554,
      "يمان": 4555,
      "▁الرم": 4556,
      "▁أكد": 4557,
      "▁لون": 4558,
      "▁منخفض": 4559,
      "▁واسعة": 4560,
      "▁تعلم": 4561,
      "صيل": 4562,
      "مة،": 4563,
      "ميزات": 4564,
      "كذا": 4565,
      "▁عَل": 4566,
      "▁التكنولوجيا": 4567,
      "▁ستكون": 4568,
      "tp": 4569,
      "▁الموظف": 4570,
      "▁ملا": 4571,
      "▁سطح": 4572,
      "▁النت": 4573,
      "▁نوف": 4574,
      "▁غرفة": 4575,
      "ونَ": 4576,
      "▁امر": 4577,
      "▁حب": 4578,
      "um": 4579,
      "▁ملك": 4580,
      "▁يغ": 4581,
      "تمبر": 4582,
      "اما": 4583,
      "غبة": 4584,
      "▁«ال": 4585,
      "ــــــــ": 4586,
      "تاح": 4587,
      "▁تتح": 4588,
      "ليس": 4589,
      "▁مبار": 4590,
      "▁كوب": 4591,
      "▁26": 4592,
      "▁الجل": 4593,
      "▁الحلم": 4594,
      "▁كتب": 4595,
      "▁المعدنية": 4596,
      "▁بالج": 4597,
      "لالة": 4598,
      "▁رؤ": 4599,
      "qu": 4600,
      "▁الأق": 4601,
      "▁العص": 4602,
      "▁بني": 4603,
      "ec": 4604,
      ",م": 4605,
      "ach": 4606,
      "زايا": 4607,
      "▁موقف": 4608,
      "▁نفسها": 4609,
      "▁الإصابة": 4610,
      "▁ألا": 4611,
      "\nكسارة": 4612,
      "▁منع": 4613,
      "__": 4614,
      "كور": 4615,
      "ونيس": 4616,
      "اقرأ": 4617,
      "▁الأوسط": 4618,
      "▁بالكامل": 4619,
      "▁الطبيب": 4620,
      "▁حز": 4621,
      "وسة": 4622,
      "▁الكهربائية": 4623,
      "▁الدراسة": 4624,
      "▁الطبيعي": 4625,
      "بادرة": 4626,
      "وثوق": 4627,
      "▁سوى": 4628,
      "امن": 4629,
      "مني": 4630,
      "▁التغ": 4631,
      "\nح": 4632,
      ".\nوأكد": 4633,
      "▁السبب": 4634,
      "▁سيد": 4635,
      "صطنا": 4636,
      "البًا": 4637,
      "▁قوية": 4638,
      "▁الفنية": 4639,
      "وانين": 4640,
      "▁فور": 4641,
      "▁أخذ": 4642,
      "منطقة": 4643,
      "▁زيارة": 4644,
      "ers": 4645,
      "▁تعليم": 4646,
      "ارق": 4647,
      "▁مساحة": 4648,
      "فو": 4649,
      "ستراليا": 4650,
      "▁تكن": 4651,
      "▁القض": 4652,
      "روح": 4653,
      "▁أنك": 4654,
      "هو": 4655,
      "▁حمل": 4656,
      "▁الكال": 4657,
      "سمبر": 4658,
      "▁تشكيل": 4659,
      "شط": 4660,
      "▁الأهلي": 4661,
      "▁المتعلقة": 4662,
      "▁حكومة": 4663,
      "▁خيارات": 4664,
      "▁إع": 4665,
      "▁موعد": 4666,
      "▁وكيف": 4667,
      "200": 4668,
      "▁النوم": 4669,
      "▁دخل": 4670,
      "▁موج": 4671,
      "▁27": 4672,
      "▁توق": 4673,
      "▁الفصل": 4674,
      "شاب": 4675,
      "▁مار": 4676,
      "▁الصناعة": 4677,
      "▁لإن": 4678,
      "فرة": 4679,
      "▁مرات": 4680,
      "▁السودان": 4681,
      "ail": 4682,
      "▁فيلم": 4683,
      "دخل": 4684,
      "▁الحال": 4685,
      "▁.\nال": 4686,
      "▁يأ": 4687,
      "حدد": 4688,
      "▁الغذائية": 4689,
      "ائزة": 4690,
      "▁وير": 4691,
      "▁وهم": 4692,
      "▁المعا": 4693,
      "صدق": 4694,
      "فعة": 4695,
      "بنى": 4696,
      "▁تحويل": 4697,
      "▁يناير": 4698,
      "▁المناسبة": 4699,
      "ربونات": 4700,
      "▁العامل": 4701,
      "هلاك": 4702,
      "فقات": 4703,
      "▁إح": 4704,
      "▁الشه": 4705,
      "▁المشاركة": 4706,
      "▁أعضاء": 4707,
      "؛\n-": 4708,
      "▁ربما": 4709,
      "غلاق": 4710,
      "▁لغ": 4711,
      "ريحة": 4712,
      "▁21": 4713,
      "مبر": 4714,
      "▁المسا": 4715,
      "▁صحة": 4716,
      "افر": 4717,
      "كمل": 4718,
      "ارتفاع": 4719,
      "▁عامة": 4720,
      "▁الفلسطينية": 4721,
      "▁الموسم": 4722,
      "//": 4723,
      "▁بحسب": 4724,
      "كيفية": 4725,
      "صين": 4726,
      "طحنة": 4727,
      "▁يزال": 4728,
      "شروع": 4729,
      "▁التابعة": 4730,
      "وصيل": 4731,
      "▁سيارة": 4732,
      "▁الساد": 4733,
      "▁الشرطة": 4734,
      "▁is": 4735,
      "▁ذهب": 4736,
      "فقة": 4737,
      "▁دخول": 4738,
      "سي،": 4739,
      "دي،": 4740,
      "وسف": 4741,
      "مام": 4742,
      "▁منظمة": 4743,
      "قلة": 4744,
      "ستي": 4745,
      "وزارة": 4746,
      "ساطة": 4747,
      "\nف": 4748,
      "▁الأيام": 4749,
      "هب": 4750,
      "▁كلا": 4751,
      "بحت": 4752,
      "ارف": 4753,
      "هوم": 4754,
      "▁لوحة": 4755,
      "احث": 4756,
      "لقى": 4757,
      "بض": 4758,
      "▁الآلات": 4759,
      "▁تبدأ": 4760,
      "99": 4761,
      "نتي": 4762,
      "حقوق": 4763,
      "▁السلطات": 4764,
      "▁افضل": 4765,
      "▁يقل": 4766,
      "▁نز": 4767,
      "\nب": 4768,
      "▁لأنها": 4769,
      "وليو": 4770,
      "▁نجاح": 4771,
      "فاوض": 4772,
      "▁تشمل": 4773,
      "▁السكر": 4774,
      "▁متح": 4775,
      "فكير": 4776,
      "▁الموردين": 4777,
      "▁التنمية": 4778,
      "▁الياب": 4779,
      "▁التعب": 4780,
      "ماكن": 4781,
      "وسطة": 4782,
      "▁i": 4783,
      "▁نائب": 4784,
      "22": 4785,
      "▁مواجهة": 4786,
      "▁الإنجلي": 4787,
      "▁الخيار": 4788,
      "▁السر": 4789,
      "▁كمية": 4790,
      "▁للمر": 4791,
      "كمال": 4792,
      "▁الأحيان": 4793,
      "راث": 4794,
      "▁رمل": 4795,
      "ورو": 4796,
      "شهد": 4797,
      "▁الأخير": 4798,
      "ak": 4799,
      "▁الأشياء": 4800,
      "▁دا": 4801,
      "▁2.": 4802,
      "▁اللقاء": 4803,
      ".\nإ": 4804,
      "▁ينبغي": 4805,
      "5.": 4806,
      "▁مناف": 4807,
      "▁pro": 4808,
      "▁الحب": 4809,
      "▁مستويات": 4810,
      "▁المؤسسات": 4811,
      "مسة": 4812,
      "▁وإذا": 4813,
      "▁الصلب": 4814,
      "ارير": 4815,
      "▁ذا": 4816,
      "▁الساخ": 4817,
      "▁الدفع": 4818,
      "ويض": 4819,
      "▁الماضي،": 4820,
      "▁أنهم": 4821,
      "▁الجاري": 4822,
      "▁اتخاذ": 4823,
      "▁ضرورة": 4824,
      "▁البرو": 4825,
      "▁أسبوع": 4826,
      "رار": 4827,
      "▁عناصر": 4828,
      "▁الروسية": 4829,
      "▁كرة": 4830,
      "▁القائمة": 4831,
      "▁التربية": 4832,
      "بدال": 4833,
      "يدرولي": 4834,
      "▁نشاط": 4835,
      "▁معدل": 4836,
      "▁الزوج": 4837,
      "▁فرص": 4838,
      "▁لز": 4839,
      "▁المقد": 4840,
      "بعة": 4841,
      "ce": 4842,
      "▁يسمح": 4843,
      "▁قامت": 4844,
      "▁أصبحت": 4845,
      "بارات": 4846,
      "وجب": 4847,
      "اربة": 4848,
      "اعي": 4849,
      "▁الضروري": 4850,
      "▁الخميس": 4851,
      "▁انخفاض": 4852,
      "▁المحكمة": 4853,
      "▁شاشة": 4854,
      "واز": 4855,
      "▁المعت": 4856,
      "رقام": 4857,
      "▁الحدود": 4858,
      "▁الأموال": 4859,
      "▁العالم،": 4860,
      "▁البيئة": 4861,
      "▁قراءة": 4862,
      "آخر": 4863,
      "خصوص": 4864,
      "▁كثيرة": 4865,
      "▁التصميم": 4866,
      "تامين": 4867,
      "▁الإلكترونية": 4868,
      "ين.\n": 4869,
      "وعية": 4870,
      "باق": 4871,
      "▁الحزام": 4872,
      "▁مناسب": 4873,
      "▁القيا": 4874,
      "فال": 4875,
      "▁بتن": 4876,
      "▁تجعل": 4877,
      "كري": 4878,
      "يروس": 4879,
      "▁أبد": 4880,
      "▁الأمراض": 4881,
      "صات": 4882,
      "▁صفحة": 4883,
      "▁التكسير": 4884,
      "▁السيليكا": 4885,
      "▁للك": 4886,
      "▁وتق": 4887,
      "وية،": 4888,
      "▁تمامًا": 4889,
      "▁قاعدة": 4890,
      "▁بنك": 4891,
      "▁الاجتماع": 4892,
      "ليمي": 4893,
      "▁كهرب": 4894,
      "▁الحساب": 4895,
      "▁بلاد": 4896,
      "▁للتح": 4897,
      "أكيد": 4898,
      "▁الاتفاق": 4899,
      "▁الممت": 4900,
      "▁أعلنت": 4901,
      "▁يرت": 4902,
      "▁28": 4903,
      "▁أساسي": 4904,
      "▁يَ": 4905,
      "ِهِ": 4906,
      "Read": 4907,
      "ه:": 4908,
      "▁يونيو": 4909,
      "▁علامة": 4910,
      "▁البشرة": 4911,
      "▁الباب": 4912,
      "▁فِي": 4913,
      "▁الصلاة": 4914,
      "▁المنش": 4915,
      "زز": 4916,
      "وميت": 4917,
      "ِر": 4918,
      "▁العمليات": 4919,
      "▁أسباب": 4920,
      "ذل": 4921,
      "بطال": 4922,
      "ندس": 4923,
      "▁لكي": 4924,
      "▁برا": 4925,
      "▁الأسهم": 4926,
      "اا": 4927,
      "قاطع": 4928,
      "▁مكافحة": 4929,
      "▁عين": 4930,
      "▁الأعلى": 4931,
      "▁تقريب": 4932,
      "▁السفر": 4933,
      "جنب": 4934,
      "▁علاقة": 4935,
      "▁التو": 4936,
      "▁شأن": 4937,
      "▁لاب": 4938,
      "بي،": 4939,
      "اسم": 4940,
      "▁عمان": 4941,
      "▁استخراج": 4942,
      "▁منح": 4943,
      "▁السنوات": 4944,
      "قيام": 4945,
      "▁مقا": 4946,
      "▁القيادة": 4947,
      "التزام": 4948,
      "▁خلالها": 4949,
      "راجعة": 4950,
      "▁حرارة": 4951,
      "▁الصانع": 4952,
      "▁خصوص": 4953,
      "▁تمكن": 4954,
      "▁150": 4955,
      "▁الروايات": 4956,
      "▁نقاط": 4957,
      "▁الكوارتز": 4958,
      "▁الأج": 4959,
      "▁وكالة": 4960,
      "▁قل": 4961,
      "▁مؤسسة": 4962,
      "▁الخليج": 4963,
      "▁كام": 4964,
      "▁وتج": 4965,
      "▁لأي": 4966,
      "▁والل": 4967,
      "Ø§": 4968,
      "▁ممارسة": 4969,
      "▁لديهم": 4970,
      "▁البريط": 4971,
      "ريحات": 4972,
      "://": 4973,
      "ندق": 4974,
      "ويس": 4975,
      ".\nما": 4976,
      "نوات": 4977,
      "▁فهذا": 4978,
      "▁وخاصة": 4979,
      "ديقة": 4980,
      "▁للعمل": 4981,
      "همية": 4982,
      "▁لكرة": 4983,
      "▁سبتمبر": 4984,
      "ap": 4985,
      "ي.": 4986,
      "تا": 4987,
      "▁ديسمبر": 4988,
      "▁يمت": 4989,
      "▁الاصطنا": 4990,
      "▁المحا": 4991,
      "▁النتائج": 4992,
      "▁حاجة": 4993,
      "Contribute": 4994,
      "oc": 4995,
      "منتجات": 4996,
      "▁والز": 4997,
      "▁(ي": 4998,
      "\nإ": 4999,
      "باه": 5000,
      "▁حقيقة": 5001,
      "عدد": 5002,
      "▁صالح": 5003,
      "▁صلاح": 5004,
      "▁المصدر": 5005,
      "▁شرق": 5006,
      "▁فحص": 5007,
      "▁قطعة": 5008,
      "▁العليا": 5009,
      "▁ومست": 5010,
      "ـــ": 5011,
      "▁دوري": 5012,
      "ن،": 5013,
      "ضل": 5014,
      "يير": 5015,
      "طال": 5016,
      "▁تسبب": 5017,
      "▁أدوات": 5018,
      "رافي": 5019,
      "▁البدا": 5020,
      "▁المشكلة": 5021,
      "▁اختبار": 5022,
      "▁الفنان": 5023,
      "اتهم": 5024,
      "امر": 5025,
      "ov": 5026,
      "▁الخل": 5027,
      "قًا": 5028,
      "▁إجراءات": 5029,
      "▁البال": 5030,
      "▁ماليزيا": 5031,
      "واة": 5032,
      "▁في,": 5033,
      "▁يبلغ": 5034,
      "▁الفرق": 5035,
      "▁الثالثة": 5036,
      "▁العسكري": 5037,
      "▁جو": 5038,
      "▁حرب": 5039,
      "▁أمير": 5040,
      "براير": 5041,
      "ube": 5042,
      "▁حدود": 5043,
      "▁اغ": 5044,
      "▁عش": 5045,
      "▁المطلوبة": 5046,
      "▁الحاجة": 5047,
      "▁الديمقرا": 5048,
      "23": 5049,
      "▁نقدم": 5050,
      "▁العناصر": 5051,
      "غرة": 5052,
      "▁جان": 5053,
      ".\nح": 5054,
      "ئين": 5055,
      "▁ومح": 5056,
      "▁يستطيع": 5057,
      "يبة": 5058,
      "▁بحاجة": 5059,
      "ثيل": 5060,
      "▁ثابت": 5061,
      "▁محاولة": 5062,
      "▁الضوء": 5063,
      "آلات": 5064,
      "يره": 5065,
      "▁ولد": 5066,
      "▁فَ": 5067,
      "رجع": 5068,
      "رص": 5069,
      "▁الجمهورية": 5070,
      "ساد": 5071,
      "▁الوجه": 5072,
      "-0": 5073,
      "▁غض": 5074,
      "▁الهدف": 5075,
      "▁قائ": 5076,
      "اوية": 5077,
      "▁مجرد": 5078,
      "▁فلسطين": 5079,
      "▁إصدار": 5080,
      "▁المدرسة": 5081,
      "▁خالد": 5082,
      "اعتبار": 5083,
      "▁كر": 5084,
      "خلق": 5085,
      "▁الفرد": 5086,
      "حداث": 5087,
      "▁وتس": 5088,
      "▁لفترة": 5089,
      "واك": 5090,
      "26": 5091,
      "▁المهنية": 5092,
      "ولين": 5093,
      "▁إست": 5094,
      "▁0.": 5095,
      "▁رياض": 5096,
      "▁المنتخب": 5097,
      "▁يظهر": 5098,
      "ور،": 5099,
      "غطية": 5100,
      "فيفة": 5101,
      "▁المسلمين": 5102,
      "عيم": 5103,
      "▁̈": 5104,
      "▁بشر": 5105,
      "▁القضاء": 5106,
      "▁وظائف": 5107,
      "▁لكنه": 5108,
      "▁النقد": 5109,
      "ip": 5110,
      "▁آلاف": 5111,
      "▁النات": 5112,
      "est": 5113,
      "▁\"م": 5114,
      "▁انتشار": 5115,
      "▁ترت": 5116,
      "▁(م": 5117,
      "▁عنوان": 5118,
      "ذف": 5119,
      "▁الجي": 5120,
      "▁سيارات": 5121,
      "▁وفا": 5122,
      "▁التسجيل": 5123,
      "قلت": 5124,
      "▁قالت": 5125,
      "▁Ù": 5126,
      "▁انتاج": 5127,
      "كيد": 5128,
      "طيب": 5129,
      "▁وأم": 5130,
      "▁جهود": 5131,
      "▁لأول": 5132,
      "▁محتوى": 5133,
      "od": 5134,
      "▁الطرف": 5135,
      "رائم": 5136,
      "▁الرجال": 5137,
      "▁مال": 5138,
      "ويتر": 5139,
      "جلي": 5140,
      "▁سليم": 5141,
      "▁احتياجات": 5142,
      "▁تدري": 5143,
      "آت": 5144,
      "▁اجتماع": 5145,
      "▁فكرة": 5146,
      "▁الحوث": 5147,
      "احات": 5148,
      "▁العالي": 5149,
      "لفزي": 5150,
      "▁المؤسسة": 5151,
      "2023": 5152,
      "شفت": 5153,
      "▁وراء": 5154,
      "▁طالب": 5155,
      "ينغ": 5156,
      "▁التجار": 5157,
      "▁بطاقة": 5158,
      "▁دار": 5159,
      "▁وأي": 5160,
      "صيد": 5161,
      "▁الاد": 5162,
      "رهاب": 5163,
      "▁البريد": 5164,
      "▁نوفمبر": 5165,
      "▁الرسمية": 5166,
      "▁شه": 5167,
      "▁الرياضية": 5168,
      "▁بالب": 5169,
      "وها": 5170,
      "▁الأسود": 5171,
      "▁اد": 5172,
      "▁“أ": 5173,
      "▁الألعاب": 5174,
      "▁ويس": 5175,
      "حافظة": 5176,
      "▁رائعة": 5177,
      "احت": 5178,
      "▁تأتي": 5179,
      "▁ثانية": 5180,
      "27": 5181,
      "ظمات": 5182,
      "▁روب": 5183,
      "َف": 5184,
      "▁البرامج": 5185,
      "▁صع": 5186,
      "ونه": 5187,
      "ناسبة": 5188,
      "▁غسيل": 5189,
      "ِينَ": 5190,
      "▁الميز": 5191,
      "▁2024": 5192,
      "▁خلي": 5193,
      "▁المالي": 5194,
      "▁ماذا": 5195,
      "▁اعتبار": 5196,
      "ُر": 5197,
      "فكار": 5198,
      "وائل": 5199,
      "▁الرخام": 5200,
      "▁خطر": 5201,
      "▁2014": 5202,
      "ادم": 5203,
      "▁خطوط": 5204,
      "نز": 5205,
      "▁الوسط": 5206,
      "ئك": 5207,
      "ويب": 5208,
      "▁الكهرباء": 5209,
      "ون.": 5210,
      "افع": 5211,
      "▁الثلاثاء": 5212,
      "▁مسلسل": 5213,
      "▁الأساسي": 5214,
      "▁.\n-": 5215,
      "ُونَ": 5216,
      "شح": 5217,
      "▁ورد": 5218,
      "▁درجات": 5219,
      "▁تجد": 5220,
      "▁مِنْ": 5221,
      "ort": 5222,
      "▁الظروف": 5223,
      "▁مخطط": 5224,
      "▁المطاحن": 5225,
      "▁الصفحة": 5226,
      "▁؛\n-": 5227,
      "اوز": 5228,
      "▁قتل": 5229,
      "▁العراقي": 5230,
      "▁يصبح": 5231,
      "▁الغربية": 5232,
      "علانات": 5233,
      "▁القول": 5234,
      "▁كشف": 5235,
      ".\nوا": 5236,
      "▁المهمة": 5237,
      "ورت": 5238,
      "▁.\nو": 5239,
      "▁العلمي": 5240,
      "▁تهتز": 5241,
      "▁وفقا": 5242,
      "نوع": 5243,
      "ولية": 5244,
      "▁محافظ": 5245,
      "▁النز": 5246,
      "▁محمود": 5247,
      "جح": 5248,
      "▁مايو": 5249,
      "شمس": 5250,
      "▁بأي": 5251,
      "▁مقال": 5252,
      "▁أخرى،": 5253,
      "▁بطولة": 5254,
      "فز": 5255,
      "▁تعريف": 5256,
      "▁مجانية": 5257,
      "\nالت": 5258,
      "▁الإيج": 5259,
      "▁اليوم،": 5260,
      "مرة": 5261,
      "bab": 5262,
      "▁فرض": 5263,
      "▁صحيفة": 5264,
      "▁البيع": 5265,
      "▁عضو": 5266,
      "res": 5267,
      "▁for": 5268,
      "▁جسم": 5269,
      "ائه": 5270,
      "▁الخير": 5271,
      ".\nإذا": 5272,
      "▁معت": 5273,
      "▁...\nال": 5274,
      "صرية": 5275,
      "▁شبه": 5276,
      "▁المشاكل": 5277,
      "ذين": 5278,
      "▁الزرا": 5279,
      "▁الوف": 5280,
      "▁العقل": 5281,
      ".\nومن": 5282,
      "▁طف": 5283,
      "▁الحكومية": 5284,
      "▁المبار": 5285,
      "▁مؤشر": 5286,
      "▁النباتات": 5287,
      "▁التب": 5288,
      "▁1000": 5289,
      "▁You": 5290,
      "▁حلول": 5291,
      "▁الرأس": 5292,
      "▁يبدأ": 5293,
      "ناع": 5294,
      "يلم": 5295,
      "طلع": 5296,
      "▁لاعب": 5297,
      "45": 5298,
      "طلاع": 5299,
      "غاء": 5300,
      "▁النهائي": 5301,
      "▁X": 5302,
      "وليد": 5303,
      "▁مدار": 5304,
      "▁لماذا": 5305,
      "وي،": 5306,
      "ام،": 5307,
      "▁خير": 5308,
      "رويج": 5309,
      "▁الملابس": 5310,
      "▁الاتجاه": 5311,
      "▁لتج": 5312,
      "▁الدست": 5313,
      "▁علينا": 5314,
      "▁فوائد": 5315,
      "▁المقاومة": 5316,
      "▁أعلن": 5317,
      "ونغ": 5318,
      "??": 5319,
      "▁الانتخابات": 5320,
      "راوح": 5321,
      "▁أخبار": 5322,
      "▁يحمل": 5323,
      "▁2013": 5324,
      "▁وهذه": 5325,
      "▁هاتف": 5326,
      ".\nب": 5327,
      "▁إمكانية": 5328,
      "▁الداخلي": 5329,
      "طباء": 5330,
      "خصيص": 5331,
      "▁خلق": 5332,
      "▁مقر": 5333,
      "▁وو": 5334,
      "▁k": 5335,
      "▁قيم": 5336,
      "▁80": 5337,
      "▁الأسنان": 5338,
      "فعت": 5339,
      "▁يعيش": 5340,
      "▁قادر": 5341,
      "▁الحج": 5342,
      "ونيسيا": 5343,
      "دة.": 5344,
      "ماغ": 5345,
      "قتصادية": 5346,
      "▁العالية": 5347,
      "قيقية": 5348,
      "▁سكان": 5349,
      "رويد": 5350,
      "ْد": 5351,
      "▁المشاريع": 5352,
      "▁اهتمام": 5353,
      "▁امرأة": 5354,
      "▁198": 5355,
      "▁المواقع": 5356,
      "▁الها": 5357,
      "▁استخدامها": 5358,
      "▁الجهات": 5359,
      "--": 5360,
      "▁القيمة": 5361,
      "أم": 5362,
      "▁يم": 5363,
      "▁نيوز": 5364,
      "▁فرنسا": 5365,
      ".\nوقد": 5366,
      "▁الأصل": 5367,
      "▁الرطب": 5368,
      "ربما": 5369,
      "▁فبراير": 5370,
      "▁البشرية": 5371,
      "▁يشير": 5372,
      "ضرار": 5373,
      "عو": 5374,
      "شات": 5375,
      "▁التنفيذ": 5376,
      "ّي": 5377,
      "▁تمر": 5378,
      "▁والمست": 5379,
      "قته": 5380,
      "▁الحالية": 5381,
      "▁شهادة": 5382,
      "▁الكامل": 5383,
      "▁المشار": 5384,
      "▁الكبرى": 5385,
      "▁الثنائية": 5386,
      "▁باك": 5387,
      "▁الاشت": 5388,
      "ألة": 5389,
      "رجمة": 5390,
      "▁وأس": 5391,
      "▁ميز": 5392,
      "▁جاه": 5393,
      "رقم": 5394,
      "▁دائما": 5395,
      "▁للخ": 5396,
      "▁طوال": 5397,
      "▁الشت": 5398,
      "ولت": 5399,
      "فيذي": 5400,
      "عن": 5401,
      "فيض": 5402,
      "▁ونحن": 5403,
      "َّا": 5404,
      "ناس": 5405,
      "▁ذو": 5406,
      "▁غيار": 5407,
      "▁تحليل": 5408,
      "▁صندوق": 5409,
      "▁دقائق": 5410,
      "▁الأسواق": 5411,
      "▁نيج": 5412,
      "▁العلاقة": 5413,
      "سمع": 5414,
      "▁شخصية": 5415,
      "▁فيروس": 5416,
      "اعم": 5417,
      "▁كريم": 5418,
      "كلف": 5419,
      "▁الصينية": 5420,
      "▁يحصل": 5421,
      "ارض": 5422,
      "جون": 5423,
      "بيه": 5424,
      "▁تحديث": 5425,
      "▁صار": 5426,
      "غني": 5427,
      "▁ملموسة": 5428,
      "▁مشاهدة": 5429,
      "هاء": 5430,
      "▁ميل": 5431,
      "▁600": 5432,
      ",كسارة": 5433,
      "▁اسعار": 5434,
      "▁تقنية": 5435,
      "▁إرسال": 5436,
      "28": 5437,
      "▁البرا": 5438,
      "واجهة": 5439,
      "ماش": 5440,
      "▁طرف": 5441,
      "▁حاول": 5442,
      "▁مدة": 5443,
      "▁عديدة": 5444,
      "▁طويل": 5445,
      "▁الغذائي": 5446,
      "▁بهم": 5447,
      "▁الموارد": 5448,
      "ضى": 5449,
      "▁الآخرين": 5450,
      "▁الشعبي": 5451,
      "جاء": 5452,
      "كتر": 5453,
      "▁الجمهور": 5454,
      "▁القانونية": 5455,
      "ثاث": 5456,
      "\nس": 5457,
      "▁وتأ": 5458,
      "كرانيا": 5459,
      "▁القدس": 5460,
      "▁الماضية": 5461,
      "بادئ": 5462,
      "▁قريب": 5463,
      "▁إبراهيم": 5464,
      "baba": 5465,
      "▁متوسط": 5466,
      "ضيع": 5467,
      "▁الغرب": 5468,
      "▁29": 5469,
      "▁محرك": 5470,
      "▁الشكل": 5471,
      "▁تغير": 5472,
      "▁الكرب": 5473,
      "ندات": 5474,
      "ان.": 5475,
      "▁الأداء": 5476,
      "▁جمال": 5477,
      "▁تثبيت": 5478,
      "▁النشاط": 5479,
      "روعات": 5480,
      "▁نقص": 5481,
      "صدقاء": 5482,
      "▁الموت": 5483,
      "▁منف": 5484,
      "▁بسيطة": 5485,
      "كلات": 5486,
      "ذات": 5487,
      "▁استمرار": 5488,
      "▁يمثل": 5489,
      "ارا": 5490,
      "وّ": 5491,
      "▁بالر": 5492,
      "▁ضبط": 5493,
      "▁مرك": 5494,
      "og": 5495,
      "▁لقاء": 5496,
      "▁تبحث": 5497,
      "▁للتن": 5498,
      "ِم": 5499,
      "▁ترغب": 5500,
      "▁مبدأ": 5501,
      "3-": 5502,
      "▁منتخب": 5503,
      "بداع": 5504,
      "▁أعرف": 5505,
      "▁رجال": 5506,
      "▁التجاري": 5507,
      "our": 5508,
      "▁وهناك": 5509,
      "وَ": 5510,
      "▁انا": 5511,
      "انية،": 5512,
      "▁العب": 5513,
      "▁المتوسط": 5514,
      "▁الخبر": 5515,
      "▁التطبيقات": 5516,
      "▁شروط": 5517,
      "زق": 5518,
      "▁المحاجر": 5519,
      "▁واضح": 5520,
      "▁تزال": 5521,
      "▁فان": 5522,
      "عمار": 5523,
      "▁يحب": 5524,
      "ÙØ§": 5525,
      "▁طال": 5526,
      "▁أفراد": 5527,
      "كشف": 5528,
      "▁الاح": 5529,
      "▁الأمنية": 5530,
      ".\nوقالت": 5531,
      "▁مقد": 5532,
      "▁الباحث": 5533,
      "▁الحزب": 5534,
      "▁المعرفة": 5535,
      "▁النواب": 5536,
      "▁لضمان": 5537,
      "ذار": 5538,
      "▁يعتمد": 5539,
      "▁الدردشة": 5540,
      "▁ملع": 5541,
      "قاد": 5542,
      "\nما": 5543,
      "ينت": 5544,
      "غرب": 5545,
      "▁الحقيقة": 5546,
      "وره": 5547,
      "▁والتعليم": 5548,
      "ائرات": 5549,
      "▁tph": 5550,
      "إضافة": 5551,
      "ob": 5552,
      "سطس": 5553,
      "▁أُ": 5554,
      "▁الزمن": 5555,
      ".\nوأشار": 5556,
      "▁خمس": 5557,
      "▁أنفس": 5558,
      "▁وفر": 5559,
      "▁قيا": 5560,
      "▁يقع": 5561,
      "وسع": 5562,
      "يوب": 5563,
      "ik": 5564,
      "▁السورية": 5565,
      "ختار": 5566,
      "▁المنظمة": 5567,
      "▁روح": 5568,
      "▁الحقيقي": 5569,
      "▁العلوم": 5570,
      "امات": 5571,
      "▁تعا": 5572,
      "▁الست": 5573,
      "▁منش": 5574,
      "▁مياه": 5575,
      "▁بالف": 5576,
      "▁التدريب": 5577,
      "▁والعمل": 5578,
      "▁القادمة": 5579,
      "70": 5580,
      "▁حزيران": 5581,
      "▁الرابع": 5582,
      "out": 5583,
      "▁الأدوية": 5584,
      "▁الدر": 5585,
      "▁2015": 5586,
      "مرت": 5587,
      "▁الفرنسي": 5588,
      "فف": 5589,
      "▁اعتماد": 5590,
      "▁عالي": 5591,
      "ضغط": 5592,
      "▁النادي": 5593,
      "▁المكتب": 5594,
      "▁محل": 5595,
      "▁الصحيح": 5596,
      "▁سنت": 5597,
      "▁بز": 5598,
      "قى": 5599,
      "▁أربعة": 5600,
      "▁العزيز": 5601,
      "ناسب": 5602,
      "▁سيت": 5603,
      "▁الحا": 5604,
      "▁GitHub.": 5605,
      "▁تقييم": 5606,
      "▁ضرب": 5607,
      "دامة": 5608,
      "▁تكوين": 5609,
      "▁لمح": 5610,
      "روك": 5611,
      "واطن": 5612,
      "▁صحي": 5613,
      "▁تشير": 5614,
      "▁واله": 5615,
      "واجد": 5616,
      "▁الإمام": 5617,
      "وصول": 5618,
      "▁لات": 5619,
      "مطحنة": 5620,
      "▁وظيفة": 5621,
      "لة.": 5622,
      "وأ": 5623,
      "▁المؤتمر": 5624,
      "روفة": 5625,
      "▁عروض": 5626,
      "▁التقرير": 5627,
      "انوني": 5628,
      "َه": 5629,
      "فيدة": 5630,
      "▁الثقافة": 5631,
      "▁التغيير": 5632,
      "29": 5633,
      "▁التخلص": 5634,
      "▁جداً": 5635,
      "▁الصناعي": 5636,
      "▁كلية": 5637,
      "▁الزجاج": 5638,
      "ر،": 5639,
      "▁تصبح": 5640,
      "▁الكالسيوم": 5641,
      "▁شن": 5642,
      "▁بينها": 5643,
      "ساسية": 5644,
      "▁العلمية": 5645,
      "▁الإش": 5646,
      "يقاف": 5647,
      "▁معها": 5648,
      "▁الاهتمام": 5649,
      "سيد": 5650,
      "وريد": 5651,
      "/20": 5652,
      "كومة": 5653,
      "▁مات": 5654,
      "▁تقول": 5655,
      "▁يدل": 5656,
      "35": 5657,
      "عراض": 5658,
      "▁المذك": 5659,
      "▁للأس": 5660,
      "ماذج": 5661,
      "▁معنى": 5662,
      "▁كفاءة": 5663,
      ".\nوكان": 5664,
      "▁والمن": 5665,
      "وحدة": 5666,
      "برنامج": 5667,
      "▁المعلم": 5668,
      "فعال": 5669,
      "َح": 5670,
      "▁مربع": 5671,
      "▁مان": 5672,
      "▁الوج": 5673,
      "طفى": 5674,
      "▁الإنسانية": 5675,
      "▁الهد": 5676,
      "▁العميل": 5677,
      "▁الاب": 5678,
      "▁للأطفال": 5679,
      "▁لعب": 5680,
      "▁الكيميا": 5681,
      "زمات": 5682,
      "فى": 5683,
      "▁أبناء": 5684,
      "▁قصة": 5685,
      "رقة": 5686,
      "▁وانت": 5687,
      "▁الليل": 5688,
      "▁خطوة": 5689,
      "▁مرور": 5690,
      "▁الخطوات": 5691,
      "يابة": 5692,
      "▁توزيع": 5693,
      "كاء": 5694,
      "▁وجد": 5695,
      "▁أصل": 5696,
      "▁تدخل": 5697,
      "جمة": 5698,
      "منى": 5699,
      "ية\n": 5700,
      "▁US": 5701,
      "▁تقع": 5702,
      "▁ده": 5703,
      "▁المحافظة": 5704,
      "ا.": 5705,
      "لقاء": 5706,
      "▁اتجاه": 5707,
      "▁الإست": 5708,
      "▁رك": 5709,
      "ينما": 5710,
      "طلقت": 5711,
      "▁وقف": 5712,
      "▁ضمان": 5713,
      "▁نسب": 5714,
      "▁لمع": 5715,
      "▁بمع": 5716,
      "قوط": 5717,
      "داخل": 5718,
      "6.": 5719,
      "▁التنفيذي": 5720,
      "▁يوليو": 5721,
      "وهات": 5722,
      "خين": 5723,
      "▁التنظيم": 5724,
      "▁دائرة": 5725,
      "▁قيادة": 5726,
      "▁قوي": 5727,
      "▁والان": 5728,
      "▁الساح": 5729,
      "ترات": 5730,
      "▁مشاركة": 5731,
      "َان": 5732,
      "▁العلماء": 5733,
      "▁استراتيجية": 5734,
      "▁تواجه": 5735,
      "▁التقنية": 5736,
      "▁نيجيريا": 5737,
      "▁الجوية": 5738,
      "▁الشيء": 5739,
      "▁ناقل": 5740,
      "▁والأس": 5741,
      "▁الأراضي": 5742,
      "طرح": 5743,
      "ربط": 5744,
      "لين": 5745,
      "▁In": 5746,
      "ندية": 5747,
      "▁برج": 5748,
      "▁المتوقع": 5749,
      "▁الأزمة": 5750,
      "ويا": 5751,
      "1)": 5752,
      "وطن": 5753,
      "ائة": 5754,
      "▁قضية": 5755,
      "▁أستراليا": 5756,
      "▁\"ت": 5757,
      "▁الله،": 5758,
      "▁السير": 5759,
      "▁أدى": 5760,
      "▁المسلحة": 5761,
      "▁طا": 5762,
      "▁الأربعاء": 5763,
      "بان": 5764,
      "▁بفضل": 5765,
      "▁عبدالله": 5766,
      "▁التفكير": 5767,
      "▁الأجنبية": 5768,
      "▁بسعر": 5769,
      "▁St": 5770,
      "▁شيئ": 5771,
      "▁تقليل": 5772,
      "▁نعم": 5773,
      "▁ومس": 5774,
      "▁أمريكا": 5775,
      "ثبت": 5776,
      "حصل": 5777,
      "▁إصلاح": 5778,
      "▁تعتمد": 5779,
      "▁داع": 5780,
      "▁ضعف": 5781,
      "غلال": 5782,
      "▁السريع": 5783,
      "▁وبد": 5784,
      "▁الصيف": 5785,
      "قرة": 5786,
      "▁منتج": 5787,
      "▁الجولة": 5788,
      "▁صب": 5789,
      "▁مشاريع": 5790,
      "ضرورة": 5791,
      "▁مؤك": 5792,
      "زون": 5793,
      "ِب": 5794,
      "وم،": 5795,
      "درد": 5796,
      "▁أثر": 5797,
      "▁المقدمة": 5798,
      "ينيا": 5799,
      "▁تستطيع": 5800,
      "▁سرعة": 5801,
      "▁اذا": 5802,
      "خرا": 5803,
      "▁بعدما": 5804,
      "▁رائع": 5805,
      "هرجان": 5806,
      ".\nوأوضح": 5807,
      "▁النجاح": 5808,
      "وقيت": 5809,
      "امب": 5810,
      "▁لفة": 5811,
      "df": 5812,
      "▁الاصطناعي": 5813,
      "if": 5814,
      "وائية": 5815,
      "▁السكن": 5816,
      "▁تزيد": 5817,
      "▁الذى": 5818,
      "▁يوما": 5819,
      "زايد": 5820,
      "د،": 5821,
      "درس": 5822,
      "\nا": 5823,
      "▁سؤال": 5824,
      "▁تا": 5825,
      "▁التمو": 5826,
      "▁الدراسات": 5827,
      "ؤسسات": 5828,
      "▁الوحيد": 5829,
      "▁التهاب": 5830,
      "▁بينهم": 5831,
      "▁نفسك": 5832,
      "▁تؤدي": 5833,
      "▁بكثير": 5834,
      "▁لتس": 5835,
      "▁الصعب": 5836,
      "▁الإسلامي": 5837,
      "طورة": 5838,
      "رائب": 5839,
      "هيئة": 5840,
      "▁المساعدة": 5841,
      "▁زمن": 5842,
      "تمال": 5843,
      "90": 5844,
      "طريقة": 5845,
      "ارضة": 5846,
      "فعيل": 5847,
      "▁إفريقيا": 5848,
      "قترح": 5849,
      "▁ظروف": 5850,
      "▁العقد": 5851,
      "نتيجة": 5852,
      "▁التض": 5853,
      "▁صخرة": 5854,
      "act": 5855,
      "▁ولو": 5856,
      "▁السما": 5857,
      "▁يشعر": 5858,
      "▁التك": 5859,
      "وانب": 5860,
      "▁وسل": 5861,
      "▁الأرب": 5862,
      "▁يوسف": 5863,
      "▁نسخة": 5864,
      "▁التكلفة": 5865,
      "▁بول": 5866,
      "▁النو": 5867,
      "▁انها": 5868,
      "سيل": 5869,
      "▁اكثر": 5870,
      "▁وترك": 5871,
      "▁كندا": 5872,
      "▁ذلك.": 5873,
      "سس": 5874,
      "▁غر": 5875,
      "اليب": 5876,
      "لقائي": 5877,
      "▁طفل": 5878,
      "▁المطب": 5879,
      "▁التركيز": 5880,
      "Tube": 5881,
      "▁للات": 5882,
      "▁القت": 5883,
      "▁الشعور": 5884,
      "▁خز": 5885,
      "▁مزيد": 5886,
      "ظي": 5887,
      "\nالأ": 5888,
      "نساء": 5889,
      "ابه": 5890,
      "▁الحقوق": 5891,
      "▁متجر": 5892,
      "لو": 5893,
      "\"\n": 5894,
      "▁عقب": 5895,
      "▁الأخبار": 5896,
      "▁المحافظ": 5897,
      "▁سبق": 5898,
      "▁التعليمية": 5899,
      "شخاص": 5900,
      "▁الأسرة": 5901,
      "▁تكر": 5902,
      "▁الشحن": 5903,
      "▁Get": 5904,
      "tps": 5905,
      "▁الخز": 5906,
      "▁العن": 5907,
      "▁تنزيل": 5908,
      "▁سريع": 5909,
      "▁باعتبار": 5910,
      "▁بالقرب": 5911,
      "▁أداة": 5912,
      "▁حزام": 5913,
      "▁تبلغ": 5914,
      "▁وأكثر": 5915,
      "▁المتاحة": 5916,
      "▁المشترك": 5917,
      "▁المدارس": 5918,
      "دمير": 5919,
      "وقعات": 5920,
      "pl": 5921,
      "ابر": 5922,
      "يطاليا": 5923,
      "▁المدن": 5924,
      "▁st": 5925,
      "لاقة": 5926,
      "▁القي": 5927,
      "واتف": 5928,
      "▁كري": 5929,
      "ْب": 5930,
      "الأ": 5931,
      "▁Q": 5932,
      "▁يعود": 5933,
      "▁عشرة": 5934,
      "▁الملا": 5935,
      "نا.": 5936,
      "▁انته": 5937,
      "▁عربي": 5938,
      "▁أطفال": 5939,
      "بحاث": 5940,
      "▁الإطلاق": 5941,
      "▁لكنها": 5942,
      "سعى": 5943,
      "▁والمس": 5944,
      "غرق": 5945,
      "▁أولاً": 5946,
      "▁السكان": 5947,
      "65": 5948,
      "ant": 5949,
      "جتمع": 5950,
      "▁الأردن": 5951,
      "▁المدى": 5952,
      "▁3.": 5953,
      "واط": 5954,
      "تمكن": 5955,
      "صنيع": 5956,
      "▁السؤال": 5957,
      "واني": 5958,
      "▁الخامس": 5959,
      "▁الأكبر": 5960,
      "▁وقع": 5961,
      "قلال": 5962,
      "▁محطات": 5963,
      "ديه": 5964,
      "راكة": 5965,
      "▁صدر": 5966,
      "▁لعام": 5967,
      "سيقى": 5968,
      "▁قواعد": 5969,
      "غام": 5970,
      "▁التأمين": 5971,
      "يان": 5972,
      "▁قصيرة": 5973,
      "▁عال": 5974,
      "متع": 5975,
      "▁بحق": 5976,
      "du": 5977,
      "▁العودة": 5978,
      "▁يتطلب": 5979,
      "▁تدوير": 5980,
      "شاهد": 5981,
      "حول": 5982,
      "▁أنظمة": 5983,
      "/0": 5984,
      "ضاع": 5985,
      "▁الته": 5986,
      "فيه": 5987,
      "▁باستمرار": 5988,
      "داع": 5989,
      "ائحة": 5990,
      "▁المستعملة": 5991,
      "صابات": 5992,
      "▁تجاوز": 5993,
      "واقع": 5994,
      "مادة": 5995,
      "فرد": 5996,
      "▁الثورة": 5997,
      "▁“م": 5998,
      "▁حاج": 5999,
      "حجر": 6000,
      "▁إدخال": 6001,
      "▁إعلان": 6002,
      "▁القوى": 6003,
      "َّم": 6004,
      "▁زين": 6005,
      ",,": 6006,
      "لقي": 6007,
      "▁نست": 6008,
      "▁مزد": 6009,
      "طالب": 6010,
      "▁الدهون": 6011,
      "▁خمسة": 6012,
      "عاة": 6013,
      "شعر": 6014,
      "▁الإشارة": 6015,
      "▁المريض": 6016,
      "ريبية": 6017,
      "يقة": 6018,
      "▁تطور": 6019,
      "قين": 6020,
      "▁كن": 6021,
      "ائعة": 6022,
      "ية:": 6023,
      "▁فس": 6024,
      "▁القضية": 6025,
      "▁سعودي": 6026,
      "ياز": 6027,
      "▁الفوز": 6028,
      "▁الابتد": 6029,
      "▁المثال،": 6030,
      "▁حفظ": 6031,
      "▁الحيوانات": 6032,
      "راغ": 6033,
      "رجال": 6034,
      "▁الدولار": 6035,
      "▁أعراض": 6036,
      "▁سام": 6037,
      "ريقي": 6038,
      "احصل": 6039,
      "اتي": 6040,
      "▁الإسرائيل": 6041,
      "ريبا": 6042,
      "▁ومنها": 6043,
      "ُن": 6044,
      "▁التون": 6045,
      "▁ولن": 6046,
      "▁كا": 6047,
      "▁35": 6048,
      "▁Ali": 6049,
      "▁الأحداث": 6050,
      "▁استخدامه": 6051,
      "بلوما": 6052,
      "ثمارات": 6053,
      "▁د.": 6054,
      "▁غالبًا": 6055,
      "كُمْ": 6056,
      "▁المغربي": 6057,
      "▁المشتركة": 6058,
      "تن": 6059,
      "75": 6060,
      "▁المرج": 6061,
      "تها،": 6062,
      "ّى": 6063,
      "▁إثراء": 6064,
      "▁المخاطر": 6065,
      "44": 6066,
      "s.": 6067,
      "▁الأماكن": 6068,
      "▁الجمعية": 6069,
      "▁الكلام": 6070,
      "▁=": 6071,
      "▁قوله": 6072,
      "ثرة": 6073,
      "▁يسمى": 6074,
      "▁أرد": 6075,
      "▁خطوات": 6076,
      "قه": 6077,
      "▁يومي": 6078,
      "ستيك": 6079,
      "▁سف": 6080,
      "▁المجالات": 6081,
      "سائر": 6082,
      "▁تمثل": 6083,
      "▁الهند.": 6084,
      "▁التأثير": 6085,
      "▁دو": 6086,
      "▁الإسب": 6087,
      "ook": 6088,
      "زاز": 6089,
      "▁العوامل": 6090,
      "انيين": 6091,
      "▁المستمر": 6092,
      "▁واضحة": 6093,
      "▁بض": 6094,
      "لي،": 6095,
      "▁الإعلان": 6096,
      "▁تؤثر": 6097,
      "▁ة": 6098,
      "▁Pro": 6099,
      "▁لشركة": 6100,
      "▁الوزير": 6101,
      "▁والاج": 6102,
      "▁الزواج": 6103,
      "▁بأنها": 6104,
      "ائها": 6105,
      "▁المطلوب": 6106,
      "▁القدر": 6107,
      "▁يز": 6108,
      "▁متابعة": 6109,
      "ّف": 6110,
      "▁أز": 6111,
      "جمات": 6112,
      "▁كتابة": 6113,
      "▁معرض": 6114,
      "▁عاما": 6115,
      "▁التصنيع": 6116,
      "▁re": 6117,
      "▁أربع": 6118,
      "▁إخ": 6119,
      "▁التنا": 6120,
      "ائط": 6121,
      "ائب": 6122,
      "انغ": 6123,
      "▁لتر": 6124,
      "▁رج": 6125,
      "▁مستقبل": 6126,
      "▁منظ": 6127,
      "▁طرح": 6128,
      "دردشة": 6129,
      ".\nيمكن": 6130,
      "▁بالغ": 6131,
      "▁البداية": 6132,
      "▁ويست": 6133,
      "▁الفعل": 6134,
      "▁للبيع.": 6135,
      "▁ناحية": 6136,
      "شنطن": 6137,
      "▁أننا": 6138,
      "▁45": 6139,
      "▁قاد": 6140,
      "▁إج": 6141,
      "▁هام": 6142,
      "جرى": 6143,
      "▁الأسباب": 6144,
      "▁ذوي": 6145,
      "▁فعال": 6146,
      "▁تتضمن": 6147,
      "ess": 6148,
      "َج": 6149,
      "▁الفائ": 6150,
      "▁الأستاذ": 6151,
      "▁تتميز": 6152,
      "▁القهوة": 6153,
      "▁الأوروب": 6154,
      "▁الهيد": 6155,
      "▁تجنب": 6156,
      "فايات": 6157,
      "▁أمراض": 6158,
      "▁الطبي": 6159,
      "▁قيام": 6160,
      "سبوك": 6161,
      "▁الأخضر": 6162,
      "▁ملايين": 6163,
      "▁معا": 6164,
      "ناً": 6165,
      "▁الطوب": 6166,
      "▁المؤمن": 6167,
      "▁أشكال": 6168,
      "▁بصورة": 6169,
      "▁وفاة": 6170,
      "مصنع": 6171,
      "▁لافت": 6172,
      "قتها": 6173,
      "▁YouTube": 6174,
      "حاول": 6175,
      "▁يسبب": 6176,
      "▁المكت": 6177,
      ".\nس": 6178,
      "هـ": 6179,
      "▁إعلام": 6180,
      "▁المجتم": 6181,
      "▁بتاريخ": 6182,
      "▁المصنعين": 6183,
      "▁الكشف": 6184,
      "حتوي": 6185,
      "▁دردشة": 6186,
      "ِ،": 6187,
      "tps://": 6188,
      "▁انتهاء": 6189,
      "الحصول": 6190,
      "ازة": 6191,
      "رافية": 6192,
      "َالَ": 6193,
      "▁خصم": 6194,
      "▁الاسم": 6195,
      ".\nإن": 6196,
      "▁Ø§ÙØ": 6197,
      "▁إصابة": 6198,
      "▁آثار": 6199,
      "▁الوس": 6200,
      "عتها": 6201,
      "▁مقاومة": 6202,
      "».": 6203,
      "▁دورة": 6204,
      "▁الحض": 6205,
      "▁عامًا": 6206,
      "▁70": 6207,
      "▁وزن": 6208,
      "▁الافت": 6209,
      "لاحظة": 6210,
      ".\nوع": 6211,
      "باعة": 6212,
      ":00": 6213,
      "▁العلامة": 6214,
      "▁الأطعمة": 6215,
      "▁استعداد": 6216,
      "▁أشخاص": 6217,
      "وفرة": 6218,
      "▁هات": 6219,
      "▁المكونات": 6220,
      "▁النظ": 6221,
      "▁اتباع": 6222,
      "▁أنَّ": 6223,
      "▁؟\n": 6224,
      "▁لإنتاج": 6225,
      "▁بري": 6226,
      "▁تشكل": 6227,
      "▁فقدان": 6228,
      "▁خصائص": 6229,
      "▁الوحدة": 6230,
      "tph": 6231,
      "▁يعاني": 6232,
      "▁ويجب": 6233,
      "▁إير": 6234,
      "▁}": 6235,
      "▁الأفراد": 6236,
      "▁مؤتمر": 6237,
      "قدرة": 6238,
      "▁الغرفة": 6239,
      "▁خبر": 6240,
      "▁ملعقة": 6241,
      "زاب": 6242,
      "▁المبيعات": 6243,
      "▁وسوف": 6244,
      "▁السرعة": 6245,
      "▁تحصل": 6246,
      "قلب": 6247,
      "ل،": 6248,
      "▁والسل": 6249,
      "▁يمكننا": 6250,
      "وحات": 6251,
      "عاء": 6252,
      "▁تونس": 6253,
      "▁للمست": 6254,
      "▁إجمالي": 6255,
      "▁معين": 6256,
      "▁قت": 6257,
      "▁يجوز": 6258,
      "قعة": 6259,
      "شرق": 6260,
      "▁ايضا": 6261,
      "art": 6262,
      "قاذ": 6263,
      "▁الدقيق": 6264,
      "▁أبريل": 6265,
      "▁بقيمة": 6266,
      "▁(ع": 6267,
      "▁سعد": 6268,
      "▁مين": 6269,
      "▁التركية": 6270,
      "وقت": 6271,
      "▁الاستفادة": 6272,
      "▁عامل": 6273,
      "▁مجالات": 6274,
      "جعل": 6275,
      "▁الكاملة": 6276,
      "48": 6277,
      "خيل": 6278,
      "▁حف": 6279,
      "▁جام": 6280,
      "▁الحبوب": 6281,
      "▁البيضاء": 6282,
      "ه\n": 6283,
      "تمام": 6284,
      "▁انف": 6285,
      "ثق": 6286,
      "رخ": 6287,
      "▁تحقق": 6288,
      "▁السياسة": 6289,
      "▁مسا": 6290,
      "▁الفيروس": 6291,
      "كرر": 6292,
      "▁بقوة": 6293,
      "بالغ": 6294,
      "▁المحتوى": 6295,
      "▁التاس": 6296,
      "▁ليبيا": 6297,
      "شك": 6298,
      "ائري": 6299,
      "▁اتصال": 6300,
      "38": 6301,
      "▁الخبرة": 6302,
      "ول،": 6303,
      "37": 6304,
      "نسبة": 6305,
      "▁لخ": 6306,
      "جام": 6307,
      "وو": 6308,
      "ريكا": 6309,
      "▁الأنشطة": 6310,
      "21": 6311,
      "طاقات": 6312,
      "▁فرع": 6313,
      "▁غذ": 6314,
      "باك": 6315,
      "▁كلام": 6316,
      "▁الشعبية": 6317,
      "دوات": 6318,
      "▁تحرير": 6319,
      "4-": 6320,
      "▁جرام": 6321,
      "▁يبحث": 6322,
      "▁اق": 6323,
      "▁\"الم": 6324,
      "▁مباريات": 6325,
      "كندر": 6326,
      "▁مهما": 6327,
      "▁منتصف": 6328,
      "ائك": 6329,
      "بكات": 6330,
      "متاع": 6331,
      "▁علامات": 6332,
      "ز،": 6333,
      "▁معنا": 6334,
      "▁المباشر": 6335,
      "▁علاقات": 6336,
      ".\nلا": 6337,
      "▁مراكز": 6338,
      "▁شرح": 6339,
      "▁الاثنين": 6340,
      "▁جيدًا": 6341,
      "▁أموال": 6342,
      "▁قليل": 6343,
      "▁يرى": 6344,
      "▁حسين": 6345,
      "▁بوت": 6346,
      "ومع": 6347,
      "▁أست": 6348,
      "▁استخدم": 6349,
      "▁تعديل": 6350,
      "▁الوظائف": 6351,
      "▁التوا": 6352,
      "▁شاهد": 6353,
      "▁إلكتر": 6354,
      "▁بغداد": 6355,
      "روبات": 6356,
      "دران": 6357,
      "اضي": 6358,
      "طرا": 6359,
      "ery": 6360,
      "▁لصالح": 6361,
      "عملاء": 6362,
      "▁للز": 6363,
      "▁التعا": 6364,
      "حدات": 6365,
      "▁الجنسية": 6366,
      "▁طبيب": 6367,
      "▁البيان": 6368,
      "▁وجل": 6369,
      "▁تطبيقات": 6370,
      "▁الصباح": 6371,
      "▁الرحمن": 6372,
      "جهود": 6373,
      "بة،": 6374,
      "▁بالخ": 6375,
      "▁إقامة": 6376,
      "▁تجارة": 6377,
      "▁الصرف": 6378,
      "خمة": 6379,
      "▁الأطراف": 6380,
      "▁شديد": 6381,
      "ive": 6382,
      "▁بلغت": 6383,
      "▁أزمة": 6384,
      "):": 6385,
      "روات": 6386,
      "▁(الم": 6387,
      "ورك": 6388,
      "▁مدريد": 6389,
      "الع": 6390,
      "▁اللاعبين": 6391,
      "انس": 6392,
      "▁العمودية": 6393,
      "▁متطلبات": 6394,
      "▁لتقديم": 6395,
      "▁بسيط": 6396,
      "▁از": 6397,
      "▁تختلف": 6398,
      "”\n": 6399,
      "عيدة": 6400,
      "▁وبعض": 6401,
      "▁توجيه": 6402,
      "▁بالص": 6403,
      "▁فات": 6404,
      "▁التقدم": 6405,
      "▁أغسطس": 6406,
      "▁طبيعي": 6407,
      "▁رأي": 6408,
      "▁90": 6409,
      "وذ": 6410,
      "▁السيطرة": 6411,
      "اطئ": 6412,
      "▁سأ": 6413,
      "ite": 6414,
      "▁تصريحات": 6415,
      "▁الأساس": 6416,
      "▁اتصل": 6417,
      "▁التعرف": 6418,
      "ّة،": 6419,
      "ate": 6420,
      "بهة": 6421,
      "ذاب": 6422,
      "زيج": 6423,
      ".\nالت": 6424,
      "خلاص": 6425,
      "▁منخفضة": 6426,
      "▁الصغير": 6427,
      "▁ممن": 6428,
      "▁جدول": 6429,
      "▁لطحن": 6430,
      "▁الواحد": 6431,
      "تيات": 6432,
      "▁وتد": 6433,
      "▁بمدينة": 6434,
      "ماك": 6435,
      "ِد": 6436,
      "▁رمز": 6437,
      "▁اقرأ": 6438,
      "راتيجيات": 6439,
      "▁الرسوم": 6440,
      "عدم": 6441,
      "▁البطولة": 6442,
      "▁وتر": 6443,
      "▁الرعاية": 6444,
      "▁إت": 6445,
      "▁فقط،": 6446,
      "وقة": 6447,
      "▁مصنعين": 6448,
      "ud": 6449,
      "كاني": 6450,
      "مكان": 6451,
      "▁بدلاً": 6452,
      "▁القسم": 6453,
      "كتاب": 6454,
      "عته": 6455,
      "▁>>": 6456,
      "قيب": 6457,
      "▁بمن": 6458,
      "سبق": 6459,
      "▁الأميركي": 6460,
      "افات": 6461,
      "▁Alibaba": 6462,
      "▁إما": 6463,
      "▁الفكر": 6464,
      "▁تصريح": 6465,
      "▁الموقف": 6466,
      "7.": 6467,
      "▁شارك": 6468,
      "▁إضافية": 6469,
      "▁رسوم": 6470,
      "▁لتش": 6471,
      "▁الالكتر": 6472,
      "▁حا": 6473,
      ".\nأما": 6474,
      "▁القديم": 6475,
      "▁الاعتبار": 6476,
      "▁الشريف": 6477,
      "ش،": 6478,
      "▁فإذا": 6479,
      "▁لبعض": 6480,
      "▁الموظفين": 6481,
      "▁والات": 6482,
      "صري": 6483,
      "▁وتطوير": 6484,
      "▁مول": 6485,
      "▁تسمح": 6486,
      "مالك": 6487,
      "▁مبلغ": 6488,
      "ارقة": 6489,
      "▁فرق": 6490,
      "▁شم": 6491,
      "▁لين": 6492,
      "▁الأدوات": 6493,
      "▁فك": 6494,
      "▁الهيدرولي": 6495,
      "▁ولكنه": 6496,
      "▁ک": 6497,
      "▁النهاية": 6498,
      "▁بعضها": 6499,
      "▁مساعدة": 6500,
      "▁رحلة": 6501,
      "▁الإرها": 6502,
      "▁ويُ": 6503,
      "▁الغيار": 6504,
      "▁المخروط": 6505,
      "▁العمال": 6506,
      "▁الموجود": 6507,
      "▁كتلة": 6508,
      "▁Price": 6509,
      "▁محكمة": 6510,
      "▁بنت": 6511,
      "▁عهد": 6512,
      "▁الثانوية": 6513,
      "فاصيل": 6514,
      "▁يؤثر": 6515,
      "▁نور": 6516,
      "وفة": 6517,
      "راه": 6518,
      "عمليات": 6519,
      "▁يوميا": 6520,
      "عدل": 6521,
      "▁حفل": 6522,
      "▁تشعر": 6523,
      "نيين": 6524,
      "▁الجنوبية": 6525,
      "وبايل": 6526,
      "▁عاد": 6527,
      "غوط": 6528,
      "▁ی": 6529,
      "▁Ch": 6530,
      "▁الارت": 6531,
      "أكمل": 6532,
      ",ت": 6533,
      "▁“ت": 6534,
      "▁الحوار": 6535,
      "▁الكتب": 6536,
      "▁منز": 6537,
      "▁Z": 6538,
      "▁المستثمر": 6539,
      "بك": 6540,
      "▁;": 6541,
      "▁اكتشاف": 6542,
      "▁الالتزام": 6543,
      "▁أوكرانيا": 6544,
      "▁تحضير": 6545,
      "▁المرور": 6546,
      "▁نقوم": 6547,
      "▁الفرنسية": 6548,
      "▁سعود": 6549,
      "ost": 6550,
      "▁التركي": 6551,
      "▁ويد": 6552,
      "▁ثاني": 6553,
      "▁̄": 6554,
      "خاب": 6555,
      "\n\nال": 6556,
      "▁الدنيا": 6557,
      "فاد": 6558,
      "▁الدولوميت": 6559,
      "▁مجاني": 6560,
      "2)": 6561,
      "بدء": 6562,
      "▁اللعب": 6563,
      "36": 6564,
      "▁وتقديم": 6565,
      "▁قب": 6566,
      "▁بمر": 6567,
      "▁تعيين": 6568,
      "▁المقبلة": 6569,
      "▁الجهود": 6570,
      "▁قائد": 6571,
      "▁الحجر.": 6572,
      "رقية": 6573,
      "▁واف": 6574,
      "▁اليومية": 6575,
      "▁كبار": 6576,
      "9.": 6577,
      "ارين": 6578,
      "▁سهلة": 6579,
      "▁كيلو": 6580,
      "▁The": 6581,
      "نك": 6582,
      "▁صرف": 6583,
      "▁شا": 6584,
      "▁الفولا": 6585,
      "▁نظرة": 6586,
      "▁المناخ": 6587,
      "لياف": 6588,
      "ذيب": 6589,
      "يرة،": 6590,
      "▁ولذلك": 6591,
      "▁الزي": 6592,
      "▁الكفاءة": 6593,
      "ity": 6594,
      "ونها": 6595,
      "▁الذه": 6596,
      "▁غال": 6597,
      "▁واب": 6598,
      "▁تي": 6599,
      "▁قرية": 6600,
      "▁الرقمية": 6601,
      "▁مصنعي": 6602,
      "▁لسحق": 6603,
      "▁الاول": 6604,
      "سو": 6605,
      "ناطق": 6606,
      "شري": 6607,
      "▁حض": 6608,
      "▁قليلاً": 6609,
      "▁التزام": 6610,
      "▁المصاب": 6611,
      "▁الإقليم": 6612,
      "ظهرت": 6613,
      "صدير": 6614,
      "100": 6615,
      "ear": 6616,
      "جية": 6617,
      "▁والسيا": 6618,
      "▁فم": 6619,
      "▁جميل": 6620,
      "▁وأنا": 6621,
      "▁الدماغ": 6622,
      "ue": 6623,
      "▁والمر": 6624,
      "▁مراحل": 6625,
      "▁المصادر": 6626,
      "▁مصطفى": 6627,
      "هاي": 6628,
      "▁القضايا": 6629,
      "▁ميد": 6630,
      "▁خرج": 6631,
      "▁الإرهاب": 6632,
      "▁صاد": 6633,
      "▁البلدان": 6634,
      "▁تجمع": 6635,
      "ذكرة": 6636,
      "▁مسار": 6637,
      "ain": 6638,
      "ياط": 6639,
      "▁سلامة": 6640,
      "▁يب": 6641,
      "ونت": 6642,
      "▁السادس": 6643,
      "▁الصيد": 6644,
      "▁كلما": 6645,
      "▁الانتاج": 6646,
      "▁موثوق": 6647,
      "فيروس": 6648,
      "طنة": 6649,
      "▁المقرر": 6650,
      "▁العدد": 6651,
      "▁ومر": 6652,
      "قة.": 6653,
      "▁الأوراق": 6654,
      "▁بيئة": 6655,
      "وريت": 6656,
      "وجل": 6657,
      "سير": 6658,
      "▁ترتيب": 6659,
      "وارع": 6660,
      "شرح": 6661,
      "▁crusher": 6662,
      "▁باكستان": 6663,
      "كية،": 6664,
      "Ø§Ø": 6665,
      "▁عكس": 6666,
      "▁الأقصى": 6667,
      "▁بالرياض": 6668,
      "▁جلسة": 6669,
      "حة،": 6670,
      "▁مجانا": 6671,
      "▁بأس": 6672,
      "املات": 6673,
      "▁حدد": 6674,
      "▁يكفي": 6675,
      "حض": 6676,
      "▁إِل": 6677,
      "▁الفل": 6678,
      "بيد": 6679,
      "ديمية": 6680,
      "▁إشارة": 6681,
      "▁ثقيلة": 6682,
      "نكر": 6683,
      "طبق": 6684,
      "اميك": 6685,
      "▁ووضع": 6686,
      "▁المدنية": 6687,
      "▁ريموند": 6688,
      "صحاب": 6689,
      "▁فما": 6690,
      "▁جميلة": 6691,
      "جلات": 6692,
      "▁الشخصي": 6693,
      "▁مجموعات": 6694,
      "▁موسكو": 6695,
      "▁ترى": 6696,
      "▁موجود": 6697,
      "▁سان": 6698,
      "▁وعدد": 6699,
      "َك": 6700,
      "ًّا": 6701,
      "▁j": 6702,
      "طرابات": 6703,
      ".com/": 6704,
      "▁ولكنها": 6705,
      "▁الأدنى": 6706,
      "▁مدرسة": 6707,
      "▁كول": 6708,
      "▁الرأ": 6709,
      "▁التل": 6710,
      "▁بها،": 6711,
      "ong": 6712,
      "فذ": 6713,
      "▁دقيق": 6714,
      "▁الرائدة": 6715,
      "▁الثلاثة": 6716,
      "▁ذي": 6717,
      "▁الطالب": 6718,
      "▁جمعية": 6719,
      "▁(ت": 6720,
      "▁us": 6721,
      "▁الثابت": 6722,
      "غيرات": 6723,
      "نيسة": 6724,
      "▁المستهلك": 6725,
      "مييز": 6726,
      "▁حملة": 6727,
      "مُ": 6728,
      "اشات": 6729,
      "▁الحماية": 6730,
      "▁ملابس": 6731,
      "▁أين": 6732,
      "▁!": 6733,
      "▁تتطلب": 6734,
      "َمْ": 6735,
      "o.": 6736,
      "▁الاف": 6737,
      "▁مساعد": 6738,
      "▁الشبكة": 6739,
      "▁جاءت": 6740,
      "▁الميك": 6741,
      "يراد": 6742,
      "▁الشراء": 6743,
      "الا": 6744,
      "حيل": 6745,
      "▁يعلم": 6746,
      "▁حس": 6747,
      "▁التحقق": 6748,
      "▁لمس": 6749,
      "\nلا": 6750,
      "▁2012": 6751,
      "▁الصهي": 6752,
      "▁مستشفى": 6753,
      "▁أقصى": 6754,
      "▁النب": 6755,
      "▁الكام": 6756,
      "ليش": 6757,
      "قس": 6758,
      "ومني": 6759,
      "يجار": 6760,
      "▁الاتصالات": 6761,
      "▁البالغ": 6762,
      "▁سياسة": 6763,
      "▁المدر": 6764,
      "▁السلع": 6765,
      "كلم": 6766,
      "▁موسم": 6767,
      "ّب": 6768,
      "▁الأعراض": 6769,
      "▁التحقيق": 6770,
      "▁الألوان": 6771,
      "وضاع": 6772,
      "▁بيد": 6773,
      "▁آسيا": 6774,
      "جيع": 6775,
      "rom": 6776,
      "▁البياني": 6777,
      "َوْ": 6778,
      "ازل": 6779,
      "▁وكأن": 6780,
      "▁صلاة": 6781,
      "▁كأ": 6782,
      "▁الخطوة": 6783,
      "▁أماكن": 6784,
      "▁اتحاد": 6785,
      "قيات": 6786,
      "▁مالية": 6787,
      "▁الخصوص": 6788,
      "▁تضم": 6789,
      "ملت": 6790,
      "▁ضوء": 6791,
      "▁الخشب": 6792,
      "▁المحتمل": 6793,
      "ثابة": 6794,
      "▁الأولية": 6795,
      "▁أسرع": 6796,
      "▁المستخدمين": 6797,
      "▁يفعل": 6798,
      "حلة": 6799,
      "▁مهارات": 6800,
      "43": 6801,
      "▁نهائي": 6802,
      "▁أسفل": 6803,
      "طحن": 6804,
      "▁فحسب": 6805,
      "▁جنب": 6806,
      "▁سكس": 6807,
      "▁استط": 6808,
      "▁قرب": 6809,
      "▁وزيادة": 6810,
      "▁المخد": 6811,
      "ربين": 6812,
      "ver": 6813,
      "كسر": 6814,
      "▁وَال": 6815,
      "▁رش": 6816,
      "شرطة": 6817,
      "▁سما": 6818,
      "▁نجد": 6819,
      "ف،": 6820,
      "▁ضم": 6821,
      "▁عصر": 6822,
      "▁تشرين": 6823,
      "▁الأرج": 6824,
      "▁الشرقية": 6825,
      "▁والمح": 6826,
      "▁كلمات": 6827,
      "▁ملعب": 6828,
      "▁لدعم": 6829,
      "▁الأنا": 6830,
      "ياً،": 6831,
      "عط": 6832,
      "▁توقف": 6833,
      ".\n–": 6834,
      "”.\nو": 6835,
      "▁تبدو": 6836,
      "ّع": 6837,
      "شرت": 6838,
      "ومان": 6839,
      "▁وعن": 6840,
      "▁مفهوم": 6841,
      "▁وحدات": 6842,
      "▁شباب": 6843,
      "▁120": 6844,
      "▁العالم.": 6845,
      "▁مجتمع": 6846,
      "▁التنظيف": 6847,
      "▁مطار": 6848,
      "▁بكم": 6849,
      ".\nبال": 6850,
      "وقد": 6851,
      "▁رحم": 6852,
      "▁بينهما": 6853,
      "▁كاف": 6854,
      "ميق": 6855,
      "لفل": 6856,
      "▁يدخل": 6857,
      "▁الويب": 6858,
      "ح،": 6859,
      "▁الدواء": 6860,
      "▁ليف": 6861,
      "66": 6862,
      "▁بالذكر": 6863,
      "وحيد": 6864,
      "ايا": 6865,
      "▁والله": 6866,
      "▁أيار": 6867,
      "8.": 6868,
      "▁الإدارية": 6869,
      "اكن": 6870,
      "▁الأر": 6871,
      "▁مكونات": 6872,
      "معدات": 6873,
      "▁الصحفي": 6874,
      "▁صحية": 6875,
      "▁المغربية": 6876,
      "▁الشروط": 6877,
      "▁بمثابة": 6878,
      "بيئة": 6879,
      "خبير": 6880,
      "راس": 6881,
      "▁مصل": 6882,
      "▁أمريكي": 6883,
      "▁الفلب": 6884,
      "▁والاجتما": 6885,
      "55": 6886,
      "▁باريس": 6887,
      "فسية": 6888,
      "▁الكلي": 6889,
      "▁السعودية،": 6890,
      "▁الصناعات": 6891,
      "▁اللغ": 6892,
      "ثن": 6893,
      "▁تقدير": 6894,
      "علوم": 6895,
      "ريبي": 6896,
      "\n\nم": 6897,
      "خيصة": 6898,
      "▁رأى": 6899,
      "▁تغذية": 6900,
      "▁الخلايا": 6901,
      "▁\"إ": 6902,
      "▁واستخدام": 6903,
      ".\nون": 6904,
      "▁البرت": 6905,
      "▁فار": 6906,
      "يفا": 6907,
      "▁بانت": 6908,
      "▁عرف": 6909,
      "▁الذهاب": 6910,
      "ؤدي": 6911,
      "▁فيتامين": 6912,
      "▁يعانون": 6913,
      "اضر": 6914,
      "لقد": 6915,
      "▁اول": 6916,
      "▁مراقبة": 6917,
      "رحب": 6918,
      "▁البلدين": 6919,
      "رجى": 6920,
      "8%": 6921,
      "▁و\"": 6922,
      "▁حضور": 6923,
      "ثمان": 6924,
      "شية": 6925,
      "▁الحلقة": 6926,
      "▁الرحم": 6927,
      "ّق": 6928,
      "ويه": 6929,
      "اركت": 6930,
      "▁يتميز": 6931,
      "▁الميلاد": 6932,
      "▁غسالة": 6933,
      "▁Sh": 6934,
      "▁نب": 6935,
      "▁هيكل": 6936,
      "▁والخدمات": 6937,
      "▁الجمع": 6938,
      "▁الانتقال": 6939,
      "▁ند": 6940,
      "▁استهلاك": 6941,
      "▁المعروف": 6942,
      "▁الشمالية": 6943,
      "▁لحم": 6944,
      "▁حاليا": 6945,
      "▁الكلمات": 6946,
      "جميع": 6947,
      "▁لسنة": 6948,
      "▁إنجاز": 6949,
      "▁ميت": 6950,
      "▁النتيجة": 6951,
      "ast": 6952,
      "ينات": 6953,
      "صانع": 6954,
      "▁4.": 6955,
      "ضاءة": 6956,
      "▁يتمتع": 6957,
      "طوبة": 6958,
      "▁ماء": 6959,
      "▁المهندس": 6960,
      "▁متن": 6961,
      "▁متخصص": 6962,
      "ist": 6963,
      "أثير": 6964,
      "ناطي": 6965,
      "▁شرائ": 6966,
      "▁الخلف": 6967,
      "▁يجد": 6968,
      "▁يرغب": 6969,
      "▁تدريب": 6970,
      "نادق": 6971,
      "فيز": 6972,
      "▁وصلت": 6973,
      "جهات": 6974,
      "هَا": 6975,
      "▁خلط": 6976,
      "▁تخزين": 6977,
      "▁لمعرفة": 6978,
      "ضب": 6979,
      "ليون": 6980,
      "▁صديق": 6981,
      "▁انواع": 6982,
      "▁بموجب": 6983,
      "▁2011": 6984,
      "▁المرضى": 6985,
      "▁يقت": 6986,
      "ؤها": 6987,
      "يله": 6988,
      "قاطعة": 6989,
      "ورج": 6990,
      "▁المسجد": 6991,
      "▁احد": 6992,
      "صفح": 6993,
      "▁البرلمان": 6994,
      "▁والض": 6995,
      "▁الإيط": 6996,
      "ديك": 6997,
      "▁الإخ": 6998,
      "▁مميزة": 6999,
      "▁أسماء": 7000,
      "ust": 7001,
      "ال،": 7002,
      "حايا": 7003,
      "شلونة": 7004,
      "**": 7005,
      "ff": 7006,
      "▁تعاني": 7007,
      "▁البنوك": 7008,
      "ِنَّ": 7009,
      "▁وتحديد": 7010,
      "▁فسي": 7011,
      "▁فئة": 7012,
      "▁البحرية": 7013,
      "▁r": 7014,
      "▁ناد": 7015,
      "▁تتبع": 7016,
      "تان": 7017,
      "▁الإسرائيلية": 7018,
      "▁طاقة": 7019,
      "▁ألعاب": 7020,
      "▁بالض": 7021,
      "ساوي": 7022,
      "خدم": 7023,
      "▁وإنما": 7024,
      "▁جدة": 7025,
      "▁غرف": 7026,
      "تمت": 7027,
      "ُول": 7028,
      "▁ربط": 7029,
      "▁ويع": 7030,
      "وست": 7031,
      "َاء": 7032,
      "▁الحرارية": 7033,
      "▁اخ": 7034,
      "th": 7035,
      "▁اللبنانية": 7036,
      "▁السماء": 7037,
      "\nيمكن": 7038,
      "كافحة": 7039,
      "يفون": 7040,
      "▁تكاليف": 7041,
      "▁المسرح": 7042,
      "سجيل": 7043,
      "غان": 7044,
      "▁سيما": 7045,
      "5-": 7046,
      "▁وأضاف": 7047,
      "▁للحفاظ": 7048,
      "▁الجامعات": 7049,
      "▁الاقت": 7050,
      "ذاكرة": 7051,
      "ْع": 7052,
      "خار": 7053,
      "▁البدء": 7054,
      "▁تجارية": 7055,
      "▁الفتاة": 7056,
      "▁ترامب": 7057,
      "▁منجم": 7058,
      "▁نوعية": 7059,
      "▁عليكم": 7060,
      "▁الزراعة": 7061,
      "▁العاملين": 7062,
      "▁أبطال": 7063,
      "▁سبح": 7064,
      "33": 7065,
      "▁قبول": 7066,
      "▁المعي": 7067,
      "▁الثقة": 7068,
      "▁الهلال": 7069,
      "▁السج": 7070,
      "▁ورقة": 7071,
      "ود،": 7072,
      "▁تصنيف": 7073,
      "▁الذكية": 7074,
      "شم": 7075,
      "▁تسليم": 7076,
      "▁الصراع": 7077,
      "▁&": 7078,
      "▁اللواء": 7079,
      "فين": 7080,
      "pt": 7081,
      ":\nال": 7082,
      "▁الثدي": 7083,
      "غار": 7084,
      "▁الخروج": 7085,
      "▁أعلا": 7086,
      "▁شحن": 7087,
      "▁ويح": 7088,
      "▁جه": 7089,
      "بادة": 7090,
      "▁يتمكن": 7091,
      "▁×": 7092,
      "▁قمت": 7093,
      "▁تواصل": 7094,
      "▁خطط": 7095,
      "iz": 7096,
      "▁النائب": 7097,
      "▁مأ": 7098,
      "▁صعوبة": 7099,
      "فذة": 7100,
      "ريا": 7101,
      "يراً": 7102,
      "▁31": 7103,
      "▁الانتهاء": 7104,
      "وتا": 7105,
      "▁المسار": 7106,
      "ee": 7107,
      "▁قابلة": 7108,
      "aw": 7109,
      "▁الدخل": 7110,
      "av": 7111,
      "▁الملفات": 7112,
      "▁وتعزيز": 7113,
      "▁قياس": 7114,
      "▁يو": 7115,
      "500": 7116,
      "▁الكاتب": 7117,
      "ِع": 7118,
      "▁\\": 7119,
      "▁بحضور": 7120,
      "\nوأ": 7121,
      "▁حياته": 7122,
      "جموعات": 7123,
      "▁عما": 7124,
      "سبانيا": 7125,
      "▁العراقية": 7126,
      "▁ملفات": 7127,
      "▁ونت": 7128,
      "▁يعتقد": 7129,
      "زوج": 7130,
      "▁رسمي": 7131,
      "▁القاعدة": 7132,
      "▁بدقة": 7133,
      "▁عائ": 7134,
      "هاجم": 7135,
      "ُهُ": 7136,
      "▁للمس": 7137,
      "▁السهل": 7138,
      "▁الطيران": 7139,
      "▁وتحسين": 7140,
      "▁سياسية": 7141,
      "▁الأهداف": 7142,
      "▁شيوع": 7143,
      "▁تراجع": 7144,
      "▁والي": 7145,
      "ياج": 7146,
      "▁تفعل": 7147,
      "يمكن": 7148,
      "▁بالتعاون": 7149,
      "نون": 7150,
      "ضمام": 7151,
      "وهر": 7152,
      "▁بأكمل": 7153,
      "▁بإن": 7154,
      "▁بعدم": 7155,
      "▁الطبيعة": 7156,
      "▁الرياضة": 7157,
      "رسوم": 7158,
      "▁فتاة": 7159,
      "ويف": 7160,
      "▁لتق": 7161,
      ".\nوال": 7162,
      "صير": 7163,
      "▁%": 7164,
      "gle": 7165,
      "▁واشنطن": 7166,
      "▁مواطن": 7167,
      "▁سلمان": 7168,
      "▁مكة": 7169,
      "▁بريط": 7170,
      "فلت": 7171,
      "وادث": 7172,
      "اً.": 7173,
      "▁العا": 7174,
      "▁الأسد": 7175,
      "▁كسر": 7176,
      "▁وجهة": 7177,
      "▁العصر": 7178,
      "▁والثق": 7179,
      "ows": 7180,
      "▁الفيلم": 7181,
      "▁بمجرد": 7182,
      "ard": 7183,
      "وزيع": 7184,
      "▁النفطية": 7185,
      "▁المفر": 7186,
      "▁لاين": 7187,
      "▁بالتأكيد": 7188,
      "ريطة": 7189,
      "▁تهدف": 7190,
      "▁الكروم": 7191,
      "▁به،": 7192,
      ".\n(": 7193,
      "صادر": 7194,
      "▁الإصلاح": 7195,
      "▁الرابعة": 7196,
      "▁مالك": 7197,
      "▁Com": 7198,
      "▁رئيسي": 7199,
      "ord": 7200,
      "▁الفائدة": 7201,
      "▁رضي": 7202,
      "▁النموذج": 7203,
      "▁القادم": 7204,
      "▁كلم": 7205,
      "▁المميزة": 7206,
      "▁العدوان": 7207,
      "مارسات": 7208,
      "▁الصيانة": 7209,
      "▁المتحدة،": 7210,
      "جزء": 7211,
      "▁سيف": 7212,
      "▁قرارات": 7213,
      "▁أراد": 7214,
      "▁المتقدمة": 7215,
      "ِكَ": 7216,
      "▁يواجه": 7217,
      "▁الأي": 7218,
      "▁التربة": 7219,
      "▁الفرصة": 7220,
      "▁العلامات": 7221,
      "اغ": 7222,
      "▁وربما": 7223,
      "ابير": 7224,
      "▁ومعدات": 7225,
      "▁سكن": 7226,
      "▁للقيام": 7227,
      "ادثة": 7228,
      "▁أض": 7229,
      "مراض": 7230,
      "▁[ال": 7231,
      "▁الفض": 7232,
      "▁حار": 7233,
      "▁الدموية": 7234,
      "تزاز": 7235,
      "▁تتعلق": 7236,
      "صورة": 7237,
      "▁الأميركية": 7238,
      "▁جمهورية": 7239,
      "ميت": 7240,
      "َرْ": 7241,
      "▁سورة": 7242,
      "▁القطع": 7243,
      "ولايات": 7244,
      "▁غضون": 7245,
      "▁عزل": 7246,
      "▁ممثل": 7247,
      "▁تور": 7248,
      "ئوية": 7249,
      "هان": 7250,
      "شأ": 7251,
      "هالي": 7252,
      "▁Al": 7253,
      "▁صي": 7254,
      "▁التمويل": 7255,
      "▁يتضمن": 7256,
      "▁نفسي": 7257,
      "باحث": 7258,
      "▁قادرة": 7259,
      "▁تجار": 7260,
      "▁لغة": 7261,
      "▁خبرة": 7262,
      "49": 7263,
      "▁الصد": 7264,
      "▁اللبناني": 7265,
      "▁لحظة": 7266,
      "و.": 7267,
      "ith": 7268,
      "\nد": 7269,
      "▁منك": 7270,
      "نه": 7271,
      "▁الشاب": 7272,
      "ورها": 7273,
      "39": 7274,
      "ry": 7275,
      "وائر": 7276,
      "▁والآ": 7277,
      "▁له،": 7278,
      "▁عربية": 7279,
      "▁عودة": 7280,
      "ru": 7281,
      "ليد": 7282,
      "▁بجانب": 7283,
      "▁البول": 7284,
      "▁فكر": 7285,
      "▁زر": 7286,
      "▁ببساطة": 7287,
      "▁عط": 7288,
      "▁الطين": 7289,
      "▁الراحة": 7290,
      "iv": 7291,
      "▁مصر،": 7292,
      "ماط": 7293,
      "▁الشديد": 7294,
      "...\n": 7295,
      "▁العنف": 7296,
      "واصفات": 7297,
      "برت": 7298,
      "▁كلّ": 7299,
      "▁الأسئلة": 7300,
      "▁مبيعات": 7301,
      "▁عنصر": 7302,
      "86": 7303,
      "َّذ": 7304,
      "ide": 7305,
      "▁موت": 7306,
      "▁الأوروبية": 7307,
      "▁وتخ": 7308,
      "▁تشت": 7309,
      "▁يعطي": 7310,
      "▁هوا": 7311,
      "▁تفا": 7312,
      "▁الأكا": 7313,
      "شفيات": 7314,
      "▁والأن": 7315,
      "▁مثال": 7316,
      "▁الحاج": 7317,
      "▁الحليب": 7318,
      "▁يشكل": 7319,
      "شارت": 7320,
      "برامج": 7321,
      "▁الخي": 7322,
      "▁مناق": 7323,
      "بوت": 7324,
      "ناطيسي": 7325,
      "نحن": 7326,
      "▁الفا": 7327,
      "▁التقليدية": 7328,
      "▁تماما": 7329,
      "▁أغلب": 7330,
      "ومنيوم": 7331,
      "▁تتمكن": 7332,
      "▁الشمال": 7333,
      "▁يحاول": 7334,
      "الفة": 7335,
      "▁الأعضاء": 7336,
      "▁الموافق": 7337,
      "بتد": 7338,
      "▁ستة": 7339,
      "▁بوك": 7340,
      "▁more": 7341,
      "غنيز": 7342,
      "▁شارع": 7343,
      "▁أقرب": 7344,
      "▁وكيل": 7345,
      "لفزيون": 7346,
      "▁تعيش": 7347,
      "ربات": 7348,
      "وتيوب": 7349,
      "duct": 7350,
      "ادمية": 7351,
      "▁فوز": 7352,
      "▁ليلة": 7353,
      "سلة": 7354,
      "▁نبات": 7355,
      "وائح": 7356,
      "▁لذلك،": 7357,
      "/h": 7358,
      "▁الحسن": 7359,
      "▁أصدر": 7360,
      "ؤه": 7361,
      "▁الباز": 7362,
      "نات": 7363,
      "▁للغ": 7364,
      "▁الانق": 7365,
      "▁الرابط": 7366,
      "تملة": 7367,
      "▁معق": 7368,
      "▁حمد": 7369,
      "▁أحداث": 7370,
      "▁بعنوان": 7371,
      "كاتب": 7372,
      "▁pe": 7373,
      "▁السوداء": 7374,
      "▁مزود": 7375,
      "▁ماي": 7376,
      "ريقية": 7377,
      "si": 7378,
      "َةِ": 7379,
      "▁سك": 7380,
      "▁الدكت": 7381,
      "▁شعبية": 7382,
      "▁المنازل": 7383,
      "▁نظرًا": 7384,
      "\nش": 7385,
      "▁قيد": 7386,
      "▁محددة": 7387,
      "▁الفساد": 7388,
      "▁مصالح": 7389,
      "▁يمنع": 7390,
      "هى": 7391,
      "▁بالطبع": 7392,
      "▁197": 7393,
      "▁الضرائب": 7394,
      "▁عسكرية": 7395,
      "▁مؤسسات": 7396,
      "▁التعبير": 7397,
      "▁يضمن": 7398,
      ".\nالأ": 7399,
      "▁لنفس": 7400,
      "شيخ": 7401,
      "دريب": 7402,
      "▁ويكي": 7403,
      "▁الأفكار": 7404,
      "عال": 7405,
      "▁إغلاق": 7406,
      "▁أوراق": 7407,
      "▁مشيرا": 7408,
      "يداع": 7409,
      "َذ": 7410,
      "▁x": 7411,
      "▁كلها": 7412,
      "وضة": 7413,
      "شى": 7414,
      "▁صل": 7415,
      "▁إِ": 7416,
      "▁محلية": 7417,
      "▁الحرة": 7418,
      "ارئ": 7419,
      "▁رغ": 7420,
      "▁تعود": 7421,
      "▁سحب": 7422,
      "▁تكنولوجيا": 7423,
      "▁جماعة": 7424,
      "▁الطويل": 7425,
      "حكام": 7426,
      "خصة": 7427,
      "▁al": 7428,
      "▁الخبراء": 7429,
      "����": 7430,
      "▁الأصول": 7431,
      "▁لمواجهة": 7432,
      "▁الآثار": 7433,
      "▁النحو": 7434,
      "▁الألمانية": 7435,
      "جري": 7436,
      "▁الرؤية": 7437,
      "▁الجير": 7438,
      "▁تأسيس": 7439,
      "▁تذكر": 7440,
      "نيه": 7441,
      "▁المركزية": 7442,
      "▁خلفية": 7443,
      "▁الملح": 7444,
      "خطوة": 7445,
      "لج": 7446,
      "▁النفسية": 7447,
      "▁التحت": 7448,
      "▁الوث": 7449,
      "▁السياحة": 7450,
      "قيد": 7451,
      "البة": 7452,
      "▁لمنع": 7453,
      "▁الزراعية": 7454,
      "ly": 7455,
      "ابا": 7456,
      "▁كانون": 7457,
      "▁ودعم": 7458,
      "▁تأخذ": 7459,
      "▁هن": 7460,
      "▁بيروت": 7461,
      "▁بعمل": 7462,
      "▁الرياضي": 7463,
      "▁مورد": 7464,
      "▁والمش": 7465,
      "▁النه": 7466,
      "▁أحب": 7467,
      "▁لمت": 7468,
      "قسم": 7469,
      "سه": 7470,
      "سيارات": 7471,
      "ack": 7472,
      "▁دينار": 7473,
      "▁يتيح": 7474,
      "▁الحظ": 7475,
      "▁تمتلك": 7476,
      "ax": 7477,
      "واريخ": 7478,
      "▁لعلاج": 7479,
      "ليلة": 7480,
      "▁ورئيس": 7481,
      "شمل": 7482,
      "▁أور": 7483,
      "طارات": 7484,
      "؟\n-": 7485,
      "▁الذرة": 7486,
      "▁الترا": 7487,
      "▁برئاسة": 7488,
      "▁مصغرة": 7489,
      "▁بتقديم": 7490,
      "▁المطحنة": 7491,
      "▁شركتنا": 7492,
      "▁بكر": 7493,
      "▁التغذية": 7494,
      "▁جدوى": 7495,
      "▁ميزة": 7496,
      "▁البيض": 7497,
      "▁th": 7498,
      "وارئ": 7499,
      "▁موظف": 7500,
      "▁كف": 7501,
      "طفل": 7502,
      "▁النهائية": 7503,
      "ماعيل": 7504,
      "▁المرة": 7505,
      "▁تحول": 7506,
      "▁السينما": 7507,
      "]\n": 7508,
      "▁قضايا": 7509,
      "جت": 7510,
      "بيان": 7511,
      "مائة": 7512,
      ".\nا": 7513,
      "▁قليلة": 7514,
      "اجم": 7515,
      "▁العظيم": 7516,
      "2022": 7517,
      "▁الخطوط": 7518,
      "فاوضات": 7519,
      "▁للبيع,": 7520,
      "ظى": 7521,
      "▁لحماية": 7522,
      "▁'": 7523,
      "▁الإعداد": 7524,
      "َّى": 7525,
      ".\nوذكر": 7526,
      "▁الاعتماد": 7527,
      "▁النقاط": 7528,
      "▁وتحقيق": 7529,
      "▁الترب": 7530,
      "▁فائ": 7531,
      "▁المعدة": 7532,
      "▁العضلات": 7533,
      "▁فج": 7534,
      "واه": 7535,
      "قلق": 7536,
      "▁الأمة": 7537,
      "▁سهل": 7538,
      "▁الروح": 7539,
      "▁فضلا": 7540,
      "▁سري": 7541,
      "▁فرد": 7542,
      "▁مطرقة": 7543,
      "▁التمر": 7544,
      "▁نكون": 7545,
      "▁ابو": 7546,
      "▁الهجوم": 7547,
      "▁مواصفات": 7548,
      "▁تتمتع": 7549,
      "▁عائلة": 7550,
      "▁كرات": 7551,
      "قاق": 7552,
      "▁النَّ": 7553,
      "▁واع": 7554,
      "▁ويل": 7555,
      "هت": 7556,
      "▁طبيعة": 7557,
      "▁لشراء": 7558,
      "▁ليت": 7559,
      "كشاف": 7560,
      "▁العهد": 7561,
      "وضيح": 7562,
      "▁حديد": 7563,
      "▁المتحدث": 7564,
      "▁الاكت": 7565,
      "oogle": 7566,
      "▁اليهود": 7567,
      ".\nهذا": 7568,
      "▁المستشفى": 7569,
      "▁لها،": 7570,
      "▁توصيل": 7571,
      "▁معاي": 7572,
      "ؤسسة": 7573,
      "ؤكد": 7574,
      "▁ومنت": 7575,
      "▁الميد": 7576,
      "▁مسلم": 7577,
      "▁حضر": 7578,
      "▁الحيوية": 7579,
      "per": 7580,
      "ضاً": 7581,
      "▁الفم": 7582,
      "▁الملكية": 7583,
      "▁الفضاء": 7584,
      "▁عَلَيْ": 7585,
      "▁المحيط": 7586,
      "▁Pl": 7587,
      "ah": 7588,
      "قليمي": 7589,
      "▁تشهد": 7590,
      "▁الرئا": 7591,
      "▁بعدها": 7592,
      "w.": 7593,
      "ئاب": 7594,
      "▁نفسه،": 7595,
      "▁الإطار": 7596,
      "بلا": 7597,
      "▁تأجير": 7598,
      "▁مقدم": 7599,
      "▁ببعض": 7600,
      "▁المحرك": 7601,
      "▁الغبار": 7602,
      "▁ثال": 7603,
      "هيد": 7604,
      "▁الشرعية": 7605,
      "▁مثالي": 7606,
      "لتزم": 7607,
      "▁تعالى:": 7608,
      "نة،": 7609,
      "▁بعضهم": 7610,
      "▁المعم": 7611,
      "▁افتتاح": 7612,
      "▁لإعادة": 7613,
      "▁حصلت": 7614,
      "قائمة": 7615,
      "▁ففي": 7616,
      "▁الجزيرة": 7617,
      "▁إنّ": 7618,
      "خلال": 7619,
      "▁مكون": 7620,
      "▁استعمال": 7621,
      "▁تركيز": 7622,
      ".\nيتم": 7623,
      "▁عباس": 7624,
      "▁الهواتف": 7625,
      "▁الأصلي": 7626,
      "جوز": 7627,
      "▁الدراسي": 7628,
      "شاشة": 7629,
      "▁المراه": 7630,
      "هيار": 7631,
      "▁الفولاذ": 7632,
      "وله": 7633,
      "▁التابع": 7634,
      "هدد": 7635,
      "▁سوري": 7636,
      "▁التخطيط": 7637,
      "▁السلامة": 7638,
      "طع": 7639,
      "▁الساخن": 7640,
      "▁للمستخدم": 7641,
      "ٍ،": 7642,
      "▁الغربي": 7643,
      "▁اليس": 7644,
      "▁بناءً": 7645,
      "▁ومش": 7646,
      "▁جهد": 7647,
      "ني،": 7648,
      "▁مكعب": 7649,
      "فراد": 7650,
      "▁الأنواع": 7651,
      "▁الاسلام": 7652,
      "▁المعنية": 7653,
      "ظبي": 7654,
      "▁سلم": 7655,
      "▁انس": 7656,
      "▁انقر": 7657,
      "▁اثنين": 7658,
      "▁الولادة": 7659,
      "ساط": 7660,
      "▁تعب": 7661,
      "▁سورية": 7662,
      "▁القومي": 7663,
      "▁بمس": 7664,
      "▁مستمر": 7665,
      "▁الناتج": 7666,
      "▁تقريبًا": 7667,
      "▁الطا": 7668,
      "شيط": 7669,
      "▁إلخ": 7670,
      "▁الصاد": 7671,
      "▁اللهم": 7672,
      "▁مرب": 7673,
      "▁فوري": 7674,
      "▁لاستخدام": 7675,
      "▁أفكار": 7676,
      "▁يمتلك": 7677,
      "▁الماس": 7678,
      "▁المرتبطة": 7679,
      "▁com": 7680,
      "▁المقاوم": 7681,
      "▁شعار": 7682,
      "انى": 7683,
      "ينو": 7684,
      "▁مخاطر": 7685,
      "▁نن": 7686,
      "ظهار": 7687,
      "وضحت": 7688,
      "▁حرص": 7689,
      "▁خي": 7690,
      "indows": 7691,
      "▁الهر": 7692,
      "▁الأمين": 7693,
      "▁التحالف": 7694,
      "67": 7695,
      "▁هى": 7696,
      "▁تخصيص": 7697,
      "▁الذكاء": 7698,
      "▁بأسعار": 7699,
      "▁سلوك": 7700,
      "▁التخصص": 7701,
      "صوص": 7702,
      "▁السطح": 7703,
      "اوف": 7704,
      "▁استبدال": 7705,
      "▁المسيح": 7706,
      "▁الإيراني": 7707,
      ":0": 7708,
      "▁نمط": 7709,
      "▁الشارع": 7710,
      "فيق": 7711,
      "▁82": 7712,
      "▁العقود": 7713,
      "▁للجميع": 7714,
      "achin": 7715,
      "▁ظهرت": 7716,
      "▁واقع": 7717,
      "عايير": 7718,
      "▁الآية": 7719,
      "▁ht": 7720,
      "▁مقدمة": 7721,
      "▁عقود": 7722,
      "▁الحمراء": 7723,
      "▁الإضاف": 7724,
      "▁الظهر": 7725,
      "▁الضر": 7726,
      "▁جوز": 7727,
      "▁الكهربائي": 7728,
      ".\nبعد": 7729,
      "▁الرد": 7730,
      "-20": 7731,
      "▁عوامل": 7732,
      "▁ch": 7733,
      "وكالة": 7734,
      "▁معهم": 7735,
      "▁كنا": 7736,
      "▁موجودة": 7737,
      "ّت": 7738,
      "▁2000": 7739,
      "▁والإن": 7740,
      "▁جوجل": 7741,
      "▁تأكيد": 7742,
      "▁المقالة": 7743,
      "▁التسويق": 7744,
      "▁تنمية": 7745,
      "هادات": 7746,
      "▁تبقى": 7747,
      "ضائع": 7748,
      "روي": 7749,
      "▁الاختبار": 7750,
      "▁الشتاء": 7751,
      "▁وَل": 7752,
      "أمل": 7753,
      "▁لنقل": 7754,
      "2021": 7755,
      "▁العروض": 7756,
      "قدام": 7757,
      "▁أمل": 7758,
      "▁ومد": 7759,
      "▁مقاطع": 7760,
      "▁ثمن": 7761,
      "▁ورق": 7762,
      "▁مراجعة": 7763,
      "▁برشلونة": 7764,
      "▁price": 7765,
      "▁تجديد": 7766,
      "▁الربيع": 7767,
      "▁كربونات": 7768,
      "َأ": 7769,
      "▁تضمن": 7770,
      "لاقات": 7771,
      "▁وأنه": 7772,
      "▁شرطة": 7773,
      "ذى": 7774,
      "▁لند": 7775,
      "▁يشمل": 7776,
      "▁منازل": 7777,
      "▁استش": 7778,
      "▁الدرجة": 7779,
      "▁الفنانة": 7780,
      "▁الكيميائية": 7781,
      "▁لأس": 7782,
      ".\nوكانت": 7783,
      "▁المنزلية": 7784,
      "▁و”": 7785,
      "▁العام،": 7786,
      "▁المائة": 7787,
      "▁الاخ": 7788,
      "▁وسيلة": 7789,
      "▁بالماء": 7790,
      "▁رعاية": 7791,
      "\nإذا": 7792,
      "▁متط": 7793,
      "▁هند": 7794,
      "كاة": 7795,
      "▁العش": 7796,
      "▁صفوف": 7797,
      "\n(": 7798,
      "بيانات": 7799,
      "▁الأطباء": 7800,
      "ft": 7801,
      "▁السابع": 7802,
      "▁الدينية": 7803,
      "▁المعارضة": 7804,
      "........": 7805,
      "▁خال": 7806,
      "▁الخبز": 7807,
      "▁وجدت": 7808,
      "▁يرجى": 7809,
      "وقال": 7810,
      "▁خطأ": 7811,
      "▁التجربة": 7812,
      "▁يأخذ": 7813,
      "راقب": 7814,
      "▁سهولة": 7815,
      "▁تابع": 7816,
      "▁العادي": 7817,
      "▁الليم": 7818,
      "▁والتق": 7819,
      "▁اك": 7820,
      "▁كله": 7821,
      "▁اخر": 7822,
      "وعي": 7823,
      "▁مور": 7824,
      "اردة": 7825,
      "بقاء": 7826,
      "حته": 7827,
      "▁حصول": 7828,
      "▁كثيرا": 7829,
      "▁سوء": 7830,
      "▁أخرى.": 7831,
      "▁زا": 7832,
      "▁اتفاقية": 7833,
      "سى": 7834,
      "▁ar": 7835,
      "وفق": 7836,
      "▁الوك": 7837,
      "▁للمت": 7838,
      "▁اجل": 7839,
      "فة،": 7840,
      "زو": 7841,
      "▁مثير": 7842,
      "خصائص": 7843,
      "▁إيطاليا": 7844,
      "▁مفر": 7845,
      "▁أون": 7846,
      "▁أعد": 7847,
      "▁الفلسطينيين": 7848,
      "طرية": 7849,
      "▁فري": 7850,
      "▁يحي": 7851,
      "ُد": 7852,
      "▁المذكورة": 7853,
      "88": 7854,
      "يرًا": 7855,
      "▁(ب": 7856,
      "جمال": 7857,
      "▁لتجهيز": 7858,
      "▁غياب": 7859,
      "▁الصلبة": 7860,
      "ex": 7861,
      "td": 7862,
      "▁أقدم": 7863,
      "رادة": 7864,
      "▁آمن": 7865,
      "يمون": 7866,
      "are": 7867,
      "كتابة": 7868,
      "3)": 7869,
      "▁المعالجة": 7870,
      "▁جبل": 7871,
      "قاعد": 7872,
      "صرة": 7873,
      "▁الخضراء": 7874,
      "صيب": 7875,
      ".\nوتابع": 7876,
      "▁زوجها": 7877,
      "ستمر": 7878,
      "▁وعندما": 7879,
      "▁مصر.": 7880,
      "▁أَن": 7881,
      ".\n2.": 7882,
      "عمق": 7883,
      "وزير": 7884,
      "▁سلام": 7885,
      "▁الرج": 7886,
      "تام": 7887,
      "▁فشل": 7888,
      "▁العقاري": 7889,
      "ائية،": 7890,
      "▁يتحدث": 7891,
      "▁الجيد": 7892,
      "▁السيدة": 7893,
      "طول": 7894,
      "▁لتحسين": 7895,
      "▁طبيعية": 7896,
      "▁سياسي": 7897,
      "▁تسعى": 7898,
      "▁وتوفير": 7899,
      "▁More\n": 7900,
      "▁إلغاء": 7901,
      "▁ونا": 7902,
      "▁الاستراتيجية": 7903,
      "▁يدفع": 7904,
      "اريو": 7905,
      "▁الملكي": 7906,
      "▁الأكس": 7907,
      "▁الحص": 7908,
      "ْتُ": 7909,
      "عه": 7910,
      "▁عليه،": 7911,
      "▁الثقافية": 7912,
      "▁فلم": 7913,
      "▁جراء": 7914,
      ".\nاقرأ": 7915,
      "▁(يونيو": 7916,
      "hing": 7917,
      "▁غرامة": 7918,
      "▁مقتل": 7919,
      "▁محطم.": 7920,
      "▁باللغة": 7921,
      "ین": 7922,
      "▁And": 7923,
      "▁عبدالعزيز": 7924,
      "ْس": 7925,
      "▁تويتر": 7926,
      "ect": 7927,
      "▁الشؤون": 7928,
      "كنت": 7929,
      "▁ويف": 7930,
      "▁الانس": 7931,
      "▁العناية": 7932,
      "▁لتعزيز": 7933,
      "▁الرغبة": 7934,
      "فاتيح": 7935,
      "▁الربح": 7936,
      "▁مقت": 7937,
      "▁الوقود": 7938,
      "عيين": 7939,
      "▁الذكر": 7940,
      "▁معايير": 7941,
      "▁تصوير": 7942,
      "ركان": 7943,
      "▁المحدودة": 7944,
      "▁فعاليات": 7945,
      "▁الانف": 7946,
      "▁بجميع": 7947,
      "▁بحلول": 7948,
      "ئة،": 7949,
      "▁بتوقيت": 7950,
      "▁أسلوب": 7951,
      "47": 7952,
      "▁العمل،": 7953,
      "ديس": 7954,
      "▁تقارير": 7955,
      "eng": 7956,
      "▁ÙØ": 7957,
      "سيك": 7958,
      "▁الرسول": 7959,
      "▁ولل": 7960,
      "▁Ar": 7961,
      "▁متى": 7962,
      "▁32": 7963,
      "▁يشت": 7964,
      "▁“إ": 7965,
      "▁وفقاً": 7966,
      "▁الخش": 7967,
      "رافق": 7968,
      "▁الصحافة": 7969,
      "▁يضم": 7970,
      "▁يجري": 7971,
      "▁العملة": 7972,
      "▁للمن": 7973,
      "▁فاصل": 7974,
      "▁يضع": 7975,
      "آكل": 7976,
      "▁العاملة": 7977,
      "▁الأرز": 7978,
      ".\nعلى": 7979,
      "▁موسى": 7980,
      "▁واخت": 7981,
      "▁للوصول": 7982,
      "▁اون": 7983,
      "سيج": 7984,
      "▁وتف": 7985,
      "▁الحدث": 7986,
      "▁عام،": 7987,
      "\nإن": 7988,
      "▁سعة": 7989,
      "▁سياق": 7990,
      "▁المسؤولية": 7991,
      "▁الكتابة": 7992,
      "▁خفض": 7993,
      "حسن": 7994,
      "▁السلوك": 7995,
      "▁بوصة": 7996,
      "▁كوم": 7997,
      "▁بالتح": 7998,
      "مي،": 7999,
      "▁القمح": 8000,
      "▁النسخة": 8001,
      "عدام": 8002,
      "▁شرب": 8003,
      "▁مظهر": 8004,
      "وكب": 8005,
      "نها": 8006,
      "▁المكر": 8007,
      "ئناف": 8008,
      "▁لتحديد": 8009,
      "قدار": 8010,
      "▁المتقدم": 8011,
      "▁الرأي": 8012,
      "▁مجلة": 8013,
      "____": 8014,
      "▁علماء": 8015,
      "ردد": 8016,
      "▁التحديات": 8017,
      "▁الرائعة": 8018,
      "ريغ": 8019,
      "▁أقوى": 8020,
      "▁الهيكل": 8021,
      "▁النفسي": 8022,
      "▁قرر": 8023,
      "▁عاش": 8024,
      "▁مصري": 8025,
      "▁قي": 8026,
      "▁سريعة": 8027,
      "▁تتراوح": 8028,
      "▁تأمين": 8029,
      "▁شهدت": 8030,
      "شين": 8031,
      "▁الزمالك": 8032,
      "وفيد": 8033,
      "▁يعت": 8034,
      "دل": 8035,
      "▁باقي": 8036,
      "▁إعطاء": 8037,
      "▁ممتازة": 8038,
      "▁القناة": 8039,
      "▁الكربون": 8040,
      "▁مسل": 8041,
      "▁علاوة": 8042,
      "85": 8043,
      "▁التقنيات": 8044,
      "▁خلاله": 8045,
      "▁أشار": 8046,
      "▁محطم,": 8047,
      "وصل": 8048,
      "▁pdf": 8049,
      "▁إقليم": 8050,
      "OS": 8051,
      "▁عائل": 8052,
      "▁واعت": 8053,
      "دعاء": 8054,
      "قاب": 8055,
      "▁الجاه": 8056,
      "▁المعرض": 8057,
      "▁السياحية": 8058,
      "▁التجميل": 8059,
      "برة": 8060,
      "صق": 8061,
      "▁“الم": 8062,
      ",000": 8063,
      "الحة": 8064,
      "▁عاج": 8065,
      "▁الوعي": 8066,
      "▁مفيد": 8067,
      "▁سقوط": 8068,
      "▁(يونيو)": 8069,
      "▁يؤكد": 8070,
      "eg": 8071,
      "▁الثقافي": 8072,
      "▁للصد": 8073,
      "▁المنخفض": 8074,
      "▁يختلف": 8075,
      "▁متك": 8076,
      "▁جمي": 8077,
      "وائي": 8078,
      "▁النيابة": 8079,
      "ثنين،": 8080,
      "طرق": 8081,
      "▁القرارات": 8082,
      "▁عُ": 8083,
      "▁النصر": 8084,
      "ت،": 8085,
      "▁نار": 8086,
      "▁مناجم": 8087,
      "▁الخارجي": 8088,
      "وعات": 8089,
      "▁اندونيسيا": 8090,
      "▁ويكون": 8091,
      "وته": 8092,
      "\nقال": 8093,
      "▁شف": 8094,
      "▁مؤقت": 8095,
      "لالات": 8096,
      "▁الارد": 8097,
      "▁العائلة": 8098,
      "\nك": 8099,
      "▁للمواطن": 8100,
      "▁عسكري": 8101,
      "▁أنني": 8102,
      "طراب": 8103,
      "َاب": 8104,
      "▁والمد": 8105,
      "▁الني": 8106,
      "ؤل": 8107,
      "ترا": 8108,
      "▁الديمقراطية": 8109,
      "كتيريا": 8110,
      "-19": 8111,
      "sp": 8112,
      "تمدة": 8113,
      "▁صخور": 8114,
      "▁مفتوحة": 8115,
      "▁العدل": 8116,
      "▁المنغنيز": 8117,
      "خلف": 8118,
      "▁تلقي": 8119,
      ".\nهل": 8120,
      "▁شديدة": 8121,
      "▁توجه": 8122,
      "▁(ما": 8123,
      "▁التاريخية": 8124,
      "لاجئين": 8125,
      "▁ومل": 8126,
      "▁الرسالة": 8127,
      "▁تصادمية": 8128,
      "▁المطبخ": 8129,
      "▁يمنح": 8130,
      "▁العدالة": 8131,
      "▁أراضي": 8132,
      "▁قلت": 8133,
      "أثر": 8134,
      "▁نهر": 8135,
      "▁لابد": 8136,
      "▁فعالة": 8137,
      "▁بالاست": 8138,
      "▁أطلق": 8139,
      "▁يبقى": 8140,
      "▁الائ": 8141,
      "▁محمولة": 8142,
      "▁مميز": 8143,
      "ell": 8144,
      "▁قررت": 8145,
      "▁معروف": 8146,
      "▁مدرب": 8147,
      "▁يمر": 8148,
      "▁التوتر": 8149,
      "▁كافية": 8150,
      "▁وعمل": 8151,
      "▁فإنها": 8152,
      "▁فحم": 8153,
      "▁العاط": 8154,
      "▁نح": 8155,
      "▁اليون": 8156,
      "▁اللحظة": 8157,
      "يي": 8158,
      "لقات": 8159,
      "▁المخروطية": 8160,
      "▁آلية": 8161,
      "▁وبناء": 8162,
      "فسة": 8163,
      "▁خفيفة": 8164,
      "▁البطن": 8165,
      "www.": 8166,
      "▁والمواد": 8167,
      "ؤولة": 8168,
      "▁رخيصة": 8169,
      "46": 8170,
      "▁الحلول": 8171,
      "تحميل": 8172,
      "▁كجم": 8173,
      "▁خرس": 8174,
      "▁تقنيات": 8175,
      "ED": 8176,
      "▁برس": 8177,
      "▁ويكيبي": 8178,
      "▁البريطانية": 8179,
      "▁الدائرة": 8180,
      "هاجر": 8181,
      "▁دمشق": 8182,
      "ثف": 8183,
      "▁الصين.": 8184,
      "▁زاد": 8185,
      "▁الاعلام": 8186,
      "كِ": 8187,
      "يسى": 8188,
      "ذاء": 8189,
      "▁والتنمية": 8190,
      "af": 8191,
      "▁العظام": 8192,
      "▁الإج": 8193,
      "▁اضغط": 8194,
      "▁تسمى": 8195,
      "▁كينيا": 8196,
      "▁جر": 8197,
      "▁أنفسهم": 8198,
      "وصى": 8199,
      "▁ولك": 8200,
      "تهاب": 8201,
      "واكه": 8202,
      "▁مسألة": 8203,
      "▁وكيفية": 8204,
      "▁القمر": 8205,
      "▁عا": 8206,
      "▁رسائل": 8207,
      "ينيات": 8208,
      "▁مصنوعة": 8209,
      "▁ريمون": 8210,
      "▁وطن": 8211,
      "▁سود": 8212,
      "▁معرف": 8213,
      "▁وإعادة": 8214,
      "ظفي": 8215,
      "غت": 8216,
      "▁العربية،": 8217,
      "▁النفايات": 8218,
      "▁ياس": 8219,
      "▁طبقة": 8220,
      "▁لتكون": 8221,
      ".\nقال": 8222,
      "▁الخر": 8223,
      "اناة": 8224,
      "▁أولئك": 8225,
      "وكسيت": 8226,
      "▁المتهم": 8227,
      "▁سلطة": 8228,
      "▁التفاعل": 8229,
      "▁الصندوق": 8230,
      "▁يمكنه": 8231,
      "▁36": 8232,
      "▁ذروة": 8233,
      "▁وإلى": 8234,
      "▁يتكون": 8235,
      "az": 8236,
      "يلات": 8237,
      "▁انع": 8238,
      "▁مطلوب": 8239,
      "▁تمويل": 8240,
      "٫٠٠": 8241,
      "▁شاب": 8242,
      "حه": 8243,
      "▁الآلي": 8244,
      "▁الرؤ": 8245,
      "تيش": 8246,
      "▁الحشرات": 8247,
      "▁إثر": 8248,
      "roid": 8249,
      "▁إنما": 8250,
      "جازة": 8251,
      "▁المنافسة": 8252,
      "▁لإنشاء": 8253,
      "▁سبحانه": 8254,
      "▁بأفضل": 8255,
      "▁آمنة": 8256,
      "▁بقيادة": 8257,
      "▁والتج": 8258,
      "ين:": 8259,
      "كرون": 8260,
      "▁بمناسبة": 8261,
      "مارس": 8262,
      "▁موبايل": 8263,
      "▁زراعة": 8264,
      "▁تقسيم": 8265,
      "▁2-": 8266,
      "▁التعلم": 8267,
      "▁عاماً": 8268,
      "▁الساخنة": 8269,
      "▁عمرو": 8270,
      "▁سمو": 8271,
      "▁جيش": 8272,
      "▁ميك": 8273,
      "▁عر": 8274,
      "▁ببط": 8275,
      "▁رابط": 8276,
      "▁السوداني": 8277,
      "%،": 8278,
      "▁سيس": 8279,
      "▁توقيع": 8280,
      "▁والتطوير": 8281,
      "سية،": 8282,
      "جليزية": 8283,
      "▁جا": 8284,
      "▁جس": 8285,
      "▁تام": 8286,
      "▁القيم": 8287,
      "▁للطاقة": 8288,
      "▁الإنجليزي": 8289,
      "▁القواعد": 8290,
      "▁التحرير": 8291,
      "▁عيني": 8292,
      "▁آن": 8293,
      "end": 8294,
      "▁الورق": 8295,
      "▁الاختيار": 8296,
      "▁محاول": 8297,
      "se": 8298,
      "كتشف": 8299,
      ".م": 8300,
      "▁مخل": 8301,
      "▁طر": 8302,
      "صلحة": 8303,
      "▁ثان": 8304,
      "▁مفاج": 8305,
      "▁إيقاف": 8306,
      "▁أسابيع": 8307,
      "▁للاهتمام": 8308,
      "▁المبلغ": 8309,
      "mm": 8310,
      "▁يض": 8311,
      "▁سيتي": 8312,
      "▁اليمني": 8313,
      "ناعات": 8314,
      "ile": 8315,
      "▁عشرات": 8316,
      "▁معدلات": 8317,
      "▁وجعل": 8318,
      "▁ثقافة": 8319,
      "▁تري": 8320,
      "▁حقيقي": 8321,
      "▁الجان": 8322,
      "َتْ": 8323,
      "▁1-": 8324,
      "وصيات": 8325,
      "ستير": 8326,
      "ساقط": 8327,
      "▁مزايا": 8328,
      "وكي": 8329,
      "32": 8330,
      "▁الطف": 8331,
      "▁الكلية": 8332,
      "كاب": 8333,
      "جرام": 8334,
      "▁فول": 8335,
      "▁ولهذا": 8336,
      "طاحن": 8337,
      "▁العدو": 8338,
      "▁المخدرات": 8339,
      "▁الصدر": 8340,
      "ئت": 8341,
      "age": 8342,
      "▁جرى": 8343,
      "▁at": 8344,
      "ّ،": 8345,
      ".\nلكن": 8346,
      "▁الأوكر": 8347,
      "▁للعملاء": 8348,
      "▁شاء": 8349,
      "▁لبناء": 8350,
      "▁السويد": 8351,
      "ممة": 8352,
      "▁لخام": 8353,
      "▁(إ": 8354,
      "زيمة": 8355,
      "IN": 8356,
      "وقعة": 8357,
      "▁والتع": 8358,
      "▁جائزة": 8359,
      "▁الاستقرار": 8360,
      "▁الوحي": 8361,
      "▁تقد": 8362,
      "▁التأكد": 8363,
      "▁غريب": 8364,
      "▁بتش": 8365,
      "▁الصحيحة": 8366,
      "▁Windows": 8367,
      "▁التحتية": 8368,
      "▁تفعيل": 8369,
      "▁الفكية": 8370,
      "▁هكذا": 8371,
      "▁طبي": 8372,
      "▁وقالت": 8373,
      "\":": 8374,
      "▁الألومنيوم": 8375,
      "▁اليابان": 8376,
      "\nمصنع": 8377,
      "اله": 8378,
      "▁يهم": 8379,
      "▁امام": 8380,
      "▁الخامسة": 8381,
      "▁الحسين": 8382,
      "▁مديرية": 8383,
      "▁مظ": 8384,
      "▁أحيان": 8385,
      "▁خلاف": 8386,
      "▁عالمي": 8387,
      "▁المهام": 8388,
      "▁عالمية": 8389,
      "ram": 8390,
      "▁عملاء": 8391,
      "▁أحكام": 8392,
      "▁الفلبين": 8393,
      "▁القوانين": 8394,
      "▁جزيرة": 8395,
      "▁٢٠": 8396,
      "▁حبوب": 8397,
      "سبار": 8398,
      "▁أند": 8399,
      "فش": 8400,
      "▁المتخصصة": 8401,
      "▁يلعب": 8402,
      "تحانات": 8403,
      "▁أعط": 8404,
      "ياطي": 8405,
      "▁مرو": 8406,
      "وزع": 8407,
      "▁عملائ": 8408,
      "▁فني": 8409,
      "▁البقاء": 8410,
      "قوله": 8411,
      "▁البازلت": 8412,
      "▁قائلا": 8413,
      "وائز": 8414,
      "لاوة": 8415,
      "▁قابل": 8416,
      "▁وَأ": 8417,
      "▁رواية": 8418,
      "▁الجلسة": 8419,
      "▁لتأ": 8420,
      "▁القبض": 8421,
      "▁يدعم": 8422,
      "وسائل": 8423,
      "95": 8424,
      "شركات": 8425,
      "▁المسل": 8426,
      "▁حماس": 8427,
      "ركي": 8428,
      "▁المم": 8429,
      "▁نُ": 8430,
      "▁نجم": 8431,
      "ber": 8432,
      "كندرية": 8433,
      "▁إليك": 8434,
      "▁عَنْ": 8435,
      "▁كميات": 8436,
      "▁كيلوم": 8437,
      "▁الشاي": 8438,
      "▁القوية": 8439,
      "ة.": 8440,
      "▁رئيسية": 8441,
      "افئ": 8442,
      "▁الأخرى،": 8443,
      "▁التوالي": 8444,
      "▁خطيرة": 8445,
      "▁الزيتون": 8446,
      "▁أدنى": 8447,
      "▁سليمان": 8448,
      "▁الحجر,": 8449,
      "ْف": 8450,
      "شاكل": 8451,
      "▁مثالية": 8452,
      "▁القب": 8453,
      "▁الكث": 8454,
      "وقيع": 8455,
      "▁البلاستيك": 8456,
      "▁الجزائري": 8457,
      "▁بنظام": 8458,
      "▁يستحق": 8459,
      "▁للاستخدام": 8460,
      "▁الواضح": 8461,
      "طنبول": 8462,
      "▁الإعلامي": 8463,
      "▁5.": 8464,
      "▁الإنجليزية": 8465,
      "طرف": 8466,
      "▁خبراء": 8467,
      "▁الطائرة": 8468,
      "شستر": 8469,
      "▁تضع": 8470,
      "▁مصلحة": 8471,
      "▁قَالَ": 8472,
      "▁استعادة": 8473,
      "▁الذاتية": 8474,
      "42": 8475,
      "▁العاب": 8476,
      "جيب": 8477,
      "▁اللَّهِ": 8478,
      "ئل": 8479,
      "▁تخصص": 8480,
      "انيت": 8481,
      "▁لتوفير": 8482,
      "▁بخصوص": 8483,
      "▁ضروري": 8484,
      "▁زوجته": 8485,
      "▁لتطوير": 8486,
      "▁وغرب": 8487,
      "%D": 8488,
      "▁المشاركين": 8489,
      "▁طبق": 8490,
      "رمز": 8491,
      "▁شريط": 8492,
      "▁العلوي": 8493,
      "▁آخر،": 8494,
      "▁الابتدائي": 8495,
      "▁وجب": 8496,
      "▁واص": 8497,
      "▁للصدأ": 8498,
      "▁نع": 8499,
      "قيمة": 8500,
      "▁تخطيط": 8501,
      "▁المكون": 8502,
      "▁والسلام": 8503,
      "▁وعي": 8504,
      "▁وجميع": 8505,
      "َّل": 8506,
      "شع": 8507,
      "سف": 8508,
      "قالي": 8509,
      "▁وتص": 8510,
      "ef": 8511,
      "▁غد": 8512,
      "▁البحوث": 8513,
      "▁يطلق": 8514,
      "لاعب": 8515,
      "يجا": 8516,
      "Ø±": 8517,
      "\n\"": 8518,
      "َيْن": 8519,
      "▁مجان": 8520,
      "▁وسيط": 8521,
      "\".\nو": 8522,
      "▁للي": 8523,
      "▁أمين": 8524,
      "▁لزيادة": 8525,
      "▁مسرح": 8526,
      "▁العزل": 8527,
      "▁الحرية": 8528,
      "ولاية": 8529,
      ").\n-": 8530,
      "طاحونة": 8531,
      "▁المحي": 8532,
      "▁مفيدة": 8533,
      "▁باه": 8534,
      "ِّي": 8535,
      "َرَ": 8536,
      "achinery": 8537,
      "▁السوفي": 8538,
      "▁البنية": 8539,
      "سمية": 8540,
      "يدن": 8541,
      "▁للان": 8542,
      "▁الخبث": 8543,
      "▁اقتصاد": 8544,
      "▁انتها": 8545,
      "▁مدن": 8546,
      "▁تنتج": 8547,
      "▁الهيدروك": 8548,
      "ديلات": 8549,
      "هههه": 8550,
      "د.": 8551,
      "\n\nت": 8552,
      "راسات": 8553,
      "▁بالعمل": 8554,
      "▁الإجابة": 8555,
      "ran": 8556,
      "org": 8557,
      "▁٣": 8558,
      ".\n•": 8559,
      "▁للمعدات": 8560,
      "▁مسؤولية": 8561,
      "▁فيها،": 8562,
      "▁الأسلحة": 8563,
      "▁معي": 8564,
      ":\nت": 8565,
      "▁المسحوق": 8566,
      "▁الرسائل": 8567,
      "▁بمحافظة": 8568,
      "▁هـ": 8569,
      "▁أولى": 8570,
      "\nج": 8571,
      "شاق": 8572,
      "▁والمه": 8573,
      "▁بدر": 8574,
      "▁المقر": 8575,
      "▁جون": 8576,
      "▁يملك": 8577,
      "▁الما": 8578,
      "▁بعناية": 8579,
      "▁mill": 8580,
      "▁كساره": 8581,
      "▁المخصصة": 8582,
      "ْتَ": 8583,
      "▁الصلة": 8584,
      "▁القطاعات": 8585,
      "▁أخر": 8586,
      "▁فی": 8587,
      "يا.": 8588,
      "▁الحس": 8589,
      "▁إنت": 8590,
      "▁الضع": 8591,
      "▁الألغام": 8592,
      "▁الجوي": 8593,
      "طيل": 8594,
      "▁طعام": 8595,
      "▁الدستور": 8596,
      "▁فق": 8597,
      "▁أولا": 8598,
      "ign": 8599,
      "\nوال": 8600,
      "▁الجيل": 8601,
      "▁مراعاة": 8602,
      "▁ذاته": 8603,
      "▁عَ": 8604,
      "▁نصر": 8605,
      "▁بريطانيا": 8606,
      "ذير": 8607,
      ".\nوأضافت": 8608,
      "▁شريك": 8609,
      "▁المساعدات": 8610,
      "▁الحوثي": 8611,
      "سكي": 8612,
      "▁كير": 8613,
      "هران": 8614,
      "arn": 8615,
      "▁cha": 8616,
      "▁القليل": 8617,
      "▁درهم": 8618,
      "ok": 8619,
      "▁75": 8620,
      "31": 8621,
      "▁ملاحظة": 8622,
      "oy": 8623,
      "▁ملحو": 8624,
      "2023年": 8625,
      "▁تجرب": 8626,
      "▁والفر": 8627,
      "افأة": 8628,
      "▁مجه": 8629,
      "▁حسابات": 8630,
      "▁المبادرة": 8631,
      "▁Google": 8632,
      "▁يفضل": 8633,
      "▁القانوني": 8634,
      "▁الفرص": 8635,
      "راط": 8636,
      "في،": 8637,
      "▁مهام": 8638,
      "▁التاسع": 8639,
      "وقوف": 8640,
      "اصر": 8641,
      "▁دعوة": 8642,
      "▁المنظ": 8643,
      "▁الثلاثاء،": 8644,
      "فاهيم": 8645,
      "▁تعبير": 8646,
      "ark": 8647,
      "▁والأم": 8648,
      "بادرات": 8649,
      "\nر": 8650,
      "▁تأكد": 8651,
      "▁خطاب": 8652,
      "▁التشري": 8653,
      "▁هجوم": 8654,
      "▁تعليقات": 8655,
      "▁مبادرة": 8656,
      "▁استقبال": 8657,
      "▁أصول": 8658,
      "▁الإسمنت": 8659,
      "▁قمة": 8660,
      "ثمارية": 8661,
      "سمنت": 8662,
      "جلب": 8663,
      "▁مواقف": 8664,
      "يدة": 8665,
      "▁واحت": 8666,
      "irs": 8667,
      "وكيل": 8668,
      "▁للمرأة": 8669,
      "▁عنا": 8670,
      "▁نظم": 8671,
      "▁لقب": 8672,
      "هلا": 8673,
      "قش": 8674,
      "▁كأن": 8675,
      "▁الإجراء": 8676,
      "▁محدد": 8677,
      "▁بدي": 8678,
      "▁والرياض": 8679,
      "سوق": 8680,
      "▁المشكلات": 8681,
      "َّر": 8682,
      "ستخدمي": 8683,
      "▁تعني": 8684,
      "▁الجدول": 8685,
      "▁متنا": 8686,
      "▁غيرها": 8687,
      "▁للشركة": 8688,
      "▁المصنوعة": 8689,
      "▁الكبد": 8690,
      "▁الأنظمة": 8691,
      "▁عَلَى": 8692,
      "▁الغير": 8693,
      "▁صلة": 8694,
      "▁افلام": 8695,
      "شام": 8696,
      "ower": 8697,
      "▁سيل": 8698,
      "▁يورو": 8699,
      "▁حما": 8700,
      "▁المستشار": 8701,
      "▁مدر": 8702,
      "▁تتكون": 8703,
      "▁تحب": 8704,
      "لاحظات": 8705,
      "77": 8706,
      "▁الفوائد": 8707,
      "▁الكنيسة": 8708,
      "▁الصهيوني": 8709,
      "▁وذ": 8710,
      "▁فريد": 8711,
      "قان": 8712,
      "ى.": 8713,
      "▁السائل": 8714,
      "▁اللحم": 8715,
      "▁وكذا": 8716,
      "▁الميت": 8717,
      "ثات": 8718,
      "فتاح": 8719,
      "▁الرملي": 8720,
      "▁البحرين": 8721,
      "▁القصة": 8722,
      ":\nأ": 8723,
      "▁ÙÙ": 8724,
      "▁انق": 8725,
      "▁اختر": 8726,
      "▁إند": 8727,
      "▁الاض": 8728,
      "حوا": 8729,
      "زنة": 8730,
      "▁جير": 8731,
      "▁عليها،": 8732,
      "ئون": 8733,
      "▁لعم": 8734,
      ".\n3.": 8735,
      "▁للبن": 8736,
      "يد،": 8737,
      "▁ليكون": 8738,
      "▁احمد": 8739,
      "▁مشترك": 8740,
      "▁وطحن": 8741,
      "عي،": 8742,
      "▁محتر": 8743,
      "▁وعند": 8744,
      "▁غانا": 8745,
      "▁فضلاً": 8746,
      "▁المفض": 8747,
      "▁متوسطة": 8748,
      "▁لمش": 8749,
      "▁بحر": 8750,
      "▁تبادل": 8751,
      "▁اث": 8752,
      "▁التونسي": 8753,
      "▁حقيقية": 8754,
      "▁عرب": 8755,
      "▁الخطأ": 8756,
      "ies": 8757,
      "▁الجميلة": 8758,
      "▁الخميس،": 8759,
      "▁2010": 8760,
      "فيس": 8761,
      "▁شاملة": 8762,
      "▁التثبيت": 8763,
      "▁المسؤولين": 8764,
      "▁يذكر": 8765,
      "▁بالا": 8766,
      "▁أرسل": 8767,
      "كييف": 8768,
      "▁دعا": 8769,
      "▁العسل": 8770,
      "هداء": 8771,
      "ارة،": 8772,
      "▁الفحص": 8773,
      "▁نرى": 8774,
      "a.": 8775,
      "▁مئوية": 8776,
      "▁المنظمات": 8777,
      "▁الأرباح": 8778,
      "لط": 8779,
      "▁لتم": 8780,
      "▁دائماً": 8781,
      "▁الهيدروكربونات": 8782,
      "▁يطلب": 8783,
      "▁البور": 8784,
      "▁وعاء": 8785,
      "▁منافسات": 8786,
      "▁المسلسل": 8787,
      "▁التحليل": 8788,
      "زاء": 8789,
      "▁التيار": 8790,
      "▁900": 8791,
      "▁الحمام": 8792,
      "؟\nال": 8793,
      "▁سنگ": 8794,
      "▁أكدت": 8795,
      "▁المباني": 8796,
      "▁البسيطة": 8797,
      "▁إله": 8798,
      "▁الحقيقية": 8799,
      "▁مئات": 8800,
      "▁أسهم": 8801,
      "▁للدولة": 8802,
      "▁لتع": 8803,
      "▁مترجم": 8804,
      "ial": 8805,
      "▁تخت": 8806,
      "▁يخرج": 8807,
      "وفا": 8808,
      "مج": 8809,
      "▁يخص": 8810,
      "▁حديثة": 8811,
      "تستخدم": 8812,
      "▁المقابل": 8813,
      "▁احترام": 8814,
      "▁طبية": 8815,
      "▁بإمكان": 8816,
      "▁رائحة": 8817,
      "▁الجهة": 8818,
      "▁نوم": 8819,
      "لوان": 8820,
      "ذاكر": 8821,
      "▁بمست": 8822,
      "ديوهات": 8823,
      "34": 8824,
      "▁ستت": 8825,
      "▁الكلمة": 8826,
      "▁كلي": 8827,
      "هتزاز": 8828,
      "▁وهكذا": 8829,
      "▁الواقعة": 8830,
      "▁سفر": 8831,
      "▁الجافة": 8832,
      "▁نماذج": 8833,
      "▁التطور": 8834,
      "▁الإقامة": 8835,
      "ركيب": 8836,
      "ثالث": 8837,
      "6-": 8838,
      "▁المحددة": 8839,
      "▁لِ": 8840,
      "▁ربع": 8841,
      "▁pl": 8842,
      "دون": 8843,
      "ظات": 8844,
      "▁مؤكد": 8845,
      "▁خذ": 8846,
      "▁الفيدر": 8847,
      "ويتي": 8848,
      "▁لاحق": 8849,
      "▁الدقة": 8850,
      "▁اعتبر": 8851,
      "▁Sp": 8852,
      "▁تخفيض": 8853,
      "مائ": 8854,
      "▁القلق": 8855,
      "دمج": 8856,
      "s,": 8857,
      "انو": 8858,
      "▁خش": 8859,
      "بتكرة": 8860,
      "▁أرباح": 8861,
      "▁المختصة": 8862,
      "▁رصيد": 8863,
      "▁فعالية": 8864,
      "▁لنظام": 8865,
      "ure": 8866,
      "▁الهندسة": 8867,
      "▁الصيني": 8868,
      "▁حقق": 8869,
      "▁تَ": 8870,
      "▁أجمل": 8871,
      "▁الكون": 8872,
      "▁مَا": 8873,
      "▁شنغ": 8874,
      "▁الرقمي": 8875,
      "▁توليد": 8876,
      "▁مذه": 8877,
      "▁تتيح": 8878,
      "▁ثابتة": 8879,
      "▁الجريمة": 8880,
      "co": 8881,
      "▁الأثاث": 8882,
      "▁بدلا": 8883,
      "▁خروج": 8884,
      "ذان": 8885,
      "▁استقرار": 8886,
      "تمثل": 8887,
      "▁iP": 8888,
      "hats": 8889,
      ".\nمع": 8890,
      "▁يتعرض": 8891,
      "9%": 8892,
      "ونيت": 8893,
      "▁الشخصيات": 8894,
      "ظيمة": 8895,
      "▁الطلبة": 8896,
      "▁ممتاز": 8897,
      "▁يخت": 8898,
      "▁قضاء": 8899,
      "▁بك.": 8900,
      "وظف": 8901,
      "▁الكائن": 8902,
      "عون": 8903,
      "▁يتجاوز": 8904,
      "ineg": 8905,
      "زت": 8906,
      "▁أوت": 8907,
      "▁حلقة": 8908,
      "▁الخوف": 8909,
      "▁أنّه": 8910,
      "▁أجن": 8911,
      "▁يحقق": 8912,
      "▁رق": 8913,
      "▁حياتك": 8914,
      "▁195": 8915,
      "▁عقل": 8916,
      "▁الهامة": 8917,
      "▁فلن": 8918,
      "▁أطول": 8919,
      "▁بلدة": 8920,
      "▁الشاعر": 8921,
      "ليح": 8922,
      "▁النطاق": 8923,
      "▁جرائم": 8924,
      "▁بوجود": 8925,
      "▁توريد": 8926,
      "▁فاز": 8927,
      "▁النصف": 8928,
      "▁ثنائي": 8929,
      "شيرة": 8930,
      "فار": 8931,
      "▁تقريبا": 8932,
      "▁فريدة": 8933,
      "▁خلايا": 8934,
      "▁للاتحاد": 8935,
      "▁البنت": 8936,
      "▁هاد": 8937,
      "▁لمصنع": 8938,
      "طبيقات": 8939,
      "▁التقديم": 8940,
      "..\n": 8941,
      "▁بمنطقة": 8942,
      "▁chairs": 8943,
      "فيديو": 8944,
      "▁الرصاص": 8945,
      "ودا": 8946,
      "عارض": 8947,
      "▁الفيت": 8948,
      "▁القائم": 8949,
      "▁الهوية": 8950,
      "▁chairsineg": 8951,
      "▁أية": 8952,
      "▁حامل": 8953,
      "▁be": 8954,
      "▁طلاب": 8955,
      "▁العقوبات": 8956,
      "▁الأفلام": 8957,
      "▁وقبل": 8958,
      "▁كسارة,": 8959,
      "▁الأنابيب": 8960,
      "▁الجنوبي": 8961,
      "▁البضائع": 8962,
      "وجاء": 8963,
      "ريج": 8964,
      "▁بتع": 8965,
      "فسي": 8966,
      "ining": 8967,
      "▁ميلاد": 8968,
      "▁واق": 8969,
      "▁مجمع": 8970,
      "▁المحل": 8971,
      "▁منصب": 8972,
      "▁الدجاج": 8973,
      "▁المعايير": 8974,
      "▁تواجد": 8975,
      "▁جلس": 8976,
      "شدد": 8977,
      "▁أوضح": 8978,
      "▁بوضع": 8979,
      "وابط": 8980,
      "▁لتخ": 8981,
      "▁يقرب": 8982,
      "▁الأحوال": 8983,
      "مجة": 8984,
      "▁صعب": 8985,
      "ته.": 8986,
      "▁الاستش": 8987,
      "▁البوكسيت": 8988,
      "▁الجه": 8989,
      "▁chairsineg/ar": 8990,
      "▁السك": 8991,
      "▁طي": 8992,
      "▁800": 8993,
      "▁مؤكدا": 8994,
      "▁(ص": 8995,
      "▁الصادر": 8996,
      "▁البا": 8997,
      "▁بالله": 8998,
      "▁الأربعاء،": 8999,
      "َات": 9000,
      "س.": 9001,
      "▁التدخل": 9002,
      "▁حمض": 9003,
      "\nمع": 9004,
      "▁الدعوة": 9005,
      "▁لعدم": 9006,
      "▁البروتين": 9007,
      "▁عادل": 9008,
      "ire": 9009,
      "كرم": 9010,
      "▁التلقائي": 9011,
      "▁لأكثر": 9012,
      "▁خارجية": 9013,
      "زات": 9014,
      "▁عمودية": 9015,
      "▁قوى": 9016,
      "▁آخرين": 9017,
      "▁والبحث": 9018,
      "▁ظاهرة": 9019,
      "▁والمل": 9020,
      "▁﴿": 9021,
      "▁بجد": 9022,
      "▁فندق": 9023,
      "▁المشهد": 9024,
      "▁إط": 9025,
      "غو": 9026,
      "▁كرو": 9027,
      "▁المواقف": 9028,
      "▁الزيارة": 9029,
      "▁البولي": 9030,
      "قاش": 9031,
      "▁إيجاد": 9032,
      "▁مخصصة": 9033,
      "▁والمعدات": 9034,
      "▁الغرض": 9035,
      "▁لبيع": 9036,
      "▁الصعيد": 9037,
      "▁المخل": 9038,
      "▁أخط": 9039,
      "▁العادية": 9040,
      "جمالية": 9041,
      "▁جرا": 9042,
      "▁الصنع": 9043,
      "▁غاز": 9044,
      "▁بدل": 9045,
      "▁تهديد": 9046,
      "اد،": 9047,
      "▁اليمنية": 9048,
      "▁الوص": 9049,
      "لا،": 9050,
      "ديها": 9051,
      "▁تدعم": 9052,
      "▁حدثنا": 9053,
      "▁الهجرة": 9054,
      "يض": 9055,
      "▁وهل": 9056,
      "▁شكر": 9057,
      ".ال": 9058,
      "▁العنوان": 9059,
      "▁السيسي": 9060,
      "▁جذ": 9061,
      "▁الفئة": 9062,
      "▁المسم": 9063,
      "نية،": 9064,
      "▁اص": 9065,
      "▁الناحية": 9066,
      "بوط": 9067,
      "▁خض": 9068,
      "▁شؤون": 9069,
      "▁المواصفات": 9070,
      ".\n“": 9071,
      "ماطم": 9072,
      "▁الأنس": 9073,
      "▁الأهل": 9074,
      "الفات": 9075,
      "قيبة": 9076,
      "▁مسافة": 9077,
      "هوري": 9078,
      "▁السعر\n": 9079,
      "▁الجديدة،": 9080,
      "▁مطالب": 9081,
      "▁تحاول": 9082,
      "▁أخبر": 9083,
      "نوب": 9084,
      "اكهة": 9085,
      "▁المغناطيسي": 9086,
      "▁ارتداء": 9087,
      "▁شاشات": 9088,
      "ولوجية": 9089,
      "▁الذاتي": 9090,
      "راء،": 9091,
      "تماد": 9092,
      "طلح": 9093,
      "▁الدراسية": 9094,
      ")\n-": 9095,
      "▁قصر": 9096,
      "▁غزة،": 9097,
      "▁أسئلة": 9098,
      "▁دير": 9099,
      "▁الَّذ": 9100,
      "▁قلوب": 9101,
      "▁الوحدات": 9102,
      "▁بذور": 9103,
      "▁بغض": 9104,
      "▁as": 9105,
      "▁المؤلف": 9106,
      "▁التصوير": 9107,
      "▁موض": 9108,
      "▁اخرى": 9109,
      "▁وأخ": 9110,
      "▁هاتفك": 9111,
      "لون": 9112,
      "\n\nأ": 9113,
      "صبحت": 9114,
      "جحة": 9115,
      "خطوات": 9116,
      "▁الإيمان": 9117,
      "راتيجي": 9118,
      "▁محدودة": 9119,
      "▁تلعب": 9120,
      "▁أنشطة": 9121,
      "زد": 9122,
      "▁الامارات": 9123,
      "▁تعطي": 9124,
      "▁زال": 9125,
      "▁احتمال": 9126,
      "▁الدبلوما": 9127,
      "▁الآن،": 9128,
      "▁المعل": 9129,
      "▁بمعنى": 9130,
      "▁تلف": 9131,
      "▁طفلك": 9132,
      "▁\"ح": 9133,
      "▁جورج": 9134,
      "▁App": 9135,
      "▁ab": 9136,
      "▁الإل": 9137,
      "▁وبدأ": 9138,
      "▁النجم": 9139,
      "▁السلبية": 9140,
      "▁ويمكنك": 9141,
      "َلَ": 9142,
      "▁الواح": 9143,
      "▁الطبقة": 9144,
      "▁لحقوق": 9145,
      "▁الخمس": 9146,
      "▁وأكد": 9147,
      "▁اتخذ": 9148,
      "▁تقت": 9149,
      "اذبية": 9150,
      "امرة": 9151,
      "▁حظ": 9152,
      "▁مزيج": 9153,
      "▁اعتقال": 9154,
      "▁الخصائص": 9155,
      "ُو": 9156,
      "▁الأوضاع": 9157,
      "▁المهارات": 9158,
      "▁أبوظبي": 9159,
      "\nوت": 9160,
      "خات": 9161,
      "400": 9162,
      "وايا": 9163,
      "▁لجعل": 9164,
      "▁طائرة": 9165,
      "كيم": 9166,
      "▁غرام": 9167,
      "▁التنفس": 9168,
      "اء.": 9169,
      "ربت": 9170,
      "▁عادي": 9171,
      "▁الإع": 9172,
      "كانيات": 9173,
      "▁السعودية.": 9174,
      "▁الاحتياجات": 9175,
      "▁التمثيل": 9176,
      "▁المائية": 9177,
      "ؤمن": 9178,
      "حث": 9179,
      "عدة": 9180,
      "▁كوريا": 9181,
      "▁كبيرا": 9182,
      "▁التحويل": 9183,
      "▁أساسية": 9184,
      "▁التعرض": 9185,
      "▁حرف": 9186,
      "اري،": 9187,
      "▁الطوارئ": 9188,
      "▁المجموعات": 9189,
      "▁النهار": 9190,
      "▁عجلة": 9191,
      "قود": 9192,
      "▁متاح": 9193,
      "▁ساب": 9194,
      "▁ينظر": 9195,
      "▁مشاعر": 9196,
      "▁عصير": 9197,
      "▁جريمة": 9198,
      "▁ونصف": 9199,
      "▁لصناعة": 9200,
      "▁الجمعة،": 9201,
      "▁السلاح": 9202,
      "▁لمعالجة": 9203,
      "▁الهرم": 9204,
      "1،": 9205,
      "▁الشائعة": 9206,
      "▁فقط.": 9207,
      "▁أرقام": 9208,
      "▁رام": 9209,
      "عودية": 9210,
      "▁الأحد،": 9211,
      "تحان": 9212,
      "▁كشفت": 9213,
      "▁عمله": 9214,
      "nl": 9215,
      "بلد": 9216,
      "\nتت": 9217,
      "▁قدمت": 9218,
      ".\nك": 9219,
      "سيطر": 9220,
      "▁استمر": 9221,
      "▁أكسيد": 9222,
      "▁يفت": 9223,
      "ews": 9224,
      "▁الفقر": 9225,
      "▁متخصصة": 9226,
      "▁بالتن": 9227,
      "▁حجز": 9228,
      "▁مقطع": 9229,
      "▁للتأ": 9230,
      "▁عملي": 9231,
      "▁اقتصادية": 9232,
      "▁تتجاوز": 9233,
      "▁وَم": 9234,
      "راجعات": 9235,
      "▁تاجر": 9236,
      "▁ساح": 9237,
      "بلاغ": 9238,
      "قتين": 9239,
      "▁الحملة": 9240,
      "▁مختبر": 9241,
      "▁حالي": 9242,
      "▁الفتيات": 9243,
      "▁Android": 9244,
      "▁البرازيل": 9245,
      "▁البع": 9246,
      "▁الأجزاء": 9247,
      "▁الطاحن": 9248,
      "▁الجهد": 9249,
      "▁الوكالة": 9250,
      "\nمطحنة": 9251,
      "▁المتحركة": 9252,
      "\nبعد": 9253,
      "▁التراث": 9254,
      ".\n*": 9255,
      "▁المساحة": 9256,
      "ج،": 9257,
      "ِيم": 9258,
      "▁يمكنني": 9259,
      "▁شيخ": 9260,
      "حاولة": 9261,
      "▁هما": 9262,
      "▁ونقل": 9263,
      "▁الامت": 9264,
      "▁المدف": 9265,
      "up": 9266,
      "▁صعبة": 9267,
      "▁تدل": 9268,
      "وكس": 9269,
      "▁الانسان": 9270,
      "▁الجاف": 9271,
      "▁تحكم": 9272,
      "▁لحل": 9273,
      "▁قصير": 9274,
      "▁فضل": 9275,
      "hone": 9276,
      "▁منهما": 9277,
      "\nص": 9278,
      "▁الهاد": 9279,
      "▁البري": 9280,
      "برد": 9281,
      "وبية": 9282,
      "▁النهر": 9283,
      "واحين": 9284,
      "قارنة": 9285,
      "▁ثقة": 9286,
      "▁تؤكد": 9287,
      "دوز": 9288,
      "▁أدناه": 9289,
      "▁48": 9290,
      "شو": 9291,
      "▁تصدر": 9292,
      "▁وهنا": 9293,
      "شئة": 9294,
      "▁وقوع": 9295,
      "▁إنهم": 9296,
      "▁ساخ": 9297,
      "▁تجميع": 9298,
      "▁يقلل": 9299,
      "▁مرح": 9300,
      "▁حتي": 9301,
      "لندا": 9302,
      "▁الإح": 9303,
      "▁...Read": 9304,
      "سحق": 9305,
      "▁السفير": 9306,
      "يلول": 9307,
      "▁المدرب": 9308,
      ".\nيجب": 9309,
      "▁حيدر": 9310,
      "▁النشر": 9311,
      "▁بمح": 9312,
      "واصلة": 9313,
      "▁التنسيق": 9314,
      "▁العيش": 9315,
      "طبع": 9316,
      "▁موضع": 9317,
      "صلت": 9318,
      "▁الهيدروليكية": 9319,
      "والب": 9320,
      "▁اللق": 9321,
      "▁مشتركة": 9322,
      "▁كثيرًا": 9323,
      "▁ثالث": 9324,
      "▁تستمر": 9325,
      "سانية": 9326,
      "▁الديمقراطي": 9327,
      "▁بريد": 9328,
      "زيين": 9329,
      "▁الوقت،": 9330,
      "▁عباد": 9331,
      "روضة": 9332,
      "▁اليومي": 9333,
      "▁التحول": 9334,
      "▁للعام": 9335,
      "ً،": 9336,
      "▁الأمثل": 9337,
      ".\nومع": 9338,
      "▁العائ": 9339,
      "▁بقية": 9340,
      "▁فأنت": 9341,
      "نياه": 9342,
      "▁شامل": 9343,
      "سيطرة": 9344,
      "فران": 9345,
      "▁تناسب": 9346,
      "▁المتخصص": 9347,
      "ارته": 9348,
      "▁مطل": 9349,
      "▁الأرقام": 9350,
      "▁الشهيرة": 9351,
      "▁كات": 9352,
      "زامن": 9353,
      "▁الجمال": 9354,
      "▁Chat": 9355,
      "▁مير": 9356,
      "▁أمور": 9357,
      "▁النووي": 9358,
      "نتين": 9359,
      "▁z": 9360,
      "▁ثورة": 9361,
      "جاجة": 9362,
      "قيقات": 9363,
      "▁انطلاق": 9364,
      "▁أسواق": 9365,
      "▁النصائح": 9366,
      "▁معهد": 9367,
      "وصي": 9368,
      "▁حقًا": 9369,
      "▁اللَّهُ": 9370,
      "▁حفر": 9371,
      "▁شجرة": 9372,
      "▁الرياح": 9373,
      "▁المري": 9374,
      "▁بشدة": 9375,
      "▁الغذاء": 9376,
      "▁رصد": 9377,
      "صالح": 9378,
      "▁شق": 9379,
      "▁المرافق": 9380,
      "▁فيجب": 9381,
      "▁حصان": 9382,
      "▁الأصدقاء": 9383,
      "▁سقط": 9384,
      "wit": 9385,
      "▁الشرقي": 9386,
      "▁\"ب": 9387,
      "▁دل": 9388,
      "▁مغل": 9389,
      "خطوط": 9390,
      "▁المجا": 9391,
      "▁محركات": 9392,
      "▁آب": 9393,
      "زه": 9394,
      "▁العط": 9395,
      "تُ": 9396,
      "▁الحادث": 9397,
      "▁أسود": 9398,
      "▁الضفة": 9399,
      "able": 9400,
      "▁الشمالي": 9401,
      "▁تخفيف": 9402,
      "▁لندن": 9403,
      "▁استغلال": 9404,
      "▁سكر": 9405,
      "▁يمكنها": 9406,
      "▁فيه،": 9407,
      "سته": 9408,
      "▁عدن": 9409,
      ".\nكيف": 9410,
      "▁صاح": 9411,
      "▁السيراميك": 9412,
      "ep": 9413,
      "▁نيوي": 9414,
      "▁منصات": 9415,
      "▁الإقليمية": 9416,
      "جاجات": 9417,
      "رجاع": 9418,
      "▁الود": 9419,
      "▁منها،": 9420,
      "▁متعدد": 9421,
      "؟؟": 9422,
      "▁الموسيقى": 9423,
      "ادثات": 9424,
      "ْي": 9425,
      "▁متأ": 9426,
      "▁اليه": 9427,
      "▁المعروفة": 9428,
      "وائم": 9429,
      "▁قصص": 9430,
      "لامي": 9431,
      "وضوح": 9432,
      "▁بوابة": 9433,
      "▁ووا": 9434,
      "ress": 9435,
      "▁السياق": 9436,
      "اكمة": 9437,
      "▁للسل": 9438,
      "أسست": 9439,
      "▁الكلنكر": 9440,
      "▁الربع": 9441,
      "▁تقلي": 9442,
      "زوجة": 9443,
      "▁يستمر": 9444,
      "\nاست": 9445,
      "▁الطقس": 9446,
      "▁الحامل": 9447,
      "وراق": 9448,
      "▁الجو": 9449,
      "▁قادة": 9450,
      "خبارية": 9451,
      "ric": 9452,
      "▁والأح": 9453,
      "▁بطل": 9454,
      "▁هرم": 9455,
      "▁الإبداع": 9456,
      "▁زم": 9457,
      "▁دولار،": 9458,
      "▁لتنفيذ": 9459,
      "▁جواز": 9460,
      "▁عثمان": 9461,
      "ترام": 9462,
      "َةَ": 9463,
      "غلب": 9464,
      "▁صيد": 9465,
      "▁زيد": 9466,
      "▁الكي": 9467,
      "▁الواردة": 9468,
      "▁والبح": 9469,
      "ld": 9470,
      "▁تث": 9471,
      "▁الشمسية": 9472,
      "▁أعلاه": 9473,
      "▁قلق": 9474,
      "▁الكريمة": 9475,
      ".\nلقد": 9476,
      "▁للانت": 9477,
      "▁أشياء": 9478,
      "ech": 9479,
      "▁الدار": 9480,
      "▁الهندي": 9481,
      "▁تردد": 9482,
      "▁البشري": 9483,
      "▁لتلبية": 9484,
      "▁إيجابي": 9485,
      "▁مسيرة": 9486,
      "▁كفر": 9487,
      "▁سعادة": 9488,
      "▁رئاسة": 9489,
      "▁تصدير": 9490,
      "▁يسعى": 9491,
      "▁الوسائل": 9492,
      "▁ساحة": 9493,
      "▁فكان": 9494,
      "▁شيئًا": 9495,
      "ارى": 9496,
      "لاس": 9497,
      "لسفة": 9498,
      "حصاء": 9499,
      "فوق": 9500,
      "▁للغاية.": 9501,
      "▁الصعبة": 9502,
      "ربول": 9503,
      "▁((": 9504,
      "▁يقال": 9505,
      "فاه": 9506,
      "ركه": 9507,
      "خلط": 9508,
      "▁الموافقة": 9509,
      "▁ضخمة": 9510,
      "▁للتع": 9511,
      "َّد": 9512,
      "ستيكية": 9513,
      "▁الأولي": 9514,
      "أخذ": 9515,
      "▁ورفع": 9516,
      "▁مثيرة": 9517,
      "▁سمي": 9518,
      "وس،": 9519,
      "▁الجبل": 9520,
      "▁إسلام": 9521,
      "▁اقتصادي": 9522,
      ".\nالمصدر": 9523,
      "▁أبيض": 9524,
      "▁البارد": 9525,
      "▁وأح": 9526,
      "فه": 9527,
      "دام": 9528,
      "▁المركبات": 9529,
      "▁الميكاني": 9530,
      "▁لوحات": 9531,
      "ساعة": 9532,
      "▁أسر": 9533,
      "▁الأخرى.": 9534,
      "▁أصغر": 9535,
      "▁للحد": 9536,
      "▁الفات": 9537,
      "▁تسع": 9538,
      "▁البلاد،": 9539,
      "بيات": 9540,
      "سيما": 9541,
      "▁حام": 9542,
      "رداد": 9543,
      "ماج": 9544,
      "▁القائد": 9545,
      "https://": 9546,
      "▁الماضية،": 9547,
      "▁المجتمعات": 9548,
      "▁أوقات": 9549,
      "طوم": 9550,
      "▁أجر": 9551,
      "▁مزدوجة": 9552,
      "▁ألوان": 9553,
      "▁الصحيفة": 9554,
      "▁الأزرق": 9555,
      "▁دست": 9556,
      "▁الصي": 9557,
      "الية،": 9558,
      "▁ومؤ": 9559,
      "▁1200": 9560,
      ".\n[": 9561,
      "▁الجنسي": 9562,
      "▁الميزات": 9563,
      "▁بلاده": 9564,
      "▁الذاكرة": 9565,
      "▁العمود": 9566,
      "▁رسمية": 9567,
      "▁القاضي": 9568,
      "غراض": 9569,
      "\nالح": 9570,
      "▁وتكون": 9571,
      "▁عمي": 9572,
      "▁بقدر": 9573,
      "وانات": 9574,
      "▁التطوير": 9575,
      "وراً": 9576,
      "▁الخطاب": 9577,
      "خيارات": 9578,
      "فتح": 9579,
      "▁الأبعاد": 9580,
      "يل،": 9581,
      "▁القضائية": 9582,
      "▁الوب": 9583,
      "97": 9584,
      "▁السرير": 9585,
      "▁المستدامة": 9586,
      "▁مستخدم": 9587,
      "▁الوظيفة": 9588,
      "▁للاسمنت": 9589,
      "▁التقارير": 9590,
      "▁تدمير": 9591,
      "▁تنسيق": 9592,
      "68": 9593,
      "▁تبين": 9594,
      "▁معركة": 9595,
      "▁بمقدار": 9596,
      "▁تفاعل": 9597,
      "ree": 9598,
      "▁طراز": 9599,
      "4)": 9600,
      "▁الهض": 9601,
      "\nالع": 9602,
      "ib": 9603,
      "▁الائتم": 9604,
      "▁تابعة": 9605,
      "▁وعم": 9606,
      "▁الممتاز": 9607,
      "▁محطم،": 9608,
      "▁كود": 9609,
      "▁كبيرًا": 9610,
      "▁والمعادن": 9611,
      "▁وأنت": 9612,
      "▁ناصر": 9613,
      "▁اسمه": 9614,
      "▁اكبر": 9615,
      "▁القنوات": 9616,
      "خان": 9617,
      "▁يحدد": 9618,
      "▁للمرة": 9619,
      "ادلة": 9620,
      "ضيق": 9621,
      "▁المحر": 9622,
      "ظروف": 9623,
      "▁سنوات،": 9624,
      "▁اللجوء": 9625,
      ".\nتم": 9626,
      "▁يعرض": 9627,
      "▁استثمار": 9628,
      "▁بفيروس": 9629,
      "▁أريد": 9630,
      "▁ينتج": 9631,
      "▁والحفاظ": 9632,
      "▁السجن": 9633,
      "▁للمح": 9634,
      "▁تخرج": 9635,
      "▁نيس": 9636,
      "▁أعلم": 9637,
      "نظر": 9638,
      "▁يهدف": 9639,
      "▁محاجر": 9640,
      "▁المؤمنين": 9641,
      "ليها": 9642,
      "▁اللحوم": 9643,
      "هَ": 9644,
      "▁ساهم": 9645,
      "▁الموس": 9646,
      "▁فائدة": 9647,
      "▁حبي": 9648,
      "▁طيب": 9649,
      "▁توقعات": 9650,
      "یة": 9651,
      "اده": 9652,
      "مز": 9653,
      "▁ينتظر": 9654,
      "App": 9655,
      "َص": 9656,
      "▁رفي": 9657,
      "ناح": 9658,
      "▁المشروعات": 9659,
      "زلت": 9660,
      "▁البرلم": 9661,
      "حيث": 9662,
      "كوم": 9663,
      "▁مبنى": 9664,
      "▁القبول": 9665,
      "▁النقر": 9666,
      "▁وآله": 9667,
      "▁للإن": 9668,
      "▁الكلى": 9669,
      "▁التكنولوج": 9670,
      "▁سمع": 9671,
      "▁العمومية": 9672,
      "▁المفتوحة": 9673,
      "وكولات": 9674,
      "يادات": 9675,
      "اليوم": 9676,
      "▁والده": 9677,
      "▁المنصة": 9678,
      "خن": 9679,
      "▁العظم": 9680,
      "▁الألماني": 9681,
      "▁الإصدار": 9682,
      "▁يلت": 9683,
      "▁الجوال": 9684,
      "7-": 9685,
      "▁المستثمرين": 9686,
      "بناء": 9687,
      "▁يجمع": 9688,
      "كي،": 9689,
      "▁المرتبة": 9690,
      "▁المراكز": 9691,
      "▁سالم": 9692,
      "ْرِ": 9693,
      "فور": 9694,
      "قار": 9695,
      "سيتم": 9696,
      "▁انتقال": 9697,
      "عددة": 9698,
      "ترول": 9699,
      "▁بالمئة": 9700,
      "غذية": 9701,
      "▁السبت،": 9702,
      "▁إنسان": 9703,
      "▁صفقة": 9704,
      "▁للجم": 9705,
      "كيك": 9706,
      "eu": 9707,
      "ريبات": 9708,
      "▁جوانب": 9709,
      ".\n\"": 9710,
      "▁مؤخرا": 9711,
      "روسيا": 9712,
      "▁ذه": 9713,
      "▁مدف": 9714,
      "▁المرء": 9715,
      "▁الغر": 9716,
      "ebook": 9717,
      "41": 9718,
      "▁الرواية": 9719,
      "▁تلق": 9720,
      "▁للض": 9721,
      "ندر": 9722,
      "▁معًا": 9723,
      "▁سح": 9724,
      "▁دفاع": 9725,
      "▁بايدن": 9726,
      "▁مفتاح": 9727,
      "▁2022،": 9728,
      "▁الحفر": 9729,
      "▁with": 9730,
      "ّها": 9731,
      "▁البخ": 9732,
      "▁المحيطة": 9733,
      "ركية": 9734,
      "▁يقف": 9735,
      "▁إخراج": 9736,
      "\n–": 9737,
      "مى": 9738,
      "▁الشهير": 9739,
      "جيال": 9740,
      "▁روبل": 9741,
      "▁الساعات": 9742,
      "▁مانشستر": 9743,
      "▁المحافظات": 9744,
      "▁it": 9745,
      "▁أبواب": 9746,
      "ورية،": 9747,
      "وتين": 9748,
      "▁الشام": 9749,
      "فح": 9750,
      "▁الأحجار": 9751,
      "▁المختلفة،": 9752,
      "\nعلى": 9753,
      "▁الأثر": 9754,
      "▁تبديل": 9755,
      "سيع": 9756,
      "▁والتش": 9757,
      "علامات": 9758,
      "▁وقعت": 9759,
      "▁المنطقة،": 9760,
      "ian": 9761,
      "▁ينصح": 9762,
      "▁القدرات": 9763,
      "▁...\nكسارة": 9764,
      "\nمعدات": 9765,
      "▁سلب": 9766,
      "▁بالز": 9767,
      "▁وأش": 9768,
      "▁الحسابات": 9769,
      "▁المستجد": 9770,
      "▁فص": 9771,
      "▁وإلا": 9772,
      "أنواع": 9773,
      "▁يساهم": 9774,
      "جمعات": 9775,
      "▁مناقشة": 9776,
      "▁قنوات": 9777,
      "َّهُ": 9778,
      "▁_": 9779,
      "قالة": 9780,
      "ish": 9781,
      "سلم": 9782,
      "▁حوار": 9783,
      "oad": 9784,
      "طبة": 9785,
      "دي.": 9786,
      "▁انتظار": 9787,
      "تبة": 9788,
      "▁الجغ": 9789,
      "▁الفرا": 9790,
      "▁(مايو": 9791,
      "▁بيل": 9792,
      "▁التوت": 9793,
      "▁عمال": 9794,
      "▁معك": 9795,
      "▁يشبه": 9796,
      "▁تعت": 9797,
      "رة.": 9798,
      "▁استث": 9799,
      "▁:\n-": 9800,
      "لكية": 9801,
      "▁وار": 9802,
      "▁متطابق": 9803,
      "▁المتحدة.": 9804,
      "قول:": 9805,
      "ها.\n-": 9806,
      "▁نجوم": 9807,
      "▁(19": 9808,
      "مارات": 9809,
      "▁دواء": 9810,
      "قيمين": 9811,
      "قيدة": 9812,
      "\nق": 9813,
      "▁3-": 9814,
      "▁بدور": 9815,
      "داب": 9816,
      "▁بلدان": 9817,
      "يسر": 9818,
      "▁يوتيوب": 9819,
      "▁الخطة": 9820,
      "▁الأشهر": 9821,
      "▁لوزارة": 9822,
      "▁المقص": 9823,
      "▁حت": 9824,
      "▁نعرف": 9825,
      "▁صحفي": 9826,
      "▁الطي": 9827,
      "▁لتجنب": 9828,
      "▁المباشرة": 9829,
      "▁اهم": 9830,
      "▁المناعة": 9831,
      "▁الة": 9832,
      "ابون": 9833,
      "شيد": 9834,
      "▁السريعة": 9835,
      "▁لكسارة": 9836,
      "ميس": 9837,
      "▁مودي": 9838,
      "▁sh": 9839,
      "▁شيء،": 9840,
      "لاسي": 9841,
      "ياكل": 9842,
[...]
