{
  "version": "1.0",
  "truncation": null,
  "padding": null,
  "added_tokens": [
    {
      "id": 0,
      "content": "<s>",
      "single_word": false,
      "lstrip": false,
      "rstrip": false,
      "normalized": false,
      "special": true
    },
    {
      "id": 1,
      "content": "</s>",
      "single_word": false,
      "lstrip": false,
      "rstrip": false,
      "normalized": false,
      "special": true
    },
    {
      "id": 2,
      "content": "<unk>",
      "single_word": false,
      "lstrip": false,
      "rstrip": false,
      "normalized": false,
      "special": true
    },
    {
      "id": 3,
      "content": "<pad>",
      "single_word": false,
      "lstrip": false,
      "rstrip": false,
      "normalized": false,
      "special": true
    },
    {
      "id": 4,
      "content": "<mask>",
      "single_word": false,
      "lstrip": false,
      "rstrip": false,
      "normalized": false,
      "special": true
    }
  ],
  "normalizer": {
    "type": "NFKC"
  },
  "pre_tokenizer": {
    "type": "Metaspace",
    "replacement": "▁",
    "prepend_scheme": "always",
    "split": true
  },
  "post_processor": {
    "type": "TemplateProcessing",
    "single": [
      {
        "Sequence": {
          "id": "A",
          "type_id": 0
        }
      }
    ],
    "pair": [
      {
        "Sequence": {
          "id": "A",
          "type_id": 0
        }
      },
      {
        "Sequence": {
          "id": "B",
          "type_id": 1
        }
      }
    ],
    "special_tokens": {}
  },
  "decoder": {
    "type": "Metaspace",
    "replacement": "▁",
    "prepend_scheme": "always",
    "split": true
  },
  "model": {
    "type": "BPE",
    "dropout": null,
    "unk_token": "<unk>",
    "continuing_subword_prefix": null,
    "end_of_word_suffix": null,
    "fuse_unk": false,
    "byte_fallback": false,
    "ignore_merges": false,
    "vocab": {
      "<s>": 0,
      "</s>": 1,
      "<unk>": 2,
      "<pad>": 3,
      "<mask>": 4,
      "\n": 5,
      "!": 6,
      "\"": 7,
      "#": 8,
      "$": 9,
      "%": 10,
      "&": 11,
      "'": 12,
      "(": 13,
      ")": 14,
      "*": 15,
      "+": 16,
      ",": 17,
      "-": 18,
      ".": 19,
      "/": 20,
      "0": 21,
      "1": 22,
      "2": 23,
      "3": 24,
      "4": 25,
      "5": 26,
      "6": 27,
      "7": 28,
      "8": 29,
      "9": 30,
      ":": 31,
      ";": 32,
      "<": 33,
      "=": 34,
      ">": 35,
      "?": 36,
      "@": 37,
      "A": 38,
      "B": 39,
      "C": 40,
      "D": 41,
      "E": 42,
      "F": 43,
      "G": 44,
      "H": 45,
      "I": 46,
      "J": 47,
      "K": 48,
      "L": 49,
      "M": 50,
      "N": 51,
      "O": 52,
      "P": 53,
      "Q": 54,
      "R": 55,
      "S": 56,
      "T": 57,
      "U": 58,
      "V": 59,
      "W": 60,
      "X": 61,
      "Y": 62,
      "Z": 63,
      "[": 64,
      "\\": 65,
      "]": 66,
      "^": 67,
      "_": 68,
      "`": 69,
      "a": 70,
      "b": 71,
      "c": 72,
      "d": 73,
      "e": 74,
      "f": 75,
      "g": 76,
      "h": 77,
      "i": 78,
      "j": 79,
      "k": 80,
      "l": 81,
      "m": 82,
      "n": 83,
      "o": 84,
      "p": 85,
      "q": 86,
      "r": 87,
      "s": 88,
      "t": 89,
      "u": 90,
      "v": 91,
      "w": 92,
      "x": 93,
      "y": 94,
      "z": 95,
      "{": 96,
      "|": 97,
      "}": 98,
      "~": 99,
      "¡": 100,
      "¢": 101,
      "£": 102,
      "¤": 103,
      "¥": 104,
      "¦": 105,
      "§": 106,
      "©": 107,
      "«": 108,
      "¬": 109,
      "®": 110,
      "°": 111,
      "±": 112,
      "¶": 113,
      "·": 114,
      "»": 115,
      "¿": 116,
      "À": 117,
      "Á": 118,
      "Â": 119,
      "Ã": 120,
      "Ä": 121,
      "Å": 122,
      "Æ": 123,
      "Ç": 124,
      "È": 125,
      "É": 126,
      "Ê": 127,
      "Ë": 128,
      "Ì": 129,
      "Í": 130,
      "Î": 131,
      "Ï": 132,
      "Ð": 133,
      "Ñ": 134,
      "Ò": 135,
      "Ó": 136,
      "Ô": 137,
      "Õ": 138,
      "Ö": 139,
      "×": 140,
      "Ø": 141,
      "Ù": 142,
      "Ú": 143,
      "Û": 144,
      "Ü": 145,
      "Ý": 146,
      "Þ": 147,
      "ß": 148,
      "à": 149,
      "á": 150,
      "â": 151,
      "ã": 152,
      "ä": 153,
      "å": 154,
      "æ": 155,
      "ç": 156,
      "è": 157,
      "é": 158,
      "ê": 159,
      "ë": 160,
      "ì": 161,
      "í": 162,
      "î": 163,
      "ï": 164,
      "ð": 165,
      "ñ": 166,
      "ò": 167,
      "ó": 168,
      "ô": 169,
      "õ": 170,
      "ö": 171,
      "÷": 172,
      "ø": 173,
      "ù": 174,
      "ú": 175,
      "û": 176,
      "ü": 177,
      "ý": 178,
      "ā": 179,
      "ă": 180,
      "ą": 181,
      "ć": 182,
      "Č": 183,
      "č": 184,
      "đ": 185,
      "ē": 186,
      "ę": 187,
      "ě": 188,
      "ğ": 189,
      "ī": 190,
      "İ": 191,
      "ı": 192,
      "Ł": 193,
      "ł": 194,
      "ń": 195,
      "ō": 196,
      "Ř": 197,
      "ś": 198,
      "Ş": 199,
      "ş": 200,
      "Š": 201,
      "š": 202,
      "ū": 203,
      "Ů": 204,
      "ų": 205,
      "Ż": 206,
      "ż": 207,
      "ž": 208,
      "ƒ": 209,
      "ɑ": 210,
      "ə": 211,
      "ɡ": 212,
      "ɪ": 213,
      "ʃ": 214,
      "ʻ": 215,
      "ʾ": 216,
      "ˆ": 217,
      "ˈ": 218,
      "ː": 219,
      "́": 220,
      "̃": 221,
      "̄": 222,
      "̅": 223,
      "̈": 224,
      "̋": 225,
      "̧": 226,
      "̨": 227,
      "̯": 228,
      "̲": 229,
      "͠": 230,
      "͡": 231,
      "Δ": 232,
      "Φ": 233,
      "Ω": 234,
      "ά": 235,
      "έ": 236,
      "ή": 237,
      "ί": 238,
      "α": 239,
      "β": 240,
      "γ": 241,
      "δ": 242,
      "ε": 243,
      "η": 244,
      "θ": 245,
      "ι": 246,
      "κ": 247,
      "λ": 248,
      "μ": 249,
      "ν": 250,
      "ο": 251,
      "π": 252,
      "ρ": 253,
      "ς": 254,
      "σ": 255,
      "τ": 256,
      "υ": 257,
      "φ": 258,
      "χ": 259,
      "ω": 260,
      "ό": 261,
      "ύ": 262,
      "Ђ": 263,
      "Ѓ": 264,
      "Є": 265,
      "Ѕ": 266,
      "І": 267,
      "Ј": 268,
      "Ќ": 269,
      "Ў": 270,
      "Џ": 271,
      "А": 272,
      "Б": 273,
      "В": 274,
      "Г": 275,
      "Д": 276,
      "Е": 277,
      "З": 278,
      "И": 279,
      "К": 280,
      "Л": 281,
      "М": 282,
      "Н": 283,
      "О": 284,
      "П": 285,
      "Р": 286,
      "С": 287,
      "Т": 288,
      "У": 289,
      "Ф": 290,
      "Х": 291,
      "Ч": 292,
      "Ш": 293,
      "а": 294,
      "б": 295,
      "в": 296,
      "г": 297,
      "д": 298,
      "е": 299,
      "ж": 300,
      "з": 301,
      "и": 302,
      "й": 303,
      "к": 304,
      "л": 305,
      "м": 306,
      "н": 307,
      "о": 308,
      "п": 309,
      "р": 310,
      "с": 311,
      "т": 312,
      "у": 313,
      "ф": 314,
      "х": 315,
      "ц": 316,
      "ч": 317,
      "ш": 318,
      "щ": 319,
      "ъ": 320,
      "ы": 321,
      "ь": 322,
      "э": 323,
      "ю": 324,
      "я": 325,
      "ё": 326,
      "ѓ": 327,
      "є": 328,
      "ѕ": 329,
      "і": 330,
      "ї": 331,
      "ј": 332,
      "њ": 333,
      "ћ": 334,
      "ќ": 335,
      "џ": 336,
      "Ґ": 337,
      "ґ": 338,
      "ү": 339,
      "ө": 340,
      "ׄ": 341,
      "א": 342,
      "ב": 343,
      "ג": 344,
      "ד": 345,
      "ה": 346,
      "ו": 347,
      "ז": 348,
      "ח": 349,
      "ט": 350,
      "י": 351,
      "כ": 352,
      "ל": 353,
      "ם": 354,
      "מ": 355,
      "ן": 356,
      "נ": 357,
      "ס": 358,
      "ע": 359,
      "פ": 360,
      "ץ": 361,
      "צ": 362,
      "ק": 363,
      "ר": 364,
      "ש": 365,
      "ת": 366,
      "،": 367,
      "؎": 368,
      "؏": 369,
      "؛": 370,
      "؟": 371,
      "ء": 372,
      "آ": 373,
      "أ": 374,
      "ؤ": 375,
      "إ": 376,
      "ئ": 377,
      "ا": 378,
      "ب": 379,
      "ة": 380,
      "ت": 381,
      "ث": 382,
      "ج": 383,
      "ح": 384,
      "خ": 385,
      "د": 386,
      "ذ": 387,
      "ر": 388,
      "ز": 389,
      "س": 390,
      "ش": 391,
      "ص": 392,
      "ض": 393,
      "ط": 394,
      "ظ": 395,
      "ع": 396,
      "غ": 397,
      "ػ": 398,
      "ؼ": 399,
      "ؽ": 400,
      "ؾ": 401,
      "ؿ": 402,
      "ـ": 403,
      "ف": 404,
      "ق": 405,
      "ك": 406,
      "ل": 407,
      "م": 408,
      "ن": 409,
      "ه": 410,
      "و": 411,
      "ى": 412,
      "ي": 413,
      "ً": 414,
      "ٌ": 415,
      "ٍ": 416,
      "َ": 417,
      "ُ": 418,
      "ِ": 419,
      "ّ": 420,
      "ْ": 421,
      "ٓ": 422,
      "ٔ": 423,
      "ٕ": 424,
      "ٖ": 425,
      "ٗ": 426,
      "ٙ": 427,
      "ٞ": 428,
      "٠": 429,
      "١": 430,
      "٢": 431,
      "٣": 432,
      "٤": 433,
      "٥": 434,
      "٦": 435,
      "٧": 436,
      "٨": 437,
      "٩": 438,
      "٪": 439,
      "٫": 440,
      "٬": 441,
      "٭": 442,
      "ٰ": 443,
      "ٱ": 444,
      "ٲ": 445,
      "ٳ": 446,
      "ٴ": 447,
      "ٹ": 448,
      "ٻ": 449,
      "ټ": 450,
      "پ": 451,
      "ٿ": 452,
      "ڀ": 453,
      "چ": 454,
      "ڈ": 455,
      "ډ": 456,
      "ړ": 457,
      "ڕ": 458,
      "ژ": 459,
      "ڠ": 460,
      "ڤ": 461,
      "ڨ": 462,
      "ک": 463,
      "ڪ": 464,
      "ڭ": 465,
      "گ": 466,
      "ڳ": 467,
      "ڵ": 468,
      "ں": 469,
      "ڻ": 470,
      "ھ": 471,
      "ہ": 472,
      "ۃ": 473,
      "ۆ": 474,
      "ۈ": 475,
      "ی": 476,
      "ێ": 477,
      "ې": 478,
      "ے": 479,
      "۔": 480,
      "ە": 481,
      "ۖ": 482,
      "ۗ": 483,
      "ۚ": 484,
      "۞": 485,
      "۟": 486,
      "ۡ": 487,
      "ۢ": 488,
      "ۤ": 489,
      "ۥ": 490,
      "ۦ": 491,
      "۩": 492,
      "۰": 493,
      "۱": 494,
      "۲": 495,
      "۳": 496,
      "۴": 497,
      "۵": 498,
      "۶": 499,
      "۷": 500,
      "۸": 501,
      "۹": 502,
      "ࣰ": 503,
      "ࣱ": 504,
      "ं": 505,
      "क": 506,
      "ग": 507,
      "ज": 508,
      "ट": 509,
      "त": 510,
      "द": 511,
      "न": 512,
      "प": 513,
      "ब": 514,
      "म": 515,
      "य": 516,
      "र": 517,
      "ल": 518,
      "व": 519,
      "श": 520,
      "स": 521,
      "ह": 522,
      "ा": 523,
      "ि": 524,
      "ी": 525,
      "े": 526,
      "ो": 527,
      "्": 528,
      "।": 529,
      "এ": 530,
      "ক": 531,
      "গ": 532,
      "চ": 533,
      "জ": 534,
      "ট": 535,
      "ড": 536,
      "ত": 537,
      "দ": 538,
      "ন": 539,
      "প": 540,
      "ব": 541,
      "ভ": 542,
      "ম": 543,
      "য": 544,
      "র": 545,
      "ল": 546,
      "শ": 547,
      "স": 548,
      "হ": 549,
      "়": 550,
      "া": 551,
      "ি": 552,
      "ু": 553,
      "ে": 554,
      "ো": 555,
      "্": 556,
      "ก": 557,
      "ท": 558,
      "น": 559,
      "ย": 560,
      "ร": 561,
      "ล": 562,
      "อ": 563,
      "า": 564,
      "เ": 565,
      "ไ": 566,
      "ღ": 567,
      "ḥ": 568,
      "‐": 569,
      "–": 570,
      "—": 571,
      "‘": 572,
      "’": 573,
      "‚": 574,
      "“": 575,
      "”": 576,
      "„": 577,
      "†": 578,
      "‡": 579,
      "•": 580,
      "‰": 581,
      "′": 582,
      "‹": 583,
      "›": 584,
      "※": 585,
      "⁄": 586,
      "₪": 587,
      "€": 588,
      "⃣": 589,
      "←": 590,
      "↑": 591,
      "→": 592,
      "↓": 593,
      "↩": 594,
      "⇐": 595,
      "⇒": 596,
      "∆": 597,
      "−": 598,
      "∗": 599,
      "∙": 600,
      "√": 601,
      "∫": 602,
      "≈": 603,
      "≤": 604,
      "≥": 605,
      "⋆": 606,
      "⏪": 607,
      "─": 608,
      "│": 609,
      "═": 610,
      "▁": 611,
      "▂": 612,
      "█": 613,
      "■": 614,
      "□": 615,
      "▪": 616,
      "▬": 617,
      "▭": 618,
      "▲": 619,
      "▶": 620,
      "▷": 621,
      "►": 622,
      "◀": 623,
      "◄": 624,
      "◆": 625,
      "◇": 626,
      "◉": 627,
      "○": 628,
      "◎": 629,
      "●": 630,
      "◙": 631,
      "◾": 632,
      "☀": 633,
      "★": 634,
      "☆": 635,
      "☎": 636,
      "☑": 637,
      "☜": 638,
      "☺": 639,
      "♀": 640,
      "♂": 641,
      "♡": 642,
      "♢": 643,
      "♥": 644,
      "♦": 645,
      "♪": 646,
      "⚡": 647,
      "⚽": 648,
      "✅": 649,
      "✌": 650,
      "✍": 651,
      "✓": 652,
      "✔": 653,
      "✠": 654,
      "✤": 655,
      "✨": 656,
      "✯": 657,
      "❊": 658,
      "❌": 659,
      "❝": 660,
      "❞": 661,
      "❤": 662,
      "❯": 663,
      "➖": 664,
      "➡": 665,
      "⠀": 666,
      "⦁": 667,
      "⬅": 668,
      "⬇": 669,
      "⭐": 670,
      "⭕": 671,
      "、": 672,
      "。": 673,
      "《": 674,
      "》": 675,
      "「": 676,
      "」": 677,
      "【": 678,
      "】": 679,
      "い": 680,
      "お": 681,
      "が": 682,
      "し": 683,
      "す": 684,
      "た": 685,
      "て": 686,
      "で": 687,
      "と": 688,
      "に": 689,
      "の": 690,
      "は": 691,
      "び": 692,
      "ま": 693,
      "も": 694,
      "よ": 695,
      "り": 696,
      "る": 697,
      "れ": 698,
      "を": 699,
      "ん": 700,
      "ァ": 701,
      "ア": 702,
      "ィ": 703,
      "イ": 704,
      "ゥ": 705,
      "ウ": 706,
      "ェ": 707,
      "オ": 708,
      "カ": 709,
      "キ": 710,
      "ク": 711,
      "ケ": 712,
      "ジ": 713,
      "ス": 714,
      "ソ": 715,
      "タ": 716,
      "ッ": 717,
      "ツ": 718,
      "ト": 719,
      "ド": 720,
      "ブ": 721,
      "メ": 722,
      "モ": 723,
      "ャ": 724,
      "ュ": 725,
      "ラ": 726,
      "リ": 727,
      "ル": 728,
      "ン": 729,
      "・": 730,
      "ー": 731,
      "䥨": 732,
      "䨰": 733,
      "䫆": 734,
      "䭜": 735,
      "一": 736,
      "上": 737,
      "不": 738,
      "与": 739,
      "业": 740,
      "个": 741,
      "中": 742,
      "为": 743,
      "主": 744,
      "么": 745,
      "之": 746,
      "了": 747,
      "争": 748,
      "事": 749,
      "于": 750,
      "亚": 751,
      "些": 752,
      "产": 753,
      "人": 754,
      "以": 755,
      "价": 756,
      "份": 757,
      "会": 758,
      "伯": 759,
      "体": 760,
      "作": 761,
      "例": 762,
      "供": 763,
      "信": 764,
      "做": 765,
      "克": 766,
      "入": 767,
      "全": 768,
      "公": 769,
      "关": 770,
      "内": 771,
      "出": 772,
      "分": 773,
      "别": 774,
      "到": 775,
      "制": 776,
      "前": 777,
      "力": 778,
      "加": 779,
      "动": 780,
      "化": 781,
      "区": 782,
      "半": 783,
      "原": 784,
      "及": 785,
      "发": 786,
      "取": 787,
      "句": 788,
      "可": 789,
      "合": 790,
      "同": 791,
      "和": 792,
      "品": 793,
      "商": 794,
      "器": 795,
      "国": 796,
      "图": 797,
      "在": 798,
      "地": 799,
      "型": 800,
      "城": 801,
      "基": 802,
      "备": 803,
      "多": 804,
      "大": 805,
      "天": 806,
      "字": 807,
      "安": 808,
      "定": 809,
      "家": 810,
      "容": 811,
      "对": 812,
      "小": 813,
      "展": 814,
      "工": 815,
      "巴": 816,
      "市": 817,
      "年": 818,
      "度": 819,
      "开": 820,
      "式": 821,
      "当": 822,
      "性": 823,
      "息": 824,
      "意": 825,
      "成": 826,
      "我": 827,
      "戦": 828,
      "所": 829,
      "拉": 830,
      "提": 831,
      "搜": 832,
      "放": 833,
      "数": 834,
      "文": 835,
      "料": 836,
      "方": 837,
      "日": 838,
      "时": 839,
      "是": 840,
      "更": 841,
      "月": 842,
      "有": 843,
      "本": 844,
      "机": 845,
      "来": 846,
      "查": 847,
      "格": 848,
      "欧": 849,
      "步": 850,
      "民": 851,
      "水": 852,
      "法": 853,
      "洲": 854,
      "海": 855,
      "版": 856,
      "特": 857,
      "理": 858,
      "生": 859,
      "用": 860,
      "畏": 861,
      "的": 862,
      "知": 863,
      "石": 864,
      "破": 865,
      "碎": 866,
      "磨": 867,
      "站": 868,
      "粉": 869,
      "系": 870,
      "索": 871,
      "级": 872,
      "经": 873,
      "统": 874,
      "网": 875,
      "翻": 876,
      "者": 877,
      "联": 878,
      "能": 879,
      "自": 880,
      "行": 881,
      "西": 882,
      "要": 883,
      "解": 884,
      "计": 885,
      "议": 886,
      "设": 887,
      "词": 888,
      "译": 889,
      "语": 890,
      "资": 891,
      "这": 892,
      "进": 893,
      "造": 894,
      "部": 895,
      "采": 896,
      "量": 897,
      "金": 898,
      "钟": 899,
      "长": 900,
      "问": 901,
      "间": 902,
      "阿": 903,
      "需": 904,
      "面": 905,
      "韓": 906,
      "页": 907,
      "题": 908,
      "高": 909,
      "魔": 910,
      "국": 911,
      "기": 912,
      "는": 913,
      "대": 914,
      "리": 915,
      "마": 916,
      "번": 917,
      "보": 918,
      "사": 919,
      "색": 920,
      "어": 921,
      "역": 922,
      "의": 923,
      "이": 924,
      "자": 925,
      "장": 926,
      "지": 927,
      "출": 928,
      "토": 929,
      "팠": 930,
      "푌": 931,
      "하": 932,
      "한": 933,
      "﴾": 934,
      "﴿": 935,
      "︎": 936,
      "️": 937,
      "￼": 938,
      "�": 939,
      "🇦": 940,
      "🇧": 941,
      "🇪": 942,
      "🇲": 943,
      "🇵": 944,
      "🇷": 945,
      "🇸": 946,
      "🇹": 947,
      "🌟": 948,
      "🌷": 949,
      "🌸": 950,
      "🌹": 951,
      "🍃": 952,
      "🎶": 953,
      "🏆": 954,
      "🏻": 955,
      "🏼": 956,
      "👇": 957,
      "👈": 958,
      "👉": 959,
      "👌": 960,
      "👍": 961,
      "👏": 962,
      "👨": 963,
      "💔": 964,
      "💕": 965,
      "💗": 966,
      "💙": 967,
      "💚": 968,
      "💛": 969,
      "💜": 970,
      "💡": 971,
      "💥": 972,
      "💪": 973,
      "💫": 974,
      "💰": 975,
      "📌": 976,
      "📍": 977,
      "🔥": 978,
      "🔴": 979,
      "🔵": 980,
      "🔷": 981,
      "🔸": 982,
      "🔹": 983,
      "🔺": 984,
      "😀": 985,
      "😁": 986,
      "😂": 987,
      "😃": 988,
      "😅": 989,
      "😉": 990,
      "😊": 991,
      "😍": 992,
      "😘": 993,
      "😝": 994,
      "😭": 995,
      "🙁": 996,
      "🙂": 997,
      "🙏": 998,
      "🚨": 999,
      "🤍": 1000,
      "🤔": 1001,
      "🤣": 1002,
      "🤩": 1003,
      "🥰": 1004,
      "ال": 1005,
      "▁ال": 1006,
      "▁م": 1007,
      "▁و": 1008,
      "▁ب": 1009,
      "▁ف": 1010,
      "▁ل": 1011,
      "▁أ": 1012,
      "ات": 1013,
      "▁الم": 1014,
      "ية": 1015,
      "▁ت": 1016,
      "▁ع": 1017,
      "ار": 1018,
      "▁في": 1019,
      "ان": 1020,
      "▁من": 1021,
      "▁ي": 1022,
      "ين": 1023,
      "لى": 1024,
      "ام": 1025,
      "▁ك": 1026,
      "▁إ": 1027,
      "ها": 1028,
      "ير": 1029,
      "▁الت": 1030,
      ".\n": 1031,
      "▁وال": 1032,
      "ول": 1033,
      "▁الأ": 1034,
      "ست": 1035,
      "ون": 1036,
      "▁ح": 1037,
      "را": 1038,
      "نا": 1039,
      "ري": 1040,
      "▁على": 1041,
      "▁س": 1042,
      "▁ه": 1043,
      "لا": 1044,
      "▁الع": 1045,
      "ما": 1046,
      "لي": 1047,
      "▁ق": 1048,
      "دي": 1049,
      "▁لل": 1050,
      "▁ا": 1051,
      "وا": 1052,
      "▁الح": 1053,
      "ور": 1054,
      "▁ن": 1055,
      "▁أن": 1056,
      "▁ج": 1057,
      "دة": 1058,
      "يا": 1059,
      "▁الس": 1060,
      "بي": 1061,
      "▁،": 1062,
      "اب": 1063,
      "عد": 1064,
      "▁خ": 1065,
      "▁ش": 1066,
      "وم": 1067,
      "لة": 1068,
      "لك": 1069,
      "▁الج": 1070,
      "ائ": 1071,
      "ارة": 1072,
      "▁بال": 1073,
      "▁د": 1074,
      "هم": 1075,
      "▁إلى": 1076,
      "▁الف": 1077,
      "اء": 1078,
      "▁ر": 1079,
      "رة": 1080,
      "عة": 1081,
      "▁مع": 1082,
      "▁عن": 1083,
      "اد": 1084,
      "▁الق": 1085,
      "رك": 1086,
      "ذا": 1087,
      "▁الش": 1088,
      "▁الب": 1089,
      "مي": 1090,
      "مل": 1091,
      "▁الك": 1092,
      "▁ص": 1093,
      "▁الإ": 1094,
      "▁ط": 1095,
      "من": 1096,
      "اف": 1097,
      "وق": 1098,
      "▁الص": 1099,
      "▁الد": 1100,
      "▁الن": 1101,
      "ًا": 1102,
      "رب": 1103,
      "قة": 1104,
      "كن": 1105,
      "▁الا": 1106,
      "▁الخ": 1107,
      "مة": 1108,
      "رو": 1109,
      "يل": 1110,
      "يد": 1111,
      "..": 1112,
      "تم": 1113,
      "▁الر": 1114,
      "▁مح": 1115,
      "اح": 1116,
      "سي": 1117,
      "▁2": 1118,
      "سب": 1119,
      "ود": 1120,
      "في": 1121,
      "عل": 1122,
      "قد": 1123,
      "ذه": 1124,
      "▁أو": 1125,
      "▁1": 1126,
      "▁التي": 1127,
      "▁ما": 1128,
      "نت": 1129,
      "▁وت": 1130,
      "كل": 1131,
      "اع": 1132,
      "بر": 1133,
      "وي": 1134,
      "جر": 1135,
      "سارة": 1136,
      "قي": 1137,
      "عر": 1138,
      "▁الط": 1139,
      "ني": 1140,
      "▁غ": 1141,
      "وب": 1142,
      "▁(": 1143,
      "ذلك": 1144,
      "▁لا": 1145,
      "حن": 1146,
      "▁الل": 1147,
      "حت": 1148,
      "▁الذ": 1149,
      "خد": 1150,
      "يف": 1151,
      "اص": 1152,
      "▁آ": 1153,
      "وج": 1154,
      "تي": 1155,
      "▁ان": 1156,
      "مكن": 1157,
      "سم": 1158,
      "لم": 1159,
      "▁كسارة": 1160,
      "▁مص": 1161,
      "▁لم": 1162,
      "اج": 1163,
      "تح": 1164,
      "اً": 1165,
      "مر": 1166,
      "▁است": 1167,
      "ارات": 1168,
      "بل": 1169,
      "كون": 1170,
      "يس": 1171,
      "00": 1172,
      "وف": 1173,
      "▁وم": 1174,
      "▁هذا": 1175,
      "خر": 1176,
      "لال": 1177,
      "صل": 1178,
      "▁أي": 1179,
      "ديد": 1180,
      "جم": 1181,
      "▁وأ": 1182,
      "فة": 1183,
      "يرة": 1184,
      "سا": 1185,
      "حد": 1186,
      "▁مت": 1187,
      "ية،": 1188,
      "▁الو": 1189,
      "▁\"": 1190,
      "▁كان": 1191,
      "يت": 1192,
      "كر": 1193,
      "حة": 1194,
      "عم": 1195,
      "بة": 1196,
      "وع": 1197,
      "قت": 1198,
      "▁هذه": 1199,
      "▁علي": 1200,
      "الم": 1201,
      "راء": 1202,
      "طة": 1203,
      "▁كل": 1204,
      "خت": 1205,
      "عت": 1206,
      ".\nو": 1207,
      "بد": 1208,
      "هر": 1209,
      "شر": 1210,
      "قل": 1211,
      "سل": 1212,
      "▁والم": 1213,
      "هد": 1214,
      "▁تح": 1215,
      "▁الث": 1216,
      "ند": 1217,
      "اني": 1218,
      "الي": 1219,
      "▁ث": 1220,
      "جل": 1221,
      "بيع": 1222,
      "ثر": 1223,
      "▁ز": 1224,
      "أن": 1225,
      "▁هو": 1226,
      "▁20": 1227,
      "سة": 1228,
      "فا": 1229,
      "نع": 1230,
      "▁يمكن": 1231,
      "▁الذي": 1232,
      "هي": 1233,
      "▁المت": 1234,
      "خص": 1235,
      "كت": 1236,
      "▁تع": 1237,
      "▁بين": 1238,
      "▁المح": 1239,
      "لب": 1240,
      "▁..": 1241,
      "▁ذلك": 1242,
      "▁مط": 1243,
      "وس": 1244,
      "\n-": 1245,
      "ركة": 1246,
      "▁ض": 1247,
      "ستخد": 1248,
      "با": 1249,
      "▁وي": 1250,
      "عا": 1251,
      "ولة": 1252,
      ".\n-": 1253,
      "وت": 1254,
      "خل": 1255,
      "يات": 1256,
      "در": 1257,
      "▁إن": 1258,
      "▁بعد": 1259,
      "فض": 1260,
      "▁لت": 1261,
      "▁الي": 1262,
      "فس": 1263,
      "دا": 1264,
      "▁خلال": 1265,
      "رض": 1266,
      "▁-": 1267,
      "▁تم": 1268,
      "الة": 1269,
      "اري": 1270,
      "▁أك": 1271,
      "▁“": 1272,
      "يم": 1273,
      "كان": 1274,
      "لف": 1275,
      "ته": 1276,
      "▁اله": 1277,
      "كم": 1278,
      "قا": 1279,
      "كس": 1280,
      "الية": 1281,
      "عض": 1282,
      "عب": 1283,
      "▁بش": 1284,
      "إن": 1285,
      "دم": 1286,
      "نة": 1287,
      "ريق": 1288,
      "رق": 1289,
      "▁.": 1290,
      "وات": 1291,
      "▁تق": 1292,
      "▁هي": 1293,
      "اض": 1294,
      "▁يت": 1295,
      "▁الغ": 1296,
      "▁بن": 1297,
      "▁الحجر": 1298,
      "▁مش": 1299,
      "يث": 1300,
      "▁المن": 1301,
      "َّ": 1302,
      "جة": 1303,
      "زي": 1304,
      "in": 1305,
      "صر": 1306,
      "▁والت": 1307,
      "عي": 1308,
      "طم": 1309,
      "حنة": 1310,
      "افة": 1311,
      "▁الله": 1312,
      "ثل": 1313,
      "▁بم": 1314,
      "ورة": 1315,
      "امة": 1316,
      "وض": 1317,
      "بار": 1318,
      "جه": 1319,
      "▁الأم": 1320,
      "▁وه": 1321,
      "حق": 1322,
      "▁أم": 1323,
      "حم": 1324,
      "▁3": 1325,
      "ثير": 1326,
      "▁وب": 1327,
      "▁مس": 1328,
      "وية": 1329,
      "▁سي": 1330,
      "▁للم": 1331,
      "قط": 1332,
      "▁الز": 1333,
      "ميع": 1334,
      "ئيس": 1335,
      "قر": 1336,
      "وى": 1337,
      "▁قد": 1338,
      "دين": 1339,
      "امل": 1340,
      "تها": 1341,
      "▁محطم": 1342,
      "عدات": 1343,
      "▁تت": 1344,
      "▁ذ": 1345,
      "ناء": 1346,
      "رائ": 1347,
      "▁المش": 1348,
      "طر": 1349,
      "وز": 1350,
      "نية": 1351,
      "▁وا": 1352,
      "▁الأس": 1353,
      "▁مطحنة": 1354,
      "▁تص": 1355,
      "▁الآ": 1356,
      "وان": 1357,
      "حي": 1358,
      "زة": 1359,
      "▁مست": 1360,
      "جب": 1361,
      "▁حيث": 1362,
      "▁تن": 1363,
      "▁تج": 1364,
      "▁بي": 1365,
      "▁آلة": 1366,
      "اه": 1367,
      "▁عند": 1368,
      "ئة": 1369,
      "▁بت": 1370,
      "er": 1371,
      "انية": 1372,
      "فع": 1373,
      "\nال": 1374,
      "وري": 1375,
      "دد": 1376,
      "▁عام": 1377,
      "▁يتم": 1378,
      "فر": 1379,
      "ذهب": 1380,
      "صول": 1381,
      "▁المص": 1382,
      "▁المست": 1383,
      "لات": 1384,
      "كي": 1385,
      "تر": 1386,
      "▁:": 1387,
      "وة": 1388,
      "▁با": 1389,
      "سية": 1390,
      "▁عمل": 1391,
      "▁تش": 1392,
      "▁للبيع": 1393,
      "▁وس": 1394,
      "▁غير": 1395,
      "▁كما": 1396,
      "فضل": 1397,
      "ه،": 1398,
      "تى": 1399,
      "▁الان": 1400,
      "وقع": 1401,
      "فق": 1402,
      "▁بد": 1403,
      "طي": 1404,
      "on": 1405,
      "فت": 1406,
      "▁قبل": 1407,
      "▁أس": 1408,
      "▁الاست": 1409,
      "▁بشكل": 1410,
      "an": 1411,
      "▁اليوم": 1412,
      "وك": 1413,
      "بح": 1414,
      "▁المع": 1415,
      "▁العمل": 1416,
      "▁أيض": 1417,
      "از": 1418,
      "▁المس": 1419,
      "▁له": 1420,
      "▁يع": 1421,
      "بات": 1422,
      "▁هنا": 1423,
      "▁كب": 1424,
      "ارت": 1425,
      "ــ": 1426,
      "▁أكثر": 1427,
      "لق": 1428,
      "ستخدم": 1429,
      "▁بر": 1430,
      "وعة": 1431,
      "أس": 1432,
      "سبة": 1433,
      "قال": 1434,
      "▁النا": 1435,
      "▁إذا": 1436,
      "رت": 1437,
      "▁حتى": 1438,
      "عدين": 1439,
      "▁بعض": 1440,
      "صف": 1441,
      "قدم": 1442,
      "ليم": 1443,
      ".\nال": 1444,
      "▁الض": 1445,
      "عية": 1446,
      "ربية": 1447,
      "خرى": 1448,
      "▁لي": 1449,
      "▁ولا": 1450,
      "▁بح": 1451,
      "▁وج": 1452,
      "▁5": 1453,
      "رات": 1454,
      "ودة": 1455,
      "صة": 1456,
      "▁مصنع": 1457,
      "▁أنه": 1458,
      "▁4": 1459,
      "رد": 1460,
      "▁ست": 1461,
      "▁للت": 1462,
      "لس": 1463,
      "▁طحن": 1464,
      "اصة": 1465,
      "ظام": 1466,
      "▁مثل": 1467,
      "قات": 1468,
      "جات": 1469,
      "▁وع": 1470,
      "غير": 1471,
      "▁تأ": 1472,
      "▁بل": 1473,
      "رح": 1474,
      "▁نا": 1475,
      "▁العالم": 1476,
      "▁مد": 1477,
      "كة": 1478,
      "▁وإ": 1479,
      "يج": 1480,
      "▁...": 1481,
      "▁والأ": 1482,
      "كا": 1483,
      "▁مج": 1484,
      "20": 1485,
      "عار": 1486,
      "▁يكون": 1487,
      "▁201": 1488,
      "مت": 1489,
      "▁الفك": 1490,
      "▁الموا": 1491,
      "▁واح": 1492,
      "re": 1493,
      "▁وز": 1494,
      "رف": 1495,
      "بت": 1496,
      "▁وح": 1497,
      "▁وك": 1498,
      "بط": 1499,
      "لام": 1500,
      "ولي": 1501,
      "ية.": 1502,
      "اط": 1503,
      "▁.\n": 1504,
      "▁عم": 1505,
      "▁الذهب": 1506,
      "بن": 1507,
      "▁به": 1508,
      "▁ول": 1509,
      "لكن": 1510,
      "ابة": 1511,
      "▁جميع": 1512,
      "ديدة": 1513,
      "زل": 1514,
      "ضع": 1515,
      "▁ومن": 1516,
      "ديم": 1517,
      "ركات": 1518,
      "ومة": 1519,
      "مد": 1520,
      "الت": 1521,
      "▁خط": 1522,
      "ين،": 1523,
      "تما": 1524,
      "ها،": 1525,
      "ولا": 1526,
      "نس": 1527,
      "▁مخ": 1528,
      "▁يوم": 1529,
      "▁استخد": 1530,
      "▁عليه": 1531,
      "طن": 1532,
      "▁ات": 1533,
      "▁تط": 1534,
      "▁فإن": 1535,
      "▁فى": 1536,
      "اس": 1537,
      "قيق": 1538,
      "▁الات": 1539,
      "ليل": 1540,
      "رج": 1541,
      "مال": 1542,
      "▁لأ": 1543,
      "طف": 1544,
      "بع": 1545,
      "عود": 1546,
      "يب": 1547,
      "▁البي": 1548,
      "ظر": 1549,
      "انة": 1550,
      "▁ون": 1551,
      "شة": 1552,
      "▁التج": 1553,
      "▁تحت": 1554,
      "▁ولكن": 1555,
      "ثة": 1556,
      "▁بأ": 1557,
      "▁مصر": 1558,
      "▁خام": 1559,
      "▁يق": 1560,
      "هل": 1561,
      "▁كانت": 1562,
      "▁التح": 1563,
      "▁المد": 1564,
      "عات": 1565,
      "at": 1566,
      "وار": 1567,
      "راض": 1568,
      "كية": 1569,
      "▁t": 1570,
      "en": 1571,
      "▁ثم": 1572,
      "صد": 1573,
      "▁نفس": 1574,
      "▁تد": 1575,
      "مو": 1576,
      "ar": 1577,
      "▁موا": 1578,
      "ارية": 1579,
      "رس": 1580,
      "▁المنا": 1581,
      "لاء": 1582,
      "▁يجب": 1583,
      "راق": 1584,
      "▁مؤ": 1585,
      "▁المتح": 1586,
      "بية": 1587,
      "وني": 1588,
      "▁استخدام": 1589,
      "شار": 1590,
      "وال": 1591,
      "▁هناك": 1592,
      "▁تس": 1593,
      "▁المج": 1594,
      "▁وق": 1595,
      "▁العام": 1596,
      "▁–": 1597,
      "▁C": 1598,
      "منت": 1599,
      "ومات": 1600,
      "▁التع": 1601,
      "▁معدات": 1602,
      "ريد": 1603,
      "▁S": 1604,
      "سبب": 1605,
      "▁وهو": 1606,
      "▁لأن": 1607,
      "اعة": 1608,
      "ضافة": 1609,
      "راج": 1610,
      "▁الى": 1611,
      "فل": 1612,
      "روط": 1613,
      "ئي": 1614,
      "طقة": 1615,
      "▁202": 1616,
      "امج": 1617,
      "▁M": 1618,
      "▁الوق": 1619,
      "▁شي": 1620,
      "الات": 1621,
      "\nت": 1622,
      "به": 1623,
      "يادة": 1624,
      "▁A": 1625,
      "جموعة": 1626,
      "▁لكن": 1627,
      "وص": 1628,
      "ونة": 1629,
      "لاح": 1630,
      "ميل": 1631,
      "▁الكرة": 1632,
      "واء": 1633,
      "روع": 1634,
      "نتاج": 1635,
      "رن": 1636,
      "عمال": 1637,
      "وح": 1638,
      "▁البح": 1639,
      "▁سعر": 1640,
      "▁لك": 1641,
      "طا": 1642,
      "عرف": 1643,
      "▁المنت": 1644,
      "▁سحق": 1645,
      "جد": 1646,
      "▁حول": 1647,
      "▁التن": 1648,
      "▁6": 1649,
      "▁المط": 1650,
      "▁ظ": 1651,
      "al": 1652,
      "زيد": 1653,
      "▁شركة": 1654,
      "جلس": 1655,
      "ائل": 1656,
      "جتما": 1657,
      "▁رئيس": 1658,
      "▁عبد": 1659,
      "عمل": 1660,
      "▁«": 1661,
      "مار": 1662,
      ".\nوأ": 1663,
      "▁بالم": 1664,
      "اخل": 1665,
      "ارج": 1666,
      "▁الصين": 1667,
      "▁أحد": 1668,
      ":\n": 1669,
      "ركز": 1670,
      "▁قال": 1671,
      "▁سن": 1672,
      "وير": 1673,
      "▁عبر": 1674,
      "▁السي": 1675,
      "سات": 1676,
      "▁تكون": 1677,
      "غيرة": 1678,
      "▁المؤ": 1679,
      "سارات": 1680,
      "▁فقط": 1681,
      "▁مخت": 1682,
      "▁قط": 1683,
      "اة": 1684,
      "انات": 1685,
      "قع": 1686,
      "اريخ": 1687,
      "▁العم": 1688,
      "دينة": 1689,
      "▁بها": 1690,
      "قم": 1691,
      "▁عدد": 1692,
      "▁أب": 1693,
      "ساب": 1694,
      "▁c": 1695,
      "▁P": 1696,
      "انون": 1697,
      "شف": 1698,
      "▁مق": 1699,
      "or": 1700,
      "\nم": 1701,
      "▁تر": 1702,
      "هور": 1703,
      "▁الهند": 1704,
      "▁أد": 1705,
      "▁بأن": 1706,
      "▁لإ": 1707,
      "▁الدول": 1708,
      "it": 1709,
      "وائ": 1710,
      "▁السيا": 1711,
      "ستخدام": 1712,
      "ينة": 1713,
      "▁يح": 1714,
      "وث": 1715,
      "▁بك": 1716,
      "▁عملية": 1717,
      "▁ين": 1718,
      "▁وفي": 1719,
      "ريقة": 1720,
      "▁المتحدة": 1721,
      "فاع": 1722,
      "▁انت": 1723,
      "▁لن": 1724,
      "لت": 1725,
      "▁العربية": 1726,
      "▁جن": 1727,
      "لاق": 1728,
      "قتص": 1729,
      "يني": 1730,
      "كد": 1731,
      "▁للأ": 1732,
      "▁أص": 1733,
      "▁أفضل": 1734,
      "▁أع": 1735,
      "رياض": 1736,
      "▁19": 1737,
      "▁كت": 1738,
      "▁أيضًا": 1739,
      "▁بالت": 1740,
      "▁ام": 1741,
      "▁محمد": 1742,
      "▁بس": 1743,
      "علم": 1744,
      "ظم": 1745,
      "ميم": 1746,
      "سلام": 1747,
      "جراء": 1748,
      "شي": 1749,
      "▁p": 1750,
      "▁الأول": 1751,
      "▁حد": 1752,
      "▁أخرى": 1753,
      "▁أف": 1754,
      "▁دول": 1755,
      "▁مما": 1756,
      "قب": 1757,
      "شرة": 1758,
      "▁السعود": 1759,
      "جز": 1760,
      "ضاف": 1761,
      "ou": 1762,
      "▁الذين": 1763,
      "▁التعدين": 1764,
      "▁بإ": 1765,
      "عادة": 1766,
      "▁فيها": 1767,
      "عرض": 1768,
      "▁ذات": 1769,
      "▁الأخ": 1770,
      "غي": 1771,
      "ظيف": 1772,
      "▁الرئيس": 1773,
      "ملك": 1774,
      "▁والتي": 1775,
      "لع": 1776,
      "▁...\n": 1777,
      "ادة": 1778,
      "مان": 1779,
      "لفة": 1780,
      "ظة": 1781,
      "▁ملي": 1782,
      "▁للح": 1783,
      "بيق": 1784,
      "es": 1785,
      "ريب": 1786,
      "▁المر": 1787,
      "الب": 1788,
      "▁منت": 1789,
      "غط": 1790,
      "▁لها": 1791,
      "▁حجر": 1792,
      "▁الوقت": 1793,
      "يري": 1794,
      "وط": 1795,
      "▁دون": 1796,
      "له": 1797,
      "ياة": 1798,
      "▁كيف": 1799,
      "▁الوا": 1800,
      "دارة": 1801,
      "الح": 1802,
      "▁تف": 1803,
      "ذي": 1804,
      "جن": 1805,
      "▁إلي": 1806,
      "ّة": 1807,
      "مس": 1808,
      "▁يمكنك": 1809,
      "ائر": 1810,
      "حية": 1811,
      "▁يد": 1812,
      "ميز": 1813,
      "ظهر": 1814,
      "أة": 1815,
      "▁العديد": 1816,
      "وه": 1817,
      "يز": 1818,
      "هاز": 1819,
      "ضر": 1820,
      "▁كبير": 1821,
      "ماء": 1822,
      "▁الجم": 1823,
      "▁وهي": 1824,
      "▁فيه": 1825,
      "▁دي": 1826,
      "▁أش": 1827,
      "ائية": 1828,
      "▁شخص": 1829,
      "ic": 1830,
      "▁7": 1831,
      "سن": 1832,
      "لاً": 1833,
      "فات": 1834,
      "▁الأو": 1835,
      "▁8": 1836,
      "▁G": 1837,
      "حو": 1838,
      "بق": 1839,
      "ربي": 1840,
      "▁الجز": 1841,
      "▁الحديد": 1842,
      "\n\n": 1843,
      "ac": 1844,
      "لاج": 1845,
      "▁قر": 1846,
      "▁المغ": 1847,
      "عتبر": 1848,
      "ديث": 1849,
      "▁لدي": 1850,
      "انب": 1851,
      "قبل": 1852,
      "ing": 1853,
      "كثر": 1854,
      "▁/": 1855,
      "▁والح": 1856,
      "واع": 1857,
      "خط": 1858,
      "مية": 1859,
      "هما": 1860,
      "▁لح": 1861,
      "ملكة": 1862,
      "قيقة": 1863,
      "يار": 1864,
      ".\nت": 1865,
      "كو": 1866,
      "ساعد": 1867,
      "▁طن": 1868,
      "وفر": 1869,
      "▁إلا": 1870,
      "▁الحك": 1871,
      "▁بط": 1872,
      "▁10": 1873,
      "▁وقد": 1874,
      "يش": 1875,
      "▁أول": 1876,
      "▁مجموعة": 1877,
      "دى": 1878,
      "▁موقع": 1879,
      "سين": 1880,
      "▁فر": 1881,
      "▁يش": 1882,
      "َل": 1883,
      "▁والع": 1884,
      "▁الوز": 1885,
      "ادر": 1886,
      "▁المحم": 1887,
      "راف": 1888,
      "▁حق": 1889,
      "لاب": 1890,
      "غة": 1891,
      "▁بالإ": 1892,
      "▁جد": 1893,
      "▁للا": 1894,
      "▁السعودية": 1895,
      "ائي": 1896,
      "حا": 1897,
      "ودي": 1898,
      "▁كبيرة": 1899,
      "ويل": 1900,
      "▁يُ": 1901,
      "بدأ": 1902,
      "▁الوط": 1903,
      "ينا": 1904,
      "▁در": 1905,
      "▁ور": 1906,
      "؟\n": 1907,
      "▁ترك": 1908,
      "ياً": 1909,
      "▁آخر": 1910,
      "▁يست": 1911,
      "خذ": 1912,
      "زام": 1913,
      "▁الخاصة": 1914,
      "▁منذ": 1915,
      "▁وقت": 1916,
      "▁القر": 1917,
      "▁m": 1918,
      "▁فت": 1919,
      "▁بع": 1920,
      "طفال": 1921,
      "نق": 1922,
      "غم": 1923,
      "▁s": 1924,
      "▁الاجتما": 1925,
      "▁الحر": 1926,
      "است": 1927,
      "واصل": 1928,
      "سرائ": 1929,
      "ريم": 1930,
      "ليات": 1931,
      "ناعة": 1932,
      "et": 1933,
      "لسط": 1934,
      "▁عليها": 1935,
      "50": 1936,
      "▁وذلك": 1937,
      "ذكر": 1938,
      "▁ليس": 1939,
      "▁عندما": 1940,
      "حدث": 1941,
      "ياء": 1942,
      "▁نوع": 1943,
      "▁وف": 1944,
      "▁كسارات": 1945,
      "▁الفحم": 1946,
      "▁الرا": 1947,
      "▁T": 1948,
      "يك": 1949,
      "▁السعر": 1950,
      "▁والإ": 1951,
      "داول": 1952,
      "خور": 1953,
      "علام": 1954,
      "▁بما": 1955,
      "om": 1956,
      "▁عالية": 1957,
      "كسارة": 1958,
      "هدف": 1959,
      "لاث": 1960,
      "▁,": 1961,
      "▁مخروط": 1962,
      "قص": 1963,
      "el": 1964,
      "ضي": 1965,
      "خب": 1966,
      "▁تلك": 1967,
      "لية": 1968,
      "طلب": 1969,
      "باد": 1970,
      "▁وش": 1971,
      "▁الماض": 1972,
      "▁وَ": 1973,
      "▁رس": 1974,
      "▁طريق": 1975,
      "دمات": 1976,
      ".\nي": 1977,
      "\nأ": 1978,
      "ائمة": 1979,
      "زم": 1980,
      "لاد": 1981,
      "▁200": 1982,
      "▁كنت": 1983,
      "اعدة": 1984,
      "▁الأش": 1985,
      "صال": 1986,
      "اث": 1987,
      "وجد": 1988,
      "كسير": 1989,
      "ات،": 1990,
      "▁التق": 1991,
      "▁منها": 1992,
      "شت": 1993,
      "▁وأن": 1994,
      "انيا": 1995,
      "يام": 1996,
      "ان،": 1997,
      "ِّ": 1998,
      "▁ارت": 1999,
      "▁الشخص": 2000,
      "مين": 2001,
      "▁مر": 2002,
      "▁الكثير": 2003,
      "هة": 2004,
      "احة": 2005,
      "▁الشركة": 2006,
      "▁داخل": 2007,
      "▁المه": 2008,
      "جي": 2009,
      "▁السل": 2010,
      "قول": 2011,
      "وبة": 2012,
      "وقف": 2013,
      "▁لج": 2014,
      "ضاء": 2015,
      "قتصاد": 2016,
      "َا": 2017,
      "راد": 2018,
      "حاد": 2019,
      "▁الآن": 2020,
      "▁عل": 2021,
      "عداد": 2022,
      "نى": 2023,
      "▁الاحت": 2024,
      "▁لع": 2025,
      "انت": 2026,
      "لاف": 2027,
      "حمد": 2028,
      "▁المملكة": 2029,
      "▁اللا": 2030,
      "▁ود": 2031,
      "ئية": 2032,
      "▁الانت": 2033,
      "▁الشي": 2034,
      "▁0": 2035,
      ".\nوق": 2036,
      "اذ": 2037,
      "▁أجل": 2038,
      "كلفة": 2039,
      "▁أث": 2040,
      "▁واحد": 2041,
      "َن": 2042,
      "ِي": 2043,
      "▁التط": 2044,
      "▁بسبب": 2045,
      "ظمة": 2046,
      "▁بيع": 2047,
      "دمة": 2048,
      "▁احت": 2049,
      "باب": 2050,
      "ed": 2051,
      "ربة": 2052,
      "خي": 2053,
      "▁فقد": 2054,
      "▁الرو": 2055,
      ")،": 2056,
      "▁الخط": 2057,
      "▁نت": 2058,
      "▁اخت": 2059,
      "ابع": 2060,
      "▁شيء": 2061,
      "▁مك": 2062,
      "is": 2063,
      "ابت": 2064,
      "▁9": 2065,
      "رير": 2066,
      "▁تستخدم": 2067,
      "راك": 2068,
      "▁أهم": 2069,
      "نيع": 2070,
      "هرب": 2071,
      "▁الأن": 2072,
      "▁حالة": 2073,
      "اقة": 2074,
      "▁نظام": 2075,
      "ظيم": 2076,
      "ختي": 2077,
      "زمة": 2078,
      "ابق": 2079,
      ".\nأ": 2080,
      "▁العامة": 2081,
      "▁بالن": 2082,
      "ه.": 2083,
      "▁يج": 2084,
      "▁100": 2085,
      "يران": 2086,
      "▁الإم": 2087,
      "فاق": 2088,
      "اي": 2089,
      "ورد": 2090,
      "زيز": 2091,
      "طار": 2092,
      "ضة": 2093,
      "us": 2094,
      "بلغ": 2095,
      "▁أنها": 2096,
      "▁وما": 2097,
      "غيل": 2098,
      "سك": 2099,
      "...": 2100,
      "▁أح": 2101,
      "شاء": 2102,
      "ارس": 2103,
      "قاء": 2104,
      "ولوج": 2105,
      "ro": 2106,
      "كرة": 2107,
      "▁جديدة": 2108,
      "قاط": 2109,
      "▁الأمري": 2110,
      "▁b": 2111,
      "احونة": 2112,
      "il": 2113,
      "مع": 2114,
      "ريف": 2115,
      "▁الجن": 2116,
      "ياه": 2117,
      "بير": 2118,
      "▁واحدة": 2119,
      "ورية": 2120,
      "وء": 2121,
      "▁التص": 2122,
      "▁والد": 2123,
      "لد": 2124,
      "▁الولا": 2125,
      "▁الأد": 2126,
      "جيل": 2127,
      "▁اعت": 2128,
      "ريقيا": 2129,
      "شا": 2130,
      "▁الخاص": 2131,
      "▁تست": 2132,
      "\nي": 2133,
      "روف": 2134,
      "اخ": 2135,
      "▁وص": 2136,
      "تمع": 2137,
      "▁الرياض": 2138,
      "▁وضع": 2139,
      "▁خاصة": 2140,
      "▁الأح": 2141,
      "▁الناس": 2142,
      "▁جنوب": 2143,
      "ad": 2144,
      "سع": 2145,
      "فاء": 2146,
      "▁المخت": 2147,
      "رعة": 2148,
      "بيل": 2149,
      "ربع": 2150,
      "▁الصخور": 2151,
      "▁العل": 2152,
      "▁عدم": 2153,
      "كتب": 2154,
      "ي،": 2155,
      "رفة": 2156,
      "فيذ": 2157,
      "▁الأمر": 2158,
      "▁الإنس": 2159,
      "▁مو": 2160,
      "▁لو": 2161,
      "ابل": 2162,
      "علومات": 2163,
      "▁الأولى": 2164,
      "امعة": 2165,
      "▁مل": 2166,
      "as": 2167,
      "ا،": 2168,
      "انع": 2169,
      "▁d": 2170,
      "ِن": 2171,
      "كين": 2172,
      "▁يؤ": 2173,
      "خاص": 2174,
      "جهزة": 2175,
      "الجة": 2176,
      "▁المو": 2177,
      "▁وجود": 2178,
      "▁حل": 2179,
      "▁تخ": 2180,
      "▁B": 2181,
      "10": 2182,
      "بيب": 2183,
      "ختيار": 2184,
      "▁والس": 2185,
      "▁الكت": 2186,
      "احن": 2187,
      "▁المخ": 2188,
      "نان": 2189,
      "ادي": 2190,
      "طات": 2191,
      "▁إنتاج": 2192,
      "بحث": 2193,
      "ضم": 2194,
      "▁لذلك": 2195,
      "▁بق": 2196,
      "▁سب": 2197,
      "غا": 2198,
      "▁دائ": 2199,
      "▁صغيرة": 2200,
      "▁الحصول": 2201,
      "ناول": 2202,
      "زا": 2203,
      "▁القط": 2204,
      "▁\"ال": 2205,
      "▁التد": 2206,
      "▁يحت": 2207,
      "ثال": 2208,
      "ؤول": 2209,
      "▁مجلس": 2210,
      "▁را": 2211,
      "he": 2212,
      "▁فه": 2213,
      "هُ": 2214,
      "ائق": 2215,
      "على": 2216,
      "▁جز": 2217,
      "ديو": 2218,
      "رام": 2219,
      "ابات": 2220,
      "املة": 2221,
      "برا": 2222,
      "▁التأ": 2223,
      "راسة": 2224,
      "يه": 2225,
      "ضا": 2226,
      "باح": 2227,
      "▁أسا": 2228,
      "نامج": 2229,
      ":\n-": 2230,
      "ية.\n": 2231,
      "▁(ال": 2232,
      "بال": 2233,
      "ابعة": 2234,
      "▁او": 2235,
      "▁أمام": 2236,
      "لكتر": 2237,
      "▁جديد": 2238,
      "▁L": 2239,
      "همة": 2240,
      "▁الخارج": 2241,
      "▁12": 2242,
      "طق": 2243,
      "وفير": 2244,
      "نقلة": 2245,
      "le": 2246,
      "طلاق": 2247,
      "▁وخ": 2248,
      "▁الرس": 2249,
      "▁وغير": 2250,
      "فك": 2251,
      "▁الام": 2252,
      "▁للع": 2253,
      "▁الإسلام": 2254,
      "▁اس": 2255,
      "وجه": 2256,
      "\"،": 2257,
      "▁سل": 2258,
      "ونا": 2259,
      "▁والن": 2260,
      "ent": 2261,
      "▁D": 2262,
      "كما": 2263,
      "▁بج": 2264,
      "دث": 2265,
      "ين.": 2266,
      "▁وكان": 2267,
      "▁حساب": 2268,
      "▁مبا": 2269,
      "صنع": 2270,
      "▁دولار": 2271,
      "▁أكبر": 2272,
      "ÙØ": 2273,
      "▁الأسا": 2274,
      "▁صنع": 2275,
      "▁الأخرى": 2276,
      "▁التش": 2277,
      "▁تأثير": 2278,
      "▁مكان": 2279,
      "طل": 2280,
      "▁الاس": 2281,
      "زب": 2282,
      "عيد": 2283,
      "▁F": 2284,
      "هم،": 2285,
      "▁الدولة": 2286,
      "▁البحث": 2287,
      "▁منا": 2288,
      "▁فيما": 2289,
      "▁ري": 2290,
      "▁مرة": 2291,
      "حل": 2292,
      "▁)": 2293,
      "اجة": 2294,
      "طب": 2295,
      "ساء": 2296,
      "▁الأرض": 2297,
      "▁نها": 2298,
      "هتم": 2299,
      "وضوع": 2300,
      "▁وتح": 2301,
      "▁طاحونة": 2302,
      "▁التس": 2303,
      "▁بالإضافة": 2304,
      "▁الثاني": 2305,
      "▁الفت": 2306,
      "ها.": 2307,
      "وسط": 2308,
      "تين": 2309,
      "▁ومع": 2310,
      "▁العق": 2311,
      "هاب": 2312,
      "غيير": 2313,
      ".\nم": 2314,
      "▁المواد": 2315,
      "▁دور": 2316,
      "▁نق": 2317,
      "يين": 2318,
      "▁كم": 2319,
      "▁محطة": 2320,
      ".\nوت": 2321,
      "جار": 2322,
      "▁ضد": 2323,
      "▁مشروع": 2324,
      "▁بص": 2325,
      "ضمن": 2326,
      "▁E": 2327,
      "▁تكسير": 2328,
      "كال": 2329,
      "▁للش": 2330,
      "اصيل": 2331,
      "▁تو": 2332,
      "▁سوف": 2333,
      "▁مدينة": 2334,
      "▁عرض": 2335,
      "▁وزارة": 2336,
      "َي": 2337,
      "رى": 2338,
      "▁حال": 2339,
      "▁لس": 2340,
      "▁المصن": 2341,
      "▁ساعة": 2342,
      "جمع": 2343,
      "▁وهذا": 2344,
      "ــــ": 2345,
      "▁لكل": 2346,
      "▁لش": 2347,
      "▁فع": 2348,
      "▁الشركات": 2349,
      "انا": 2350,
      "إذا": 2351,
      "▁الخام": 2352,
      "▁لتح": 2353,
      "▁اح": 2354,
      "▁الجيري": 2355,
      "▁ولي": 2356,
      "▁منطقة": 2357,
      "▁Ø": 2358,
      "غل": 2359,
      "▁البر": 2360,
      "▁الحياة": 2361,
      "▁والش": 2362,
      "▁مليون": 2363,
      "راً": 2364,
      "ab": 2365,
      "▁R": 2366,
      "▁واست": 2367,
      "▁وفق": 2368,
      "▁ذلك،": 2369,
      "تك": 2370,
      "▁سيا": 2371,
      "ويات": 2372,
      "▁الجديدة": 2373,
      "صح": 2374,
      "▁I": 2375,
      "▁H": 2376,
      "▁الدم": 2377,
      "جهة": 2378,
      "زال": 2379,
      "▁مستوى": 2380,
      "▁رقم": 2381,
      "داد": 2382,
      "▁مي": 2383,
      "▁الصح": 2384,
      "▁خص": 2385,
      "▁الشر": 2386,
      "▁مختلفة": 2387,
      "اعات": 2388,
      "سرائيل": 2389,
      "▁البن": 2390,
      "ub": 2391,
      "▁أيضا": 2392,
      "▁تعدين": 2393,
      "▁أثناء": 2394,
      "▁النظام": 2395,
      "عاون": 2396,
      "نتر": 2397,
      "يمة": 2398,
      "ماية": 2399,
      "اتف": 2400,
      "▁بناء": 2401,
      "▁أخ": 2402,
      "▁الولايات": 2403,
      "▁آلات": 2404,
      "▁تقديم": 2405,
      "▁يس": 2406,
      "ينية": 2407,
      "▁الأمن": 2408,
      "يط": 2409,
      "▁صف": 2410,
      "▁منه": 2411,
      "▁مض": 2412,
      "▁تصميم": 2413,
      "▁القانون": 2414,
      "جارة": 2415,
      "▁أنواع": 2416,
      "”،": 2417,
      "مات": 2418,
      "am": 2419,
      "▁حر": 2420,
      "▁المق": 2421,
      "سبوع": 2422,
      "ri": 2423,
      "▁الفلسط": 2424,
      "▁نحو": 2425,
      "▁تطبيق": 2426,
      "▁الطاقة": 2427,
      "الى": 2428,
      "▁يا": 2429,
      "▁an": 2430,
      "▁15": 2431,
      "▁h": 2432,
      "ويت": 2433,
      "▁الحكومة": 2434,
      ").": 2435,
      "▁وط": 2436,
      "كتور": 2437,
      "ًا،": 2438,
      "كات": 2439,
      "يق": 2440,
      "▁W": 2441,
      "يفة": 2442,
      "▁مز": 2443,
      "\nو": 2444,
      "راتيج": 2445,
      "حص": 2446,
      "▁مه": 2447,
      "مْ": 2448,
      "واب": 2449,
      "▁30": 2450,
      "خول": 2451,
      "▁المنطقة": 2452,
      "▁[": 2453,
      "▁للإ": 2454,
      "▁لما": 2455,
      "▁أسعار": 2456,
      "▁الظ": 2457,
      "حات": 2458,
      "▁الساعة": 2459,
      "كيف": 2460,
      "▁والص": 2461,
      "اول": 2462,
      "كنولوج": 2463,
      "▁مجال": 2464,
      "بس": 2465,
      "فعل": 2466,
      "▁الملك": 2467,
      "▁حين": 2468,
      "▁بالأ": 2469,
      "▁الفور": 2470,
      "▁التعليم": 2471,
      "حيح": 2472,
      "▁باستخدام": 2473,
      "ion": 2474,
      "افظة": 2475,
      "رع": 2476,
      "داء": 2477,
      "▁طلب": 2478,
      "▁الصنا": 2479,
      "▁النف": 2480,
      "▁المعلومات": 2481,
      "علق": 2482,
      "خصص": 2483,
      "▁رم": 2484,
      "ؤية": 2485,
      "▁المزيد": 2486,
      "ائج": 2487,
      "راءة": 2488,
      "▁المعدات": 2489,
      "افظ": 2490,
      "▁جم": 2491,
      "▁برنامج": 2492,
      "هِ": 2493,
      "▁شركات": 2494,
      "▁14": 2495,
      "▁الرمل": 2496,
      "▁تل": 2497,
      "▁هل": 2498,
      "▁جيد": 2499,
      "اك": 2500,
      "فاظ": 2501,
      "نج": 2502,
      "ُّ": 2503,
      "رحلة": 2504,
      "▁قص": 2505,
      "▁كثير": 2506,
      "▁مث": 2507,
      "باراة": 2508,
      "وبي": 2509,
      "جراءات": 2510,
      "▁ضمن": 2511,
      "▁الإلكتر": 2512,
      "َر": 2513,
      "▁كيفية": 2514,
      "حوق": 2515,
      "جاج": 2516,
      "لسلة": 2517,
      "▁تقدم": 2518,
      "ستر": 2519,
      "هداف": 2520,
      "وروب": 2521,
      "▁مف": 2522,
      "▁نقل": 2523,
      "▁شهر": 2524,
      "▁درجة": 2525,
      "▁الوطني": 2526,
      "▁تصنيع": 2527,
      "دية": 2528,
      "▁قطع": 2529,
      "ديل": 2530,
      "▁f": 2531,
      "▁اسم": 2532,
      "نترنت": 2533,
      "▁العد": 2534,
      "▁المحت": 2535,
      "▁أق": 2536,
      "وتر": 2537,
      "▁؛": 2538,
      "▁الدولي": 2539,
      "تمد": 2540,
      "▁والف": 2541,
      "ائف": 2542,
      "▁عليك": 2543,
      ".\nفي": 2544,
      "لاثة": 2545,
      "▁الجديد": 2546,
      "▁أفريقيا": 2547,
      "بين": 2548,
      "▁والذي": 2549,
      "روس": 2550,
      "▁المال": 2551,
      "دات": 2552,
      "▁السن": 2553,
      "ore": 2554,
      "ذج": 2555,
      "▁إدارة": 2556,
      "▁قام": 2557,
      "▁المحمول": 2558,
      "▁الشعب": 2559,
      "يلي": 2560,
      "▁البحر": 2561,
      "▁وزير": 2562,
      "▁لدى": 2563,
      "te": 2564,
      "▁الصغيرة": 2565,
      ".\n\n": 2566,
      "▁اليمن": 2567,
      "اش": 2568,
      "طاق": 2569,
      "▁الرمال": 2570,
      "▁سم": 2571,
      "▁سنة": 2572,
      "خة": 2573,
      "▁تُ": 2574,
      "وما": 2575,
      "▁تاريخ": 2576,
      "راب": 2577,
      "طيع": 2578,
      "▁ألف": 2579,
      "▁18": 2580,
      "▁الترك": 2581,
      "أت": 2582,
      "والي": 2583,
      "عام": 2584,
      "▁يعني": 2585,
      "كلة": 2586,
      "▁سنوات": 2587,
      "اء،": 2588,
      "▁اللي": 2589,
      "▁وان": 2590,
      "▁رائ": 2591,
      "▁بالنسبة": 2592,
      "000": 2593,
      "تع": 2594,
      "▁نج": 2595,
      "▁السوق": 2596,
      "سر": 2597,
      "بكة": 2598,
      "▁جي": 2599,
      "▁ها": 2600,
      "▁“ال": 2601,
      "▁يص": 2602,
      "هن": 2603,
      "▁المصر": 2604,
      "س،": 2605,
      "▁الاقتصاد": 2606,
      "▁العراق": 2607,
      "▁تعمل": 2608,
      "ثم": 2609,
      "▁عدة": 2610,
      "فظ": 2611,
      "▁القد": 2612,
      "19": 2613,
      "قف": 2614,
      "▁الكهرب": 2615,
      "عودي": 2616,
      "يارات": 2617,
      "▁فريق": 2618,
      "12": 2619,
      "ارب": 2620,
      "▁الحد": 2621,
      "▁تك": 2622,
      "▁لمدة": 2623,
      "جا": 2624,
      "سكر": 2625,
      "▁تحقيق": 2626,
      "سط": 2627,
      "▁ابن": 2628,
      "خفض": 2629,
      "▁to": 2630,
      "خام": 2631,
      "▁جانب": 2632,
      "▁ولم": 2633,
      "▁مركز": 2634,
      "▁علا": 2635,
      "▁الاتحاد": 2636,
      "202": 2637,
      "▁نظ": 2638,
      "ol": 2639,
      "▁الفر": 2640,
      "▁الأعمال": 2641,
      "▁صناعة": 2642,
      "خرج": 2643,
      "▁سلسلة": 2644,
      "ارك": 2645,
      "صابة": 2646,
      "لاك": 2647,
      "▁زيادة": 2648,
      "تيجة": 2649,
      "حب": 2650,
      "وضع": 2651,
      "▁تمام": 2652,
      "ذية": 2653,
      "▁الموج": 2654,
      "رم": 2655,
      "هود": 2656,
      "▁الطبيع": 2657,
      "اعت": 2658,
      "ائد": 2659,
      "▁حجم": 2660,
      "▁المنزل": 2661,
      "▁عشر": 2662,
      "▁الآخر": 2663,
      "▁وإن": 2664,
      "▁وسي": 2665,
      "جاه": 2666,
      "▁الشع": 2667,
      "علن": 2668,
      "▁مختلف": 2669,
      "▁الشعر": 2670,
      "▁خدمة": 2671,
      "▁العلا": 2672,
      "▁الأطفال": 2673,
      "▁الحي": 2674,
      "▁الداخل": 2675,
      "▁تكلفة": 2676,
      "▁تحديد": 2677,
      "▁قائمة": 2678,
      "اشة": 2679,
      "▁إذ": 2680,
      "▁أبو": 2681,
      "ريط": 2682,
      "▁الفي": 2683,
      "▁العربي": 2684,
      "▁جهاز": 2685,
      "ونية": 2686,
      "قرأ": 2687,
      "اهرة": 2688,
      "▁حسب": 2689,
      "سباب": 2690,
      "ًا.": 2691,
      "▁النبات": 2692,
      "ماد": 2693,
      "أتي": 2694,
      "سيق": 2695,
      "▁الحل": 2696,
      "▁معالجة": 2697,
      "▁أغ": 2698,
      "▁السود": 2699,
      "op": 2700,
      "ناك": 2701,
      "▁التف": 2702,
      "ادات": 2703,
      "▁بدا": 2704,
      "11": 2705,
      "▁a": 2706,
      "▁وجه": 2707,
      "▁المصنعة": 2708,
      "بو": 2709,
      "ئا": 2710,
      "▁أما": 2711,
      "▁حيات": 2712,
      "واد": 2713,
      "▁الجسم": 2714,
      "▁حم": 2715,
      "▁اي": 2716,
      "▁طريقة": 2717,
      "بيت": 2718,
      "▁الإنسان": 2719,
      "هار": 2720,
      "▁مم": 2721,
      "▁المركز": 2722,
      "يرا": 2723,
      "▁التواصل": 2724,
      "▁معد": 2725,
      "▁المنتجات": 2726,
      "▁الهي": 2727,
      "ك،": 2728,
      "ابقة": 2729,
      "اجر": 2730,
      "هذا": 2731,
      "▁الاتصال": 2732,
      "▁شراء": 2733,
      "▁الثال": 2734,
      "▁لـ": 2735,
      "▁شكل": 2736,
      "آن": 2737,
      "▁لف": 2738,
      "▁عمر": 2739,
      "▁الموقع": 2740,
      "▁الإنترنت": 2741,
      "▁عب": 2742,
      "ادن": 2743,
      "▁خاص": 2744,
      "30": 2745,
      "▁بدون": 2746,
      "▁المختلفة": 2747,
      "▁رأ": 2748,
      "وبر": 2749,
      "▁تؤ": 2750,
      "▁أمر": 2751,
      "يانة": 2752,
      "▁صح": 2753,
      "ستخدمة": 2754,
      "▁w": 2755,
      "نين": 2756,
      "▁نفسه": 2757,
      "▁اختيار": 2758,
      "عبة": 2759,
      "▁نش": 2760,
      "▁أحمد": 2761,
      "▁مرت": 2762,
      "ناصر": 2763,
      "▁الغذ": 2764,
      "▁بوا": 2765,
      "▁وقال": 2766,
      "▁جني": 2767,
      "▁الشيخ": 2768,
      "▁معل": 2769,
      "بدو": 2770,
      "▁مُ": 2771,
      "َب": 2772,
      "▁الاعت": 2773,
      "كنولوجيا": 2774,
      "▁المالية": 2775,
      "▁قدر": 2776,
      "روض": 2777,
      "▁”": 2778,
      "▁الثق": 2779,
      "مرار": 2780,
      "دت": 2781,
      "▁لهم": 2782,
      "طاء": 2783,
      "امي": 2784,
      "سان": 2785,
      "اً،": 2786,
      "▁ذكر": 2787,
      "▁يعمل": 2788,
      "ظف": 2789,
      "▁للج": 2790,
      "▁أنّ": 2791,
      "▁المجتمع": 2792,
      "▁الماء": 2793,
      ".\nوقال": 2794,
      "▁وكذلك": 2795,
      "▁دولة": 2796,
      "▁للد": 2797,
      "هات": 2798,
      "طح": 2799,
      "▁g": 2800,
      "▁والق": 2801,
      "ئات": 2802,
      "▁لق": 2803,
      "ثمار": 2804,
      "▁يقوم": 2805,
      "▁الْ": 2806,
      "سسة": 2807,
      "▁تحتاج": 2808,
      "▁إل": 2809,
      "صلاح": 2810,
      "▁لد": 2811,
      "▁بكل": 2812,
      "▁الصف": 2813,
      "▁فترة": 2814,
      "َيْ": 2815,
      "راع": 2816,
      "▁الجزائر": 2817,
      "ment": 2818,
      "▁كتاب": 2819,
      "▁الحق": 2820,
      "زين": 2821,
      "َة": 2822,
      "جال": 2823,
      "وريا": 2824,
      "▁صور": 2825,
      "َع": 2826,
      "▁نس": 2827,
      "قدمة": 2828,
      "ويلة": 2829,
      "▁الدكتور": 2830,
      "كمة": 2831,
      "▁النها": 2832,
      "حاس": 2833,
      "!\n": 2834,
      "▁مدير": 2835,
      "▁كافة": 2836,
      "▁للغا": 2837,
      "▁والج": 2838,
      "▁المصري": 2839,
      "▁الأكثر": 2840,
      "▁سبيل": 2841,
      "قرار": 2842,
      "يو": 2843,
      "▁وتع": 2844,
      "▁إم": 2845,
      "زن": 2846,
      "وضح": 2847,
      "ضح": 2848,
      "▁المستخدمة": 2849,
      "▁تتم": 2850,
      "▁o": 2851,
      "هتمام": 2852,
      "▁بـ": 2853,
      "▁الجهاز": 2854,
      "▁N": 2855,
      "▁تب": 2856,
      "▁يقول": 2857,
      "▁الإمارات": 2858,
      "▁وسلم": 2859,
      "▁نص": 2860,
      "ياب": 2861,
      "هيز": 2862,
      "ران": 2863,
      "▁وعلى": 2864,
      "ريع": 2865,
      "▁لص": 2866,
      "▁فال": 2867,
      "تنا": 2868,
      "سمح": 2869,
      "▁تناول": 2870,
      "لل": 2871,
      "▁المحمولة": 2872,
      "نف": 2873,
      "▁أقل": 2874,
      "▁أيام": 2875,
      "اليا": 2876,
      "طلق": 2877,
      "▁المنتج": 2878,
      "▁عالم": 2879,
      "▁يف": 2880,
      "ونات": 2881,
      "▁50": 2882,
      "وجة": 2883,
      "▁فوق": 2884,
      "▁خدمات": 2885,
      "سسات": 2886,
      "قق": 2887,
      "لاة": 2888,
      "▁نف": 2889,
      "▁الوطنية": 2890,
      "َم": 2891,
      "▁2023": 2892,
      "1.": 2893,
      "اق": 2894,
      "▁الخدمات": 2895,
      "▁توا": 2896,
      "ارد": 2897,
      "▁رب": 2898,
      "▁بو": 2899,
      "\".": 2900,
      "▁وعد": 2901,
      "▁يوجد": 2902,
      "نب": 2903,
      "▁إد": 2904,
      "▁نهاية": 2905,
      "▁التجارية": 2906,
      "▁الأل": 2907,
      "▁الماضي": 2908,
      "▁الاجتماعي": 2909,
      "▁الرئيسية": 2910,
      "افي": 2911,
      "▁إنه": 2912,
      "▁إعادة": 2913,
      "▁قم": 2914,
      "خلص": 2915,
      "▁بلا": 2916,
      "▁قدم": 2917,
      "غب": 2918,
      "▁مسحوق": 2919,
      "روج": 2920,
      "طاقة": 2921,
      "ومي": 2922,
      "اكل": 2923,
      "▁عق": 2924,
      "ch": 2925,
      "▁ارتفاع": 2926,
      "واج": 2927,
      "كيل": 2928,
      "▁ويمكن": 2929,
      "صار": 2930,
      "▁الحم": 2931,
      "فسير": 2932,
      "▁الخب": 2933,
      "الف": 2934,
      "▁علم": 2935,
      "▁أعمال": 2936,
      "اهد": 2937,
      "▁عنه": 2938,
      "▁أج": 2939,
      "▁الجودة": 2940,
      "▁البلاد": 2941,
      "فيف": 2942,
      "تز": 2943,
      "▁لبن": 2944,
      "▁2022": 2945,
      "▁المز": 2946,
      "▁تقوم": 2947,
      "سام": 2948,
      "عملة": 2949,
      ".\nوفي": 2950,
      "▁المرأة": 2951,
      "▁فتح": 2952,
      "▁نطاق": 2953,
      "بعد": 2954,
      "id": 2955,
      "▁مباشرة": 2956,
      "َد": 2957,
      "علان": 2958,
      "▁جدا": 2959,
      "▁العلم": 2960,
      "▁المواطن": 2961,
      "خراج": 2962,
      "▁رأس": 2963,
      "▁O": 2964,
      "▁خارج": 2965,
      "ختلف": 2966,
      "جموع": 2967,
      "▁السلام": 2968,
      "▁16": 2969,
      "ورات": 2970,
      "الد": 2971,
      "▁جاء": 2972,
      "▁ير": 2973,
      "▁أنا": 2974,
      "زيل": 2975,
      "كار": 2976,
      "▁والاست": 2977,
      "▁البناء": 2978,
      "شارة": 2979,
      "احب": 2980,
      ".\nوي": 2981,
      "▁أل": 2982,
      "▁24": 2983,
      "▁المل": 2984,
      "▁الأمريكية": 2985,
      "▁أعلى": 2986,
      "ضية": 2987,
      "▁متنقلة": 2988,
      "ow": 2989,
      "ولات": 2990,
      "▁إضافة": 2991,
      "▁تغ": 2992,
      "ذر": 2993,
      "عضاء": 2994,
      "المي": 2995,
      "▁توفير": 2996,
      "▁كور": 2997,
      "▁سواء": 2998,
      "▁فأ": 2999,
      "عرفة": 3000,
      "واق": 3001,
      "▁نمو": 3002,
      "بيض": 3003,
      "▁الثلاث": 3004,
      "▁الرسم": 3005,
      "زالة": 3006,
      "▁عبدال": 3007,
      "ارع": 3008,
      "▁صلى": 3009,
      "▁العملاء": 3010,
      "صب": 3011,
      "هولة": 3012,
      "أك": 3013,
      "▁عد": 3014,
      "▁الأمير": 3015,
      "ك.": 3016,
      "ناة": 3017,
      "▁المشت": 3018,
      "▁وتم": 3019,
      "▁صغير": 3020,
      "امين": 3021,
      "▁فلا": 3022,
      "▁11": 3023,
      "بول": 3024,
      "▁in": 3025,
      "ون،": 3026,
      "▁مقابل": 3027,
      "▁العرب": 3028,
      "نوعة": 3029,
      "افية": 3030,
      "▁تعالى": 3031,
      "▁منتجات": 3032,
      "▁الأشخاص": 3033,
      "يا،": 3034,
      "▁الدين": 3035,
      "ئيسي": 3036,
      "▁المدينة": 3037,
      "▁يكن": 3038,
      "لائ": 3039,
      "ev": 3040,
      "oo": 3041,
      "قطع": 3042,
      "▁المعد": 3043,
      "باط": 3044,
      "▁المياه": 3045,
      "▁وض": 3046,
      "طان": 3047,
      "بوب": 3048,
      "لة،": 3049,
      "تمر": 3050,
      "▁نحن": 3051,
      "▁دعم": 3052,
      "▁والب": 3053,
      "اتب": 3054,
      "▁بينما": 3055,
      "▁لمن": 3056,
      "جزاء": 3057,
      "قاومة": 3058,
      "▁المشروع": 3059,
      "▁السابق": 3060,
      "ومية": 3061,
      "▁the": 3062,
      "▁دع": 3063,
      "st": 3064,
      "▁الاسمنت": 3065,
      "▁نشر": 3066,
      "▁المطر": 3067,
      "اته": 3068,
      "▁وغ": 3069,
      "▁الإعلام": 3070,
      "▁والخ": 3071,
      "▁الفترة": 3072,
      "▁ثلاث": 3073,
      "اريع": 3074,
      "▁اللج": 3075,
      "التالي": 3076,
      "ستان": 3077,
      "▁للس": 3078,
      "▁»": 3079,
      "▁محم": 3080,
      "▁الأخيرة": 3081,
      "▁وآ": 3082,
      "▁لقد": 3083,
      "▁الثانية": 3084,
      "▁تنفيذ": 3085,
      "▁متر": 3086,
      "قيم": 3087,
      "▁أيضاً": 3088,
      "ائع": 3089,
      "▁بالك": 3090,
      "ph": 3091,
      "ياس": 3092,
      "▁والك": 3093,
      "nt": 3094,
      "▁المف": 3095,
      "▁l": 3096,
      "فير": 3097,
      "▁الدرا": 3098,
      "تل": 3099,
      "▁فل": 3100,
      "قديم": 3101,
      "▁المرك": 3102,
      "▁13": 3103,
      "▁مغ": 3104,
      "▁واض": 3105,
      "ذك": 3106,
      "دة،": 3107,
      "اركة": 3108,
      "▁2021": 3109,
      "▁شر": 3110,
      "▁مرا": 3111,
      "▁تطوير": 3112,
      "▁ته": 3113,
      "▁الأف": 3114,
      "▁جعل": 3115,
      "يدر": 3116,
      "ليف": 3117,
      "يع": 3118,
      "ماع": 3119,
      "▁الكسارات": 3120,
      "▁نتيجة": 3121,
      "ريح": 3122,
      "▁ويت": 3123,
      "▁التاريخ": 3124,
      "▁بب": 3125,
      "▁الشرق": 3126,
      "▁بالع": 3127,
      "ليق": 3128,
      "▁الفرن": 3129,
      "اهر": 3130,
      "▁بار": 3131,
      "▁فض": 3132,
      "ct": 3133,
      "▁الرغم": 3134,
      ".\nوأضاف": 3135,
      "\nالم": 3136,
      "▁قانون": 3137,
      "▁الصحة": 3138,
      ".\nكما": 3139,
      "▁النفط": 3140,
      "ى،": 3141,
      "اند": 3142,
      "▁on": 3143,
      "▁جزء": 3144,
      "▁الرائ": 3145,
      "▁الفوركس": 3146,
      "▁باست": 3147,
      "▁25": 3148,
      "▁بالح": 3149,
      "مط": 3150,
      "▁النحاس": 3151,
      "▁حك": 3152,
      "▁الفريق": 3153,
      "▁عمليات": 3154,
      "وفي": 3155,
      "▁الطفل": 3156,
      "وائد": 3157,
      "ظائف": 3158,
      "▁العالمية": 3159,
      "▁لب": 3160,
      "ضور": 3161,
      "تهم": 3162,
      "▁الأسعار": 3163,
      "▁ينت": 3164,
      "▁قطاع": 3165,
      "▁والر": 3166,
      "▁بغ": 3167,
      "فاءة": 3168,
      "▁بشأن": 3169,
      "ْت": 3170,
      "▁الـ": 3171,
      "▁فهو": 3172,
      "▁ليست": 3173,
      "صفات": 3174,
      "▁الخارجية": 3175,
      "▁عقد": 3176,
      "ئب": 3177,
      "▁وحدة": 3178,
      "15": 3179,
      "▁البط": 3180,
      "▁وث": 3181,
      "▁لط": 3182,
      "جرد": 3183,
      "▁هد": 3184,
      "طوير": 3185,
      "▁التر": 3186,
      "▁الحرب": 3187,
      "▁الإنتاج": 3188,
      "ثار": 3189,
      "▁المجلس": 3190,
      "ذة": 3191,
      "▁لهذا": 3192,
      "ay": 3193,
      "▁الوصول": 3194,
      "▁للن": 3195,
      "▁طويلة": 3196,
      "دينا": 3197,
      "▁للق": 3198,
      "▁الأحد": 3199,
      "▁سيكون": 3200,
      "▁التداول": 3201,
      "▁V": 3202,
      "▁المك": 3203,
      "▁كث": 3204,
      "▁نسبة": 3205,
      "▁زوج": 3206,
      ".\nوب": 3207,
      "▁الأع": 3208,
      "برز": 3209,
      "عاية": 3210,
      "اصمة": 3211,
      "▁روس": 3212,
      "▁لنا": 3213,
      "فية": 3214,
      "صدار": 3215,
      "عتقد": 3216,
      "▁السعودي": 3217,
      "▁الكسارة": 3218,
      "كَ": 3219,
      "حتى": 3220,
      "لبية": 3221,
      ")\n": 3222,
      "سيط": 3223,
      "تحدث": 3224,
      "▁ثلاثة": 3225,
      "▁تحميل": 3226,
      ".\nمن": 3227,
      "▁|": 3228,
      "▁الدولية": 3229,
      "ذب": 3230,
      "صور": 3231,
      "▁حوالي": 3232,
      "ميزة": 3233,
      "قيلة": 3234,
      "ِل": 3235,
      "▁يجعل": 3236,
      "▁الحجارة": 3237,
      "ؤال": 3238,
      "آلة": 3239,
      "▁المثال": 3240,
      "لوب": 3241,
      "▁إنشاء": 3242,
      "▁إليه": 3243,
      "▁السيد": 3244,
      "طور": 3245,
      "▁يعد": 3246,
      "ّا": 3247,
      "▁جودة": 3248,
      "َو": 3249,
      "ine": 3250,
      "وجود": 3251,
      "▁تشغيل": 3252,
      "▁ني": 3253,
      "فاض": 3254,
      "▁الرح": 3255,
      "▁بيت": 3256,
      "درسة": 3257,
      "كوين": 3258,
      "▁U": 3259,
      "▁عض": 3260,
      "بيقات": 3261,
      "▁والث": 3262,
      "▁للف": 3263,
      "▁الأص": 3264,
      "افت": 3265,
      "جير": 3266,
      "▁البلد": 3267,
      "▁ومت": 3268,
      "2.": 3269,
      "▁الروا": 3270,
      "حاء": 3271,
      "▁اكت": 3272,
      "ont": 3273,
      "جاز": 3274,
      "ده": 3275,
      "َت": 3276,
      "▁هم": 3277,
      "لعاب": 3278,
      "▁ألم": 3279,
      "زية": 3280,
      "رة،": 3281,
      "ظيفة": 3282,
      "شل": 3283,
      "▁رؤية": 3284,
      "▁ينا": 3285,
      "▁2016": 3286,
      "▁لأنه": 3287,
      "▁الأط": 3288,
      "ندا": 3289,
      "حاب": 3290,
      "▁ار": 3291,
      "ات.": 3292,
      "▁التالية": 3293,
      "▁إجراء": 3294,
      "سلسل": 3295,
      "▁القدم": 3296,
      "▁باسم": 3297,
      "▁لكم": 3298,
      "شطة": 3299,
      "▁سوق": 3300,
      "▁قرار": 3301,
      "▁بنسبة": 3302,
      "▁معظم": 3303,
      "حدى": 3304,
      "ائدة": 3305,
      "▁تنت": 3306,
      "مثل": 3307,
      "▁النظر": 3308,
      "▁الشباب": 3309,
      "وحة": 3310,
      "▁البل": 3311,
      "▁السب": 3312,
      "بيوتر": 3313,
      "▁فعل": 3314,
      "▁17": 3315,
      "هير": 3316,
      "▁وبعد": 3317,
      "انه": 3318,
      "▁الدفاع": 3319,
      "صى": 3320,
      "طوان": 3321,
      ").\n": 3322,
      "▁حدث": 3323,
      "أل": 3324,
      "ماً": 3325,
      "ومن": 3326,
      "سلحة": 3327,
      "راجع": 3328,
      "راضي": 3329,
      "ÙÙ": 3330,
      "سرائيلي": 3331,
      "▁وتن": 3332,
      "عة،": 3333,
      "▁الاخت": 3334,
      "▁قطر": 3335,
      "▁of": 3336,
      "▁يؤدي": 3337,
      "▁أر": 3338,
      "▁المرت": 3339,
      "▁جامعة": 3340,
      "▁معلومات": 3341,
      "▁وليس": 3342,
      "▁2020": 3343,
      "▁الشم": 3344,
      "▁ريال": 3345,
      "هورية": 3346,
      "صدر": 3347,
      "▁وسائل": 3348,
      "▁قوات": 3349,
      "▁رح": 3350,
      "دع": 3351,
      "▁غس": 3352,
      "قرا": 3353,
      "لاع": 3354,
      "▁محا": 3355,
      "▁الخرس": 3356,
      "16": 3357,
      "▁1.": 3358,
      "18": 3359,
      "▁؟": 3360,
      "▁قول": 3361,
      "سمى": 3362,
      "ia": 3363,
      "▁حي": 3364,
      "her": 3365,
      "▁البيانات": 3366,
      "▁الواقع": 3367,
      "▁مِن": 3368,
      "▁تغيير": 3369,
      "قتصادي": 3370,
      "▁ظل": 3371,
      "اطر": 3372,
      "▁القاد": 3373,
      "▁المناطق": 3374,
      "قامة": 3375,
      "▁الأسمنت": 3376,
      "صي": 3377,
      "▁السيارات": 3378,
      "▁الفلسطيني": 3379,
      "▁أوروب": 3380,
      "▁ولاية": 3381,
      "شرات": 3382,
      "▁تقرير": 3383,
      "▁المرا": 3384,
      "كام": 3385,
      "عيش": 3386,
      "سكرية": 3387,
      "▁يك": 3388,
      "▁المصنع": 3389,
      "ائلة": 3390,
      "▁بداية": 3391,
      "نائية": 3392,
      "▁بالق": 3393,
      "▁يلي": 3394,
      "▁للحصول": 3395,
      "ot": 3396,
      ".\nالم": 3397,
      "▁أشهر": 3398,
      "رية": 3399,
      "▁لاست": 3400,
      "\nفي": 3401,
      "▁ملف": 3402,
      "▁واج": 3403,
      "علنت": 3404,
      ".\nل": 3405,
      "لابس": 3406,
      "▁الكتاب": 3407,
      "▁المطرقة": 3408,
      "▁كون": 3409,
      "▁بذلك": 3410,
      "ريك": 3411,
      "شن": 3412,
      "ur": 3413,
      "▁كامل": 3414,
      "▁التطبيق": 3415,
      "▁الحالي": 3416,
      "▁الور": 3417,
      "غر": 3418,
      "▁الطب": 3419,
      "▁القيام": 3420,
      "▁كذلك": 3421,
      "ّر": 3422,
      "هج": 3423,
      "▁الجيش": 3424,
      "▁صورة": 3425,
      "▁التخ": 3426,
      "▁المرض": 3427,
      "خصصة": 3428,
      "صاص": 3429,
      "▁الحالة": 3430,
      "▁العملية": 3431,
      "▁غزة": 3432,
      "هيم": 3433,
      "ّل": 3434,
      "▁المستخدم": 3435,
      "▁العلاج": 3436,
      "ريات": 3437,
      "▁يساعد": 3438,
      "▁وصل": 3439,
      "▁اب": 3440,
      "▁طب": 3441,
      "ag": 3442,
      "رسال": 3443,
      "▁الفيديو": 3444,
      "ريض": 3445,
      "▁الخلي": 3446,
      "▁علاج": 3447,
      "راتيجية": 3448,
      "��": 3449,
      "▁اجتما": 3450,
      "▁الكب": 3451,
      "▁النوع": 3452,
      "14": 3453,
      "▁تريد": 3454,
      "ونس": 3455,
      "▁وتت": 3456,
      "▁قوة": 3457,
      "▁زيت": 3458,
      "ائرة": 3459,
      "17": 3460,
      "▁ضر": 3461,
      "شكل": 3462,
      "▁محت": 3463,
      "....": 3464,
      "وغ": 3465,
      "▁الرب": 3466,
      "▁أهمية": 3467,
      "الك": 3468,
      "▁نقطة": 3469,
      "▁سير": 3470,
      "▁سا": 3471,
      "منة": 3472,
      "حيان": 3473,
      "▁تمت": 3474,
      "كونات": 3475,
      "واح": 3476,
      "ليب": 3477,
      "صبح": 3478,
      "rus": 3479,
      "▁الوزراء": 3480,
      "▁مليار": 3481,
      "▁الوح": 3482,
      "▁بيان": 3483,
      "مارسة": 3484,
      "▁زي": 3485,
      "▁بِ": 3486,
      "ليا": 3487,
      "▁المعادن": 3488,
      "▁تداول": 3489,
      "▁السياسي": 3490,
      "جابة": 3491,
      "▁يستخدم": 3492,
      "كينة": 3493,
      "com": 3494,
      "▁النساء": 3495,
      "▁الخص": 3496,
      "▁ضع": 3497,
      "▁قدرة": 3498,
      "▁مواقع": 3499,
      "ارنة": 3500,
      "عمة": 3501,
      "▁إطار": 3502,
      "▁وحد": 3503,
      "▁بنا": 3504,
      "قام": 3505,
      "ثبيت": 3506,
      "ودية": 3507,
      "▁الأسبوع": 3508,
      "▁والا": 3509,
      "ئلة": 3510,
      "واعد": 3511,
      "▁المسلم": 3512,
      "▁الداخلية": 3513,
      "▁عنها": 3514,
      "▁دائم": 3515,
      "وامل": 3516,
      "▁الأساسية": 3517,
      "▁قيمة": 3518,
      "▁وكل": 3519,
      "ديق": 3520,
      "▁وات": 3521,
      "▁النق": 3522,
      "▁الاجتماعية": 3523,
      "▁السياسية": 3524,
      "هاد": 3525,
      "كينات": 3526,
      "بيعة": 3527,
      "بقى": 3528,
      "▁منهم": 3529,
      "▁لاح": 3530,
      "▁أنت": 3531,
      "un": 3532,
      "▁يل": 3533,
      "▁دبي": 3534,
      "سد": 3535,
      "▁الصحية": 3536,
      "ياجات": 3537,
      "▁الشهر": 3538,
      "▁الأور": 3539,
      "▁البشر": 3540,
      "ابي": 3541,
      "▁التعاون": 3542,
      "ir": 3543,
      "ديثة": 3544,
      "▁حقوق": 3545,
      "ريبة": 3546,
      "ig": 3547,
      "جاح": 3548,
      "رش": 3549,
      "▁النص": 3550,
      "▁متعد": 3551,
      "▁لاع": 3552,
      "اعر": 3553,
      "▁القطاع": 3554,
      "رز": 3555,
      "▁إنها": 3556,
      "ونيو": 3557,
      "▁البعض": 3558,
      "▁أت": 3559,
      "▁إسرائيل": 3560,
      "▁الحمل": 3561,
      "سكري": 3562,
      "▁الاحتلال": 3563,
      "▁وبالتالي": 3564,
      "▁الطرق": 3565,
      "3.": 3566,
      "َق": 3567,
      "▁بلغ": 3568,
      "▁نظر": 3569,
      "▁الحديث": 3570,
      "قليم": 3571,
      "روب": 3572,
      "ريمة": 3573,
      "عين": 3574,
      "▁لديك": 3575,
      "ثنين": 3576,
      "▁التى": 3577,
      "▁سيتم": 3578,
      "▁شع": 3579,
      "▁مساء": 3580,
      "ادرة": 3581,
      "▁ـ": 3582,
      "▁تنظيم": 3583,
      "افحة": 3584,
      "pp": 3585,
      "▁دم": 3586,
      "▁يحدث": 3587,
      "ه.\n": 3588,
      "▁by": 3589,
      "▁الكم": 3590,
      "▁تسجيل": 3591,
      "خاذ": 3592,
      "خيص": 3593,
      "قييم": 3594,
      "▁and": 3595,
      "▁يصل": 3596,
      "▁تساعد": 3597,
      "▁أبي": 3598,
      "▁يعتبر": 3599,
      "▁الصحي": 3600,
      "▁تصل": 3601,
      "رانيت": 3602,
      "▁أهل": 3603,
      "▁بف": 3604,
      "اتها": 3605,
      "ثور": 3606,
      "ادل": 3607,
      "▁فهي": 3608,
      "im": 3609,
      "▁الألم": 3610,
      "▁البد": 3611,
      "شاف": 3612,
      "ْم": 3613,
      "▁انه": 3614,
      "▁تنظيف": 3615,
      "▁ممت": 3616,
      "وردين": 3617,
      "▁وغيرها": 3618,
      "ندوق": 3619,
      "▁أمري": 3620,
      "▁تعرف": 3621,
      "كبر": 3622,
      "▁مب": 3623,
      "▁توفر": 3624,
      "▁الإلكتروني": 3625,
      "▁حياة": 3626,
      "اصل": 3627,
      "▁شبكة": 3628,
      "وارد": 3629,
      "ابلة": 3630,
      "اهدة": 3631,
      "▁الإس": 3632,
      "▁تعد": 3633,
      "▁حديث": 3634,
      "▁المث": 3635,
      "خابات": 3636,
      "▁للغاية": 3637,
      "▁40": 3638,
      "▁أنحاء": 3639,
      "▁الصور": 3640,
      "▁يخ": 3641,
      "هام": 3642,
      "▁بات": 3643,
      "▁اللبن": 3644,
      "▁لدينا": 3645,
      "▁صاحب": 3646,
      "▁إث": 3647,
      "▁يقدم": 3648,
      "▁(أ": 3649,
      "ائص": 3650,
      "فاعل": 3651,
      "شد": 3652,
      "▁الخدمة": 3653,
      "ثلة": 3654,
      "دير": 3655,
      "ويد": 3656,
      "روة": 3657,
      "حقق": 3658,
      "▁العالمي": 3659,
      "▁قلي": 3660,
      "▁الحرارة": 3661,
      "ديمة": 3662,
      "خفاض": 3663,
      "ماس": 3664,
      "قية": 3665,
      "روري": 3666,
      "وجيه": 3667,
      "▁لبنان": 3668,
      "▁المادة": 3669,
      "▁المُ": 3670,
      "▁الهاتف": 3671,
      "▁المحد": 3672,
      "▁المض": 3673,
      "▁الطلب": 3674,
      "▁رسم": 3675,
      "▁كال": 3676,
      "▁يحتوي": 3677,
      "▁أساس": 3678,
      "▁دفع": 3679,
      "▁المسؤول": 3680,
      "َنْ": 3681,
      "ميد": 3682,
      "▁فرن": 3683,
      "▁تحتوي": 3684,
      "▁الرجل": 3685,
      "هية": 3686,
      "▁بير": 3687,
      "▁الجما": 3688,
      "كُ": 3689,
      "شرين": 3690,
      "▁لر": 3691,
      "ائم": 3692,
      "جرة": 3693,
      "▁الطعام": 3694,
      "▁اللاعب": 3695,
      "▁المب": 3696,
      "قدر": 3697,
      "▁بالفعل": 3698,
      "▁مسؤول": 3699,
      "▁واس": 3700,
      "▁خل": 3701,
      "▁\n": 3702,
      "ice": 3703,
      "▁مواد": 3704,
      "▁جنيه": 3705,
      "▁الأمريكي": 3706,
      "ؤلاء": 3707,
      "▁والط": 3708,
      "▁فلسط": 3709,
      "▁طرق": 3710,
      "▁الرقم": 3711,
      "▁البرن": 3712,
      "▁حركة": 3713,
      "يرات": 3714,
      "▁جيدة": 3715,
      "▁الرئيسي": 3716,
      "▁الال": 3717,
      "▁K": 3718,
      "حسب": 3719,
      "ادية": 3720,
      "▁الثالث": 3721,
      "▁بالس": 3722,
      "▁الجميع": 3723,
      "ؤون": 3724,
      "بيعات": 3725,
      "▁More": 3726,
      "25": 3727,
      "جان": 3728,
      "زيع": 3729,
      "▁الدي": 3730,
      "عى": 3731,
      "▁البرنامج": 3732,
      "▁القلب": 3733,
      "bu": 3734,
      "▁المغرب": 3735,
      "▁موس": 3736,
      "▁باب": 3737,
      "▁دراسة": 3738,
      "وين": 3739,
      "قوم": 3740,
      "▁المنام": 3741,
      "ورا": 3742,
      "▁اللغة": 3743,
      "\".\n": 3744,
      "خال": 3745,
      "هيل": 3746,
      "▁يتعلق": 3747,
      "وام": 3748,
      "ْر": 3749,
      "▁دين": 3750,
      "خدمات": 3751,
      "▁مصدر": 3752,
      "▁فكية": 3753,
      "هلي": 3754,
      "▁وين": 3755,
      "▁المرحلة": 3756,
      "▁مباراة": 3757,
      "▁معرفة": 3758,
      "اية": 3759,
      "▁روسيا": 3760,
      "▁وسط": 3761,
      "▁Git": 3762,
      "شب": 3763,
      "َى": 3764,
      "ردشة": 3765,
      "ير،": 3766,
      "ادت": 3767,
      "▁مطاحن": 3768,
      "▁صحيح": 3769,
      "▁جهة": 3770,
      "▁الفن": 3771,
      "ديات": 3772,
      "سطة": 3773,
      "eb": 3774,
      "▁الخرسانة": 3775,
      "▁يعرف": 3776,
      "▁كي": 3777,
      "خبار": 3778,
      "▁شعب": 3779,
      "▁الكبير": 3780,
      "▁دقيقة": 3781,
      "▁غسل": 3782,
      "ind": 3783,
      "الج": 3784,
      "▁النفس": 3785,
      "وبات": 3786,
      "خرة": 3787,
      "▁مناط": 3788,
      "▁المتنقلة": 3789,
      "▁المصرية": 3790,
      "13": 3791,
      "▁الموضوع": 3792,
      "▁رفع": 3793,
      "▁الكل": 3794,
      "سيس": 3795,
      "▁محد": 3796,
      "▁عادة": 3797,
      "نيات": 3798,
      "▁أوروبا": 3799,
      "هم.": 3800,
      "طوانة": 3801,
      "▁العمر": 3802,
      "عليم": 3803,
      "▁إس": 3804,
      "▁الضغط": 3805,
      "واف": 3806,
      "▁جل": 3807,
      "▁التشغيل": 3808,
      "Hub": 3809,
      "▁تركيا": 3810,
      ".\nف": 3811,
      "ضان": 3812,
      "ve": 3813,
      "▁الكويت": 3814,
      "▁فا": 3815,
      "راعة": 3816,
      "يته": 3817,
      "▁اف": 3818,
      "▁السوري": 3819,
      "▁مناطق": 3820,
      "مح": 3821,
      "كسارات": 3822,
      "▁تض": 3823,
      "▁ملم": 3824,
      "▁مصانع": 3825,
      "▁المستقبل": 3826,
      "\nع": 3827,
      "reat": 3828,
      "▁إيج": 3829,
      "راحة": 3830,
      "▁الأرد": 3831,
      "▁اللجنة": 3832,
      "▁نتائج": 3833,
      "▁القص": 3834,
      "ريدة": 3835,
      "▁مرض": 3836,
      "▁موضوع": 3837,
      "▁جدًا": 3838,
      "و،": 3839,
      "▁طبيع": 3840,
      "▁وتش": 3841,
      "▁الخيارات": 3842,
      "▁مخروطية": 3843,
      "صلة": 3844,
      "▁تحسين": 3845,
      "▁التالي": 3846,
      "ْل": 3847,
      "24": 3848,
      "▁الإد": 3849,
      "باء": 3850,
      "▁الجلد": 3851,
      "▁الجانب": 3852,
      "▁الشاشة": 3853,
      "▁الطريق": 3854,
      "▁مدى": 3855,
      "li": 3856,
      "▁تعتبر": 3857,
      "▁مصادر": 3858,
      "صط": 3859,
      "غال": 3860,
      "ريس": 3861,
      "ار،": 3862,
      "▁إطلاق": 3863,
      "▁الهواء": 3864,
      "فن": 3865,
      "▁خلف": 3866,
      "شفى": 3867,
      "▁بسرعة": 3868,
      "▁أرض": 3869,
      "▁النبي": 3870,
      "▁فهم": 3871,
      "▁الأربع": 3872,
      "َال": 3873,
      "ضايا": 3874,
      "▁GitHub": 3875,
      "كانت": 3876,
      "ْن": 3877,
      "ندما": 3878,
      "”.": 3879,
      "▁القرآن": 3880,
      "▁فن": 3881,
      "جوم": 3882,
      "▁أط": 3883,
      "▁التعامل": 3884,
      "▁ac": 3885,
      "▁الخمي": 3886,
      "قصى": 3887,
      "▁صباح": 3888,
      "شاط": 3889,
      "▁شك": 3890,
      "ابية": 3891,
      "▁الجنوب": 3892,
      "ريت": 3893,
      "▁الطريقة": 3894,
      "▁إليها": 3895,
      "▁تنا": 3896,
      "▁خب": 3897,
      "▁الدعم": 3898,
      "▁Y": 3899,
      "▁يحتاج": 3900,
      "▁·": 3901,
      "▁ظهر": 3902,
      "ليه": 3903,
      "صرف": 3904,
      "▁والمت": 3905,
      "▁العض": 3906,
      "ة،": 3907,
      "▁اللازمة": 3908,
      "خير": 3909,
      "▁القاهرة": 3910,
      "▁بواسطة": 3911,
      "▁مالي": 3912,
      "▁إحدى": 3913,
      "راكز": 3914,
      "فاف": 3915,
      "▁v": 3916,
      "رين": 3917,
      "▁حصل": 3918,
      "فادة": 3919,
      "ريعة": 3920,
      "▁الجزء": 3921,
      "هادة": 3922,
      "تهاء": 3923,
      "اره": 3924,
      "▁قسم": 3925,
      ".\nول": 3926,
      "▁العلاقات": 3927,
      "▁الملف": 3928,
      "60": 3929,
      "قتل": 3930,
      "▁القرن": 3931,
      "طلبات": 3932,
      "▁للاست": 3933,
      "▁الدوري": 3934,
      "▁الإنج": 3935,
      "وش": 3936,
      "▁دليل": 3937,
      "▁الأفضل": 3938,
      "▁نصف": 3939,
      "▁منزل": 3940,
      "▁المحلية": 3941,
      "▁بدء": 3942,
      "▁كورونا": 3943,
      "▁سبب": 3944,
      "▁للب": 3945,
      "▁النمو": 3946,
      ".com": 3947,
      "لمان": 3948,
      "كتوبر": 3949,
      "▁التجارة": 3950,
      "▁حسن": 3951,
      "شركة": 3952,
      "▁السنة": 3953,
      "ّد": 3954,
      "▁تعرض": 3955,
      "▁اض": 3956,
      "م،": 3957,
      "▁رسول": 3958,
      "ha": 3959,
      "▁كلمة": 3960,
      "ناية": 3961,
      "\nمن": 3962,
      "▁إضاف": 3963,
      "▁البنك": 3964,
      "ساس": 3965,
      "ead": 3966,
      "ount": 3967,
      "▁الاقتصادية": 3968,
      "▁أرب": 3969,
      "ائن": 3970,
      "▁بنفس": 3971,
      "evel": 3972,
      "▁فمن": 3973,
      "رها": 3974,
      "وند": 3975,
      "كب": 3976,
      "▁إف": 3977,
      "▁ضغط": 3978,
      "▁يأتي": 3979,
      "▁2018": 3980,
      "ئاسة": 3981,
      "\nل": 3982,
      "▁J": 3983,
      "ang": 3984,
      "▁حلم": 3985,
      "ضير": 3986,
      "مم": 3987,
      "▁تعزيز": 3988,
      "سيطة": 3989,
      "ريل": 3990,
      "▁تفاصيل": 3991,
      "علقة": 3992,
      "▁#": 3993,
      "زع": 3994,
      "َس": 3995,
      "evelop": 3996,
      "جلة": 3997,
      "كانية": 3998,
      "▁اقت": 3999,
      "▁الشخصية": 4000,
      "▁تحدث": 4001,
      "٠٠": 4002,
      "▁مفت": 4003,
      "تيح": 4004,
      "تيب": 4005,
      "▁برو": 4006,
      "▁الوزن": 4007,
      "▁الجنس": 4008,
      "▁واسع": 4009,
      "▁البلا": 4010,
      "▁السلطة": 4011,
      "بيا": 4012,
      "ائح": 4013,
      "▁رجل": 4014,
      "يح": 4015,
      "▁المجال": 4016,
      "▁Ø§": 4017,
      "▁لهذه": 4018,
      "▁والغ": 4019,
      "▁الوضع": 4020,
      "»،": 4021,
      "1-": 4022,
      "▁وحتى": 4023,
      "▁أصبح": 4024,
      "سيوم": 4025,
      "▁+": 4026,
      "▁تحمل": 4027,
      "▁بث": 4028,
      "▁الوطن": 4029,
      "▁لذا": 4030,
      "راز": 4031,
      "▁الابت": 4032,
      "وتي": 4033,
      "▁22": 4034,
      "▁e": 4035,
      "ليقات": 4036,
      "▁١": 4037,
      "َهُ": 4038,
      "جاب": 4039,
      "▁الفق": 4040,
      "▁*": 4041,
      "▁500": 4042,
      "▁بهذا": 4043,
      "▁الصناعية": 4044,
      "▁لجنة": 4045,
      "لمات": 4046,
      "▁مارس": 4047,
      "▁الموجودة": 4048,
      "يريا": 4049,
      "▁أمن": 4050,
      "▁الأجن": 4051,
      "▁مهمة": 4052,
      "فيات": 4053,
      "▁بحث": 4054,
      "اني،": 4055,
      "▁تفسير": 4056,
      "▁الكبيرة": 4057,
      "خم": 4058,
      "▁الده": 4059,
      "▁عبارة": 4060,
      "أسعار": 4061,
      "قيقي": 4062,
      "▁للط": 4063,
      "▁الصورة": 4064,
      "ترنت": 4065,
      "حر": 4066,
      "ul": 4067,
      "▁الجام": 4068,
      "وسي": 4069,
      "▁العملات": 4070,
      "ُل": 4071,
      "▁المحجر": 4072,
      "▁المناسب": 4073,
      "▁روا": 4074,
      "▁لان": 4075,
      "▁ماكينة": 4076,
      "▁شعر": 4077,
      "▁للص": 4078,
      "ليك": 4079,
      "▁المقال": 4080,
      "▁وفقًا": 4081,
      "منع": 4082,
      "evelopment": 4083,
      "▁n": 4084,
      "▁ترا": 4085,
      "ّم": 4086,
      "طرة": 4087,
      "▁خطة": 4088,
      "▁الروسي": 4089,
      "▁كيل": 4090,
      "ق،": 4091,
      "▁سر": 4092,
      "▁بحيث": 4093,
      "▁يريد": 4094,
      "▁المقبل": 4095,
      "▁الإسرائيلي": 4096,
      "▁الممكن": 4097,
      "▁تجربة": 4098,
      "ساهم": 4099,
      "▁لعبة": 4100,
      "▁تز": 4101,
      "/ar": 4102,
      "طيط": 4103,
      "ها.\n": 4104,
      "عامل": 4105,
      "▁اللح": 4106,
      "▁الذات": 4107,
      "ثمر": 4108,
      "▁العاصمة": 4109,
      "”.\n": 4110,
      "▁قال:": 4111,
      "▁مشاكل": 4112,
      "▁طول": 4113,
      "▁أجهزة": 4114,
      "▁2019": 4115,
      "▁إي": 4116,
      "▁لجميع": 4117,
      "راقبة": 4118,
      "▁حص": 4119,
      "ديمقرا": 4120,
      "▁لتن": 4121,
      "منح": 4122,
      "▁الجد": 4123,
      "▁ويتم": 4124,
      "▁مجموع": 4125,
      "قرير": 4126,
      "▁إش": 4127,
      "ماذا": 4128,
      "▁الإدارة": 4129,
      "▁acc": 4130,
      "\nن": 4131,
      "▁الكريم": 4132,
      "▁أجزاء": 4133,
      "صاب": 4134,
      "▁الخلا": 4135,
      "▁المورد": 4136,
      "▁هيئة": 4137,
      "جع": 4138,
      "▁بعيد": 4139,
      "عملية": 4140,
      "▁حماية": 4141,
      "▁والتح": 4142,
      "▁نادي": 4143,
      "مكنك": 4144,
      "▁السيارة": 4145,
      "▁القدرة": 4146,
      "ut": 4147,
      "▁توجد": 4148,
      "بطة": 4149,
      "▁الثان": 4150,
      "▁الهيئة": 4151,
      "▁الطحن": 4152,
      "▁بالط": 4153,
      "▁امت": 4154,
      "▁جما": 4155,
      "اعد": 4156,
      "▁هدف": 4157,
      "▁مكتب": 4158,
      "ُوا": 4159,
      "▁الشمس": 4160,
      "▁الدخول": 4161,
      "▁الزيت": 4162,
      "َّة": 4163,
      "ribu": 4164,
      "يتها": 4165,
      "▁المواطنين": 4166,
      "▁هؤلاء": 4167,
      "▁خلا": 4168,
      "▁كاملة": 4169,
      "نيف": 4170,
      ".5": 4171,
      "ذور": 4172,
      "▁فقال": 4173,
      "شاركة": 4174,
      "صالات": 4175,
      "▁اليد": 4176,
      "▁البيت": 4177,
      "▁ظهور": 4178,
      "هرة": 4179,
      "أي": 4180,
      "▁سوريا": 4181,
      "نيا": 4182,
      "وقات": 4183,
      "▁وصف": 4184,
      "▁اند": 4185,
      "راح": 4186,
      "ظل": 4187,
      "▁السبت": 4188,
      "لبة": 4189,
      "صميم": 4190,
      "▁الجرانيت": 4191,
      "▁فرصة": 4192,
      "▁الحالات": 4193,
      "▁أمس": 4194,
      "▁المدني": 4195,
      "▁مشكلة": 4196,
      "بادل": 4197,
      "فيد": 4198,
      "رر": 4199,
      "▁الحكم": 4200,
      "▁المدير": 4201,
      "ht": 4202,
      "▁بهذه": 4203,
      "ايل": 4204,
      "▁الرك": 4205,
      "ناف": 4206,
      "سعر": 4207,
      "▁مهم": 4208,
      "واجه": 4209,
      "▁السابقة": 4210,
      "▁شمال": 4211,
      "▁السيلي": 4212,
      "▁الرسمي": 4213,
      "▁تجهيز": 4214,
      "▁رغم": 4215,
      "▁creat": 4216,
      "سون": 4217,
      "قطاع": 4218,
      "▁التحكم": 4219,
      "▁رد": 4220,
      "▁أداء": 4221,
      "▁سابق": 4222,
      "باس": 4223,
      ",ال": 4224,
      "▁شهد": 4225,
      "▁درا": 4226,
      "▁تظهر": 4227,
      "▁الناقل": 4228,
      "▁غرب": 4229,
      "▁الإن": 4230,
      "امية": 4231,
      "▁المكان": 4232,
      "▁الكر": 4233,
      "ation": 4234,
      "▁بالد": 4235,
      "ra": 4236,
      "▁account": 4237,
      "▁كأس": 4238,
      "▁يتح": 4239,
      "ستاذ": 4240,
      "سيم": 4241,
      "▁يبدو": 4242,
      "ribute": 4243,
      "▁development": 4244,
      "ّه": 4245,
      "all": 4246,
      "ناد": 4247,
      "فترة": 4248,
      "!!": 4249,
      "▁البار": 4250,
      "▁اش": 4251,
      "يص": 4252,
      "▁مرحلة": 4253,
      "▁بتح": 4254,
      "لاحظ": 4255,
      "▁احصل": 4256,
      "ثناء": 4257,
      "سيت": 4258,
      "▁وست": 4259,
      "▁الأقل": 4260,
      "▁بطريقة": 4261,
      "▁ماكينات": 4262,
      "▁عليهم": 4263,
      "▁الدقيقة": 4264,
      "▁مخط": 4265,
      "باع": 4266,
      "▁القوات": 4267,
      "▁الدع": 4268,
      "سيا": 4269,
      "عاد": 4270,
      "نائي": 4271,
      "▁199": 4272,
      "ontribute": 4273,
      "▁سجل": 4274,
      "قبال": 4275,
      "▁>": 4276,
      "80": 4277,
      "هه": 4278,
      "nd": 4279,
      "▁صنا": 4280,
      "▁اللَّ": 4281,
      "▁النس": 4282,
      "نا،": 4283,
      "▁مادة": 4284,
      "▁الاستثمار": 4285,
      "قدير": 4286,
      "▁creating": 4287,
      "▁الثقيلة": 4288,
      "جمالي": 4289,
      "▁يوفر": 4290,
      "▁المستوى": 4291,
      "لامات": 4292,
      "ب،": 4293,
      "▁بأنه": 4294,
      "▁60": 4295,
      "نوان": 4296,
      "▁كانوا": 4297,
      "▁بسهولة": 4298,
      "ew": 4299,
      "▁كس": 4300,
      "▁الأز": 4301,
      "▁الأجهزة": 4302,
      "hat": 4303,
      "▁ممكن": 4304,
      "زيا": 4305,
      "▁والتن": 4306,
      "ذن": 4307,
      "▁منصة": 4308,
      "▁ثق": 4309,
      "40": 4310,
      "▁وعدم": 4311,
      "بغي": 4312,
      "▁خيار": 4313,
      "▁بهدف": 4314,
      "▁محافظة": 4315,
      "طية": 4316,
      "نائ": 4317,
      "▁الانترنت": 4318,
      "▁قض": 4319,
      "▁محجر": 4320,
      "▁الإير": 4321,
      "يون": 4322,
      "داة": 4323,
      "▁تركيب": 4324,
      "▁ألمانيا": 4325,
      "and": 4326,
      "حين": 4327,
      "▁:\n": 4328,
      "▁لض": 4329,
      "▁كار": 4330,
      "تش": 4331,
      "يميا": 4332,
      "ادث": 4333,
      "برى": 4334,
      "ter": 4335,
      "▁صوت": 4336,
      "درجة": 4337,
      "▁أهداف": 4338,
      "▁عز": 4339,
      "▁الدور": 4340,
      "ميلة": 4341,
      "هناك": 4342,
      "اخلي": 4343,
      "▁الإجراءات": 4344,
      "▁المركزي": 4345,
      "▁الأمور": 4346,
      "▁الطلاب": 4347,
      "ظاهر": 4348,
      "ناق": 4349,
      "▁قناة": 4350,
      "▁مباشر": 4351,
      "خلا": 4352,
      "▁الجامعة": 4353,
      "▁أكتوبر": 4354,
      "▁النقل": 4355,
      "▁اشت": 4356,
      "▁الفني": 4357,
      "▁بالل": 4358,
      "▁فصل": 4359,
      "▁إعداد": 4360,
      "▁فإنه": 4361,
      "هلك": 4362,
      "ويم": 4363,
      "▁النار": 4364,
      "شارك": 4365,
      "em": 4366,
      "▁ريم": 4367,
      "جين": 4368,
      "▁الكمبيوتر": 4369,
      "▁الاستخدام": 4370,
      "ياد": 4371,
      "▁اج": 4372,
      "▁قلب": 4373,
      "4.": 4374,
      "▁حكم": 4375,
      "▁رمضان": 4376,
      "▁الأوروبي": 4377,
      "▁بلد": 4378,
      "▁نموذج": 4379,
      "▁السف": 4380,
      "▁الرق": 4381,
      "▁بيانات": 4382,
      "▁بور": 4383,
      "▁2017": 4384,
      "براهيم": 4385,
      "جاوز": 4386,
      "وخ": 4387,
      "قرر": 4388,
      "▁الحجم": 4389,
      "▁الحفاظ": 4390,
      "▁250": 4391,
      "ثي": 4392,
      "▁الحيوان": 4393,
      "2-": 4394,
      "os": 4395,
      "وافق": 4396,
      "ارتز": 4397,
      "one": 4398,
      "شرف": 4399,
      "▁حالات": 4400,
      "▁القراءة": 4401,
      "▁الأب": 4402,
      "▁صد": 4403,
      "▁وبال": 4404,
      "▁القرار": 4405,
      "▁الجبس": 4406,
      "ill": 4407,
      "▁المهم": 4408,
      "▁لله": 4409,
      "هلة": 4410,
      "أكد": 4411,
      "▁عص": 4412,
      "ولد": 4413,
      "▁الفع": 4414,
      "▁حزب": 4415,
      "▁القديمة": 4416,
      "▁الإسلامية": 4417,
      "▁الخض": 4418,
      "حتاج": 4419,
      "▁بان": 4420,
      "▁آل": 4421,
      "▁وصول": 4422,
      "rusher": 4423,
      "▁فيديو": 4424,
      "▁تدفق": 4425,
      "▁وبين": 4426,
      "ضيف": 4427,
      "▁المقب": 4428,
      ".\nع": 4429,
      "▁الحديثة": 4430,
      "▁المطل": 4431,
      "▁أحدث": 4432,
      "ته،": 4433,
      "▁الطبية": 4434,
      "▁400": 4435,
      "▁أَ": 4436,
      "▁رفض": 4437,
      "▁23": 4438,
      "▁y": 4439,
      "▁{": 4440,
      "▁سين": 4441,
      "ندي": 4442,
      "▁شرك": 4443,
      "▁التفاصيل": 4444,
      "▁الحركة": 4445,
      "▁العرض": 4446,
      "▁بدأ": 4447,
      "هذه": 4448,
      "▁اللون": 4449,
      "▁بالش": 4450,
      "▁معه": 4451,
      "▁مشت": 4452,
      "امت": 4453,
      "▁الحصى": 4454,
      "▁تجاه": 4455,
      "▁الصوت": 4456,
      "▁مسب": 4457,
      "ِين": 4458,
      "▁معينة": 4459,
      "زر": 4460,
      "▁والمع": 4461,
      "▁الطبيعية": 4462,
      "▁تقل": 4463,
      "طبيق": 4464,
      "اليات": 4465,
      "▁الأحمر": 4466,
      "▁مستعملة": 4467,
      "rice": 4468,
      "▁مقارنة": 4469,
      "▁السم": 4470,
      "ديا": 4471,
      "▁المسي": 4472,
      "كاليف": 4473,
      "▁لتحقيق": 4474,
      "▁المقا": 4475,
      "▁المفت": 4476,
      "▁جمع": 4477,
      "▁بقي": 4478,
      "▁رسالة": 4479,
      "▁المبا": 4480,
      "ww": 4481,
      "ّن": 4482,
      "▁300": 4483,
      "▁يزيد": 4484,
      "▁صيانة": 4485,
      "▁الكو": 4486,
      "▁افت": 4487,
      "▁لديه": 4488,
      "ظار": 4489,
      "ناه": 4490,
      "▁الأمم": 4491,
      "▁مناسبة": 4492,
      "▁\"أ": 4493,
      "▁مكت": 4494,
      "▁الأبيض": 4495,
      "▁تعليق": 4496,
      "▁بخ": 4497,
      "▁اللعبة": 4498,
      "عزيز": 4499,
      "ولى": 4500,
      "▁الغاز": 4501,
      "ُم": 4502,
      "▁ابت": 4503,
      "▁الأسطوانة": 4504,
      "سلوب": 4505,
      "▁عيد": 4506,
      "▁دائمًا": 4507,
      "▁بدأت": 4508,
      "▁المي": 4509,
      "خدمة": 4510,
      "لول": 4511,
      "▁الإف": 4512,
      "ري،": 4513,
      "ويق": 4514,
      "▁ساعات": 4515,
      "▁برامج": 4516,
      "بعاد": 4517,
      "▁المجموعة": 4518,
      "هوة": 4519,
      "زيارة": 4520,
      "▁إيران": 4521,
      "▁العسكرية": 4522,
      "▁العثور": 4523,
      "▁متنوعة": 4524,
      "▁المباراة": 4525,
      "▁وكانت": 4526,
      "قة،": 4527,
      "▁التم": 4528,
      "▁اتفاق": 4529,
      "▁الار": 4530,
      "شير": 4531,
      "▁الوزارة": 4532,
      "▁الجمعة": 4533,
      "▁القوة": 4534,
      "▁أبرز": 4535,
      "قائق": 4536,
      "ساعدة": 4537,
      "▁أصحاب": 4538,
      "▁اع": 4539,
      "▁لديها": 4540,
      "ميات": 4541,
      "▁الدورة": 4542,
      "▁المحلي": 4543,
      "▁٢": 4544,
      "▁الري": 4545,
      "▁سعيد": 4546,
      "▁الأغ": 4547,
      "▁الاقتصادي": 4548,
      ".\nن": 4549,
      "▁متعددة": 4550,
      "خطط": 4551,
      "شق": 4552,
      "▁إزالة": 4553,
      "▁حدوث": 4554,
      "▁العين": 4555,
      "▁التقلي": 4556,
      "راقي": 4557,
      "▁للر": 4558,
      "يمان": 4559,
      "▁الرم": 4560,
      "▁أكد": 4561,
      "▁لون": 4562,
      "▁منخفض": 4563,
      "▁واسعة": 4564,
      "▁تعلم": 4565,
      "صيل": 4566,
      "مة،": 4567,
      "ميزات": 4568,
      "كذا": 4569,
      "▁عَل": 4570,
      "▁التكنولوجيا": 4571,
      "▁ستكون": 4572,
      "tp": 4573,
      "▁الموظف": 4574,
      "▁ملا": 4575,
      "▁سطح": 4576,
      "▁النت": 4577,
      "▁نوف": 4578,
      "▁غرفة": 4579,
      "ونَ": 4580,
      "▁امر": 4581,
      "▁حب": 4582,
      "um": 4583,
      "▁ملك": 4584,
      "▁يغ": 4585,
      "تمبر": 4586,
      "اما": 4587,
      "غبة": 4588,
      "▁«ال": 4589,
      "ــــــــ": 4590,
      "تاح": 4591,
      "▁تتح": 4592,
      "ليس": 4593,
      "▁مبار": 4594,
      "▁كوب": 4595,
      "▁26": 4596,
      "▁الجل": 4597,
      "▁الحلم": 4598,
      "▁كتب": 4599,
      "▁المعدنية": 4600,
      "▁بالج": 4601,
      "لالة": 4602,
      "▁رؤ": 4603,
      "qu": 4604,
      "▁الأق": 4605,
      "▁العص": 4606,
      "▁بني": 4607,
      "ec": 4608,
      ",م": 4609,
      "ach": 4610,
      "زايا": 4611,
      "▁موقف": 4612,
      "▁نفسها": 4613,
      "▁الإصابة": 4614,
      "▁ألا": 4615,
      "\nكسارة": 4616,
      "▁منع": 4617,
      "__": 4618,
      "كور": 4619,
      "ونيس": 4620,
      "اقرأ": 4621,
      "▁الأوسط": 4622,
      "▁بالكامل": 4623,
      "▁الطبيب": 4624,
      "▁حز": 4625,
      "وسة": 4626,
      "▁الكهربائية": 4627,
      "▁الدراسة": 4628,
      "▁الطبيعي": 4629,
      "بادرة": 4630,
      "وثوق": 4631,
      "▁سوى": 4632,
      "امن": 4633,
      "مني": 4634,
      "▁التغ": 4635,
      "\nح": 4636,
      ".\nوأكد": 4637,
      "▁السبب": 4638,
      "▁سيد": 4639,
      "صطنا": 4640,
      "البًا": 4641,
      "▁قوية": 4642,
      "▁الفنية": 4643,
      "وانين": 4644,
      "▁فور": 4645,
      "▁أخذ": 4646,
      "منطقة": 4647,
      "▁زيارة": 4648,
      "ers": 4649,
      "▁تعليم": 4650,
      "ارق": 4651,
      "▁مساحة": 4652,
      "فو": 4653,
      "ستراليا": 4654,
      "▁تكن": 4655,
      "▁القض": 4656,
      "روح": 4657,
      "▁أنك": 4658,
      "هو": 4659,
      "▁حمل": 4660,
      "▁الكال": 4661,
      "سمبر": 4662,
      "▁تشكيل": 4663,
      "شط": 4664,
      "▁الأهلي": 4665,
      "▁المتعلقة": 4666,
      "▁حكومة": 4667,
      "▁خيارات": 4668,
      "▁إع": 4669,
      "▁موعد": 4670,
      "▁وكيف": 4671,
      "200": 4672,
      "▁النوم": 4673,
      "▁دخل": 4674,
      "▁موج": 4675,
      "▁27": 4676,
      "▁توق": 4677,
      "▁الفصل": 4678,
      "شاب": 4679,
      "▁مار": 4680,
      "▁الصناعة": 4681,
      "▁لإن": 4682,
      "فرة": 4683,
      "▁مرات": 4684,
      "▁السودان": 4685,
      "ail": 4686,
      "▁فيلم": 4687,
      "دخل": 4688,
      "▁الحال": 4689,
      "▁.\nال": 4690,
      "▁يأ": 4691,
      "حدد": 4692,
      "▁الغذائية": 4693,
      "ائزة": 4694,
      "▁وير": 4695,
      "▁وهم": 4696,
      "▁المعا": 4697,
      "صدق": 4698,
      "فعة": 4699,
      "بنى": 4700,
      "▁تحويل": 4701,
      "▁يناير": 4702,
      "▁المناسبة": 4703,
      "ربونات": 4704,
      "▁العامل": 4705,
      "هلاك": 4706,
      "فقات": 4707,
      "▁إح": 4708,
      "▁الشه": 4709,
      "▁المشاركة": 4710,
      "▁أعضاء": 4711,
      "؛\n-": 4712,
      "▁ربما": 4713,
      "غلاق": 4714,
      "▁لغ": 4715,
      "ريحة": 4716,
      "▁21": 4717,
      "مبر": 4718,
      "▁المسا": 4719,
      "▁صحة": 4720,
      "افر": 4721,
      "كمل": 4722,
      "ارتفاع": 4723,
      "▁عامة": 4724,
      "▁الفلسطينية": 4725,
      "▁الموسم": 4726,
      "//": 4727,
      "▁بحسب": 4728,
      "كيفية": 4729,
      "صين": 4730,
      "طحنة": 4731,
      "▁يزال": 4732,
      "شروع": 4733,
      "▁التابعة": 4734,
      "وصيل": 4735,
      "▁سيارة": 4736,
      "▁الساد": 4737,
      "▁الشرطة": 4738,
      "▁is": 4739,
      "▁ذهب": 4740,
      "فقة": 4741,
      "▁دخول": 4742,
      "سي،": 4743,
      "دي،": 4744,
      "وسف": 4745,
      "مام": 4746,
      "▁منظمة": 4747,
      "قلة": 4748,
      "ستي": 4749,
      "وزارة": 4750,
      "ساطة": 4751,
      "\nف": 4752,
      "▁الأيام": 4753,
      "هب": 4754,
      "▁كلا": 4755,
      "بحت": 4756,
      "ارف": 4757,
      "هوم": 4758,
      "▁لوحة": 4759,
      "احث": 4760,
      "لقى": 4761,
      "بض": 4762,
      "▁الآلات": 4763,
      "▁تبدأ": 4764,
      "99": 4765,
      "نتي": 4766,
      "حقوق": 4767,
      "▁السلطات": 4768,
      "▁افضل": 4769,
      "▁يقل": 4770,
      "▁نز": 4771,
      "\nب": 4772,
      "▁لأنها": 4773,
      "وليو": 4774,
      "▁نجاح": 4775,
      "فاوض": 4776,
      "▁تشمل": 4777,
      "▁السكر": 4778,
      "▁متح": 4779,
      "فكير": 4780,
      "▁الموردين": 4781,
      "▁التنمية": 4782,
      "▁الياب": 4783,
      "▁التعب": 4784,
      "ماكن": 4785,
      "وسطة": 4786,
      "▁i": 4787,
      "▁نائب": 4788,
      "22": 4789,
      "▁مواجهة": 4790,
      "▁الإنجلي": 4791,
      "▁الخيار": 4792,
      "▁السر": 4793,
      "▁كمية": 4794,
      "▁للمر": 4795,
      "كمال": 4796,
      "▁الأحيان": 4797,
      "راث": 4798,
      "▁رمل": 4799,
      "ورو": 4800,
      "شهد": 4801,
      "▁الأخير": 4802,
      "ak": 4803,
      "▁الأشياء": 4804,
      "▁دا": 4805,
      "▁2.": 4806,
      "▁اللقاء": 4807,
      ".\nإ": 4808,
      "▁ينبغي": 4809,
      "5.": 4810,
      "▁مناف": 4811,
      "▁pro": 4812,
      "▁الحب": 4813,
      "▁مستويات": 4814,
      "▁المؤسسات": 4815,
      "مسة": 4816,
      "▁وإذا": 4817,
      "▁الصلب": 4818,
      "ارير": 4819,
      "▁ذا": 4820,
      "▁الساخ": 4821,
      "▁الدفع": 4822,
      "ويض": 4823,
      "▁الماضي،": 4824,
      "▁أنهم": 4825,
      "▁الجاري": 4826,
      "▁اتخاذ": 4827,
      "▁ضرورة": 4828,
      "▁البرو": 4829,
      "▁أسبوع": 4830,
      "رار": 4831,
      "▁عناصر": 4832,
      "▁الروسية": 4833,
      "▁كرة": 4834,
      "▁القائمة": 4835,
      "▁التربية": 4836,
      "بدال": 4837,
      "يدرولي": 4838,
      "▁نشاط": 4839,
      "▁معدل": 4840,
      "▁الزوج": 4841,
      "▁فرص": 4842,
      "▁لز": 4843,
      "▁المقد": 4844,
      "بعة": 4845,
      "ce": 4846,
      "▁يسمح": 4847,
      "▁قامت": 4848,
      "▁أصبحت": 4849,
      "بارات": 4850,
      "وجب": 4851,
      "اربة": 4852,
      "اعي": 4853,
      "▁الضروري": 4854,
      "▁الخميس": 4855,
      "▁انخفاض": 4856,
      "▁المحكمة": 4857,
      "▁شاشة": 4858,
      "واز": 4859,
      "▁المعت": 4860,
      "رقام": 4861,
      "▁الحدود": 4862,
      "▁الأموال": 4863,
      "▁العالم،": 4864,
      "▁البيئة": 4865,
      "▁قراءة": 4866,
      "آخر": 4867,
      "خصوص": 4868,
      "▁كثيرة": 4869,
      "▁التصميم": 4870,
      "تامين": 4871,
      "▁الإلكترونية": 4872,
      "ين.\n": 4873,
      "وعية": 4874,
      "باق": 4875,
      "▁الحزام": 4876,
      "▁مناسب": 4877,
      "▁القيا": 4878,
      "فال": 4879,
      "▁بتن": 4880,
      "▁تجعل": 4881,
      "كري": 4882,
      "يروس": 4883,
      "▁أبد": 4884,
      "▁الأمراض": 4885,
      "صات": 4886,
      "▁صفحة": 4887,
      "▁التكسير": 4888,
      "▁السيليكا": 4889,
      "▁للك": 4890,
      "▁وتق": 4891,
      "وية،": 4892,
      "▁تمامًا": 4893,
      "▁قاعدة": 4894,
      "▁بنك": 4895,
      "▁الاجتماع": 4896,
      "ليمي": 4897,
      "▁كهرب": 4898,
      "▁الحساب": 4899,
      "▁بلاد": 4900,
      "▁للتح": 4901,
      "أكيد": 4902,
      "▁الاتفاق": 4903,
      "▁الممت": 4904,
      "▁أعلنت": 4905,
      "▁يرت": 4906,
      "▁28": 4907,
      "▁أساسي": 4908,
      "▁يَ": 4909,
      "ِهِ": 4910,
      "Read": 4911,
      "ه:": 4912,
      "▁يونيو": 4913,
      "▁علامة": 4914,
      "▁البشرة": 4915,
      "▁الباب": 4916,
      "▁فِي": 4917,
      "▁الصلاة": 4918,
      "▁المنش": 4919,
      "زز": 4920,
      "وميت": 4921,
      "ِر": 4922,
      "▁العمليات": 4923,
      "▁أسباب": 4924,
      "ذل": 4925,
      "بطال": 4926,
      "ندس": 4927,
      "▁لكي": 4928,
      "▁برا": 4929,
      "▁الأسهم": 4930,
      "اا": 4931,
      "قاطع": 4932,
      "▁مكافحة": 4933,
      "▁عين": 4934,
      "▁الأعلى": 4935,
      "▁تقريب": 4936,
      "▁السفر": 4937,
      "جنب": 4938,
      "▁علاقة": 4939,
      "▁التو": 4940,
      "▁شأن": 4941,
      "▁لاب": 4942,
      "بي،": 4943,
      "اسم": 4944,
      "▁عمان": 4945,
      "▁استخراج": 4946,
      "▁منح": 4947,
      "▁السنوات": 4948,
      "قيام": 4949,
      "▁مقا": 4950,
      "▁القيادة": 4951,
      "التزام": 4952,
      "▁خلالها": 4953,
      "راجعة": 4954,
      "▁حرارة": 4955,
      "▁الصانع": 4956,
      "▁خصوص": 4957,
      "▁تمكن": 4958,
      "▁150": 4959,
      "▁الروايات": 4960,
      "▁نقاط": 4961,
      "▁الكوارتز": 4962,
      "▁الأج": 4963,
      "▁وكالة": 4964,
      "▁قل": 4965,
      "▁مؤسسة": 4966,
      "▁الخليج": 4967,
      "▁كام": 4968,
      "▁وتج": 4969,
      "▁لأي": 4970,
      "▁والل": 4971,
      "Ø§": 4972,
      "▁ممارسة": 4973,
      "▁لديهم": 4974,
      "▁البريط": 4975,
      "ريحات": 4976,
      "://": 4977,
      "ندق": 4978,
      "ويس": 4979,
      ".\nما": 4980,
      "نوات": 4981,
      "▁فهذا": 4982,
      "▁وخاصة": 4983,
      "ديقة": 4984,
      "▁للعمل": 4985,
      "همية": 4986,
      "▁لكرة": 4987,
      "▁سبتمبر": 4988,
      "ap": 4989,
      "ي.": 4990,
      "تا": 4991,
      "▁ديسمبر": 4992,
      "▁يمت": 4993,
      "▁الاصطنا": 4994,
      "▁المحا": 4995,
      "▁النتائج": 4996,
      "▁حاجة": 4997,
      "Contribute": 4998,
      "oc": 4999,
      "منتجات": 5000,
      "▁والز": 5001,
      "▁(ي": 5002,
      "\nإ": 5003,
      "باه": 5004,
      "▁حقيقة": 5005,
      "عدد": 5006,
      "▁صالح": 5007,
      "▁صلاح": 5008,
      "▁المصدر": 5009,
      "▁شرق": 5010,
      "▁فحص": 5011,
      "▁قطعة": 5012,
      "▁العليا": 5013,
      "▁ومست": 5014,
      "ـــ": 5015,
      "▁دوري": 5016,
      "ن،": 5017,
      "ضل": 5018,
      "يير": 5019,
      "طال": 5020,
      "▁تسبب": 5021,
      "▁أدوات": 5022,
      "رافي": 5023,
      "▁البدا": 5024,
      "▁المشكلة": 5025,
      "▁اختبار": 5026,
      "▁الفنان": 5027,
      "اتهم": 5028,
      "امر": 5029,
      "ov": 5030,
      "▁الخل": 5031,
      "قًا": 5032,
      "▁إجراءات": 5033,
      "▁البال": 5034,
      "▁ماليزيا": 5035,
      "واة": 5036,
      "▁في,": 5037,
      "▁يبلغ": 5038,
      "▁الفرق": 5039,
      "▁الثالثة": 5040,
      "▁العسكري": 5041,
      "▁جو": 5042,
      "▁حرب": 5043,
      "▁أمير": 5044,
      "براير": 5045,
      "ube": 5046,
      "▁حدود": 5047,
      "▁اغ": 5048,
      "▁عش": 5049,
      "▁المطلوبة": 5050,
      "▁الحاجة": 5051,
      "▁الديمقرا": 5052,
      "23": 5053,
      "▁نقدم": 5054,
      "▁العناصر": 5055,
      "غرة": 5056,
      "▁جان": 5057,
      ".\nح": 5058,
      "ئين": 5059,
      "▁ومح": 5060,
      "▁يستطيع": 5061,
      "يبة": 5062,
      "▁بحاجة": 5063,
      "ثيل": 5064,
      "▁ثابت": 5065,
      "▁محاولة": 5066,
      "▁الضوء": 5067,
      "آلات": 5068,
      "يره": 5069,
      "▁ولد": 5070,
      "▁فَ": 5071,
      "رجع": 5072,
      "رص": 5073,
      "▁الجمهورية": 5074,
      "ساد": 5075,
      "▁الوجه": 5076,
      "-0": 5077,
      "▁غض": 5078,
      "▁الهدف": 5079,
      "▁قائ": 5080,
      "اوية": 5081,
      "▁مجرد": 5082,
      "▁فلسطين": 5083,
      "▁إصدار": 5084,
      "▁المدرسة": 5085,
      "▁خالد": 5086,
      "اعتبار": 5087,
      "▁كر": 5088,
      "خلق": 5089,
      "▁الفرد": 5090,
      "حداث": 5091,
      "▁وتس": 5092,
      "▁لفترة": 5093,
      "واك": 5094,
      "26": 5095,
      "▁المهنية": 5096,
      "ولين": 5097,
      "▁إست": 5098,
      "▁0.": 5099,
      "▁رياض": 5100,
      "▁المنتخب": 5101,
      "▁يظهر": 5102,
      "ور،": 5103,
      "غطية": 5104,
      "فيفة": 5105,
      "▁المسلمين": 5106,
      "عيم": 5107,
      "▁̈": 5108,
      "▁بشر": 5109,
      "▁القضاء": 5110,
      "▁وظائف": 5111,
      "▁لكنه": 5112,
      "▁النقد": 5113,
      "ip": 5114,
      "▁آلاف": 5115,
      "▁النات": 5116,
      "est": 5117,
      "▁\"م": 5118,
      "▁انتشار": 5119,
      "▁ترت": 5120,
      "▁(م": 5121,
      "▁عنوان": 5122,
      "ذف": 5123,
      "▁الجي": 5124,
      "▁سيارات": 5125,
      "▁وفا": 5126,
      "▁التسجيل": 5127,
      "قلت": 5128,
      "▁قالت": 5129,
      "▁Ù": 5130,
      "▁انتاج": 5131,
      "كيد": 5132,
      "طيب": 5133,
      "▁وأم": 5134,
      "▁جهود": 5135,
      "▁لأول": 5136,
      "▁محتوى": 5137,
      "od": 5138,
      "▁الطرف": 5139,
      "رائم": 5140,
      "▁الرجال": 5141,
      "▁مال": 5142,
      "ويتر": 5143,
      "جلي": 5144,
      "▁سليم": 5145,
      "▁احتياجات": 5146,
      "▁تدري": 5147,
      "آت": 5148,
      "▁اجتماع": 5149,
      "▁فكرة": 5150,
      "▁الحوث": 5151,
      "احات": 5152,
      "▁العالي": 5153,
      "لفزي": 5154,
      "▁المؤسسة": 5155,
      "2023": 5156,
      "شفت": 5157,
      "▁وراء": 5158,
      "▁طالب": 5159,
      "ينغ": 5160,
      "▁التجار": 5161,
      "▁بطاقة": 5162,
      "▁دار": 5163,
      "▁وأي": 5164,
      "صيد": 5165,
      "▁الاد": 5166,
      "رهاب": 5167,
      "▁البريد": 5168,
      "▁نوفمبر": 5169,
      "▁الرسمية": 5170,
      "▁شه": 5171,
      "▁الرياضية": 5172,
      "▁بالب": 5173,
      "وها": 5174,
      "▁الأسود": 5175,
      "▁اد": 5176,
      "▁“أ": 5177,
      "▁الألعاب": 5178,
      "▁ويس": 5179,
      "حافظة": 5180,
      "▁رائعة": 5181,
      "احت": 5182,
      "▁تأتي": 5183,
      "▁ثانية": 5184,
      "27": 5185,
      "ظمات": 5186,
      "▁روب": 5187,
      "َف": 5188,
      "▁البرامج": 5189,
      "▁صع": 5190,
      "ونه": 5191,
      "ناسبة": 5192,
      "▁غسيل": 5193,
      "ِينَ": 5194,
      "▁الميز": 5195,
      "▁2024": 5196,
      "▁خلي": 5197,
      "▁المالي": 5198,
      "▁ماذا": 5199,
      "▁اعتبار": 5200,
      "ُر": 5201,
      "فكار": 5202,
      "وائل": 5203,
      "▁الرخام": 5204,
      "▁خطر": 5205,
      "▁2014": 5206,
      "ادم": 5207,
      "▁خطوط": 5208,
      "نز": 5209,
      "▁الوسط": 5210,
      "ئك": 5211,
      "ويب": 5212,
      "▁الكهرباء": 5213,
      "ون.": 5214,
      "افع": 5215,
      "▁الثلاثاء": 5216,
      "▁مسلسل": 5217,
      "▁الأساسي": 5218,
      "▁.\n-": 5219,
      "ُونَ": 5220,
      "شح": 5221,
      "▁ورد": 5222,
      "▁درجات": 5223,
      "▁تجد": 5224,
      "▁مِنْ": 5225,
      "ort": 5226,
      "▁الظروف": 5227,
      "▁مخطط": 5228,
      "▁المطاحن": 5229,
      "▁الصفحة": 5230,
      "▁؛\n-": 5231,
      "اوز": 5232,
      "▁قتل": 5233,
      "▁العراقي": 5234,
      "▁يصبح": 5235,
      "▁الغربية": 5236,
      "علانات": 5237,
      "▁القول": 5238,
      "▁كشف": 5239,
      ".\nوا": 5240,
      "▁المهمة": 5241,
      "ورت": 5242,
      "▁.\nو": 5243,
      "▁العلمي": 5244,
      "▁تهتز": 5245,
      "▁وفقا": 5246,
      "نوع": 5247,
      "ولية": 5248,
      "▁محافظ": 5249,
      "▁النز": 5250,
      "▁محمود": 5251,
      "جح": 5252,
      "▁مايو": 5253,
      "شمس": 5254,
      "▁بأي": 5255,
      "▁مقال": 5256,
      "▁أخرى،": 5257,
      "▁بطولة": 5258,
      "فز": 5259,
      "▁تعريف": 5260,
      "▁مجانية": 5261,
      "\nالت": 5262,
      "▁الإيج": 5263,
      "▁اليوم،": 5264,
      "مرة": 5265,
      "bab": 5266,
      "▁فرض": 5267,
      "▁صحيفة": 5268,
      "▁البيع": 5269,
      "▁عضو": 5270,
      "res": 5271,
      "▁for": 5272,
      "▁جسم": 5273,
      "ائه": 5274,
      "▁الخير": 5275,
      ".\nإذا": 5276,
      "▁معت": 5277,
      "▁...\nال": 5278,
      "صرية": 5279,
      "▁شبه": 5280,
      "▁المشاكل": 5281,
      "ذين": 5282,
      "▁الزرا": 5283,
      "▁الوف": 5284,
      "▁العقل": 5285,
      ".\nومن": 5286,
      "▁طف": 5287,
      "▁الحكومية": 5288,
      "▁المبار": 5289,
      "▁مؤشر": 5290,
      "▁النباتات": 5291,
      "▁التب": 5292,
      "▁1000": 5293,
      "▁You": 5294,
      "▁حلول": 5295,
      "▁الرأس": 5296,
      "▁يبدأ": 5297,
      "ناع": 5298,
      "يلم": 5299,
      "طلع": 5300,
      "▁لاعب": 5301,
      "45": 5302,
      "طلاع": 5303,
      "غاء": 5304,
      "▁النهائي": 5305,
      "▁X": 5306,
      "وليد": 5307,
      "▁مدار": 5308,
      "▁لماذا": 5309,
      "وي،": 5310,
      "ام،": 5311,
      "▁خير": 5312,
      "رويج": 5313,
      "▁الملابس": 5314,
      "▁الاتجاه": 5315,
      "▁لتج": 5316,
      "▁الدست": 5317,
      "▁علينا": 5318,
      "▁فوائد": 5319,
      "▁المقاومة": 5320,
      "▁أعلن": 5321,
      "ونغ": 5322,
      "??": 5323,
      "▁الانتخابات": 5324,
      "راوح": 5325,
      "▁أخبار": 5326,
      "▁يحمل": 5327,
      "▁2013": 5328,
      "▁وهذه": 5329,
      "▁هاتف": 5330,
      ".\nب": 5331,
      "▁إمكانية": 5332,
      "▁الداخلي": 5333,
      "طباء": 5334,
      "خصيص": 5335,
      "▁خلق": 5336,
      "▁مقر": 5337,
      "▁وو": 5338,
      "▁k": 5339,
      "▁قيم": 5340,
      "▁80": 5341,
      "▁الأسنان": 5342,
      "فعت": 5343,
      "▁يعيش": 5344,
      "▁قادر": 5345,
      "▁الحج": 5346,
      "ونيسيا": 5347,
      "دة.": 5348,
      "ماغ": 5349,
      "قتصادية": 5350,
      "▁العالية": 5351,
      "قيقية": 5352,
      "▁سكان": 5353,
      "رويد": 5354,
      "ْد": 5355,
      "▁المشاريع": 5356,
      "▁اهتمام": 5357,
      "▁امرأة": 5358,
      "▁198": 5359,
      "▁المواقع": 5360,
      "▁الها": 5361,
      "▁استخدامها": 5362,
      "▁الجهات": 5363,
      "--": 5364,
      "▁القيمة": 5365,
      "أم": 5366,
      "▁يم": 5367,
      "▁نيوز": 5368,
      "▁فرنسا": 5369,
      ".\nوقد": 5370,
      "▁الأصل": 5371,
      "▁الرطب": 5372,
      "ربما": 5373,
      "▁فبراير": 5374,
      "▁البشرية": 5375,
      "▁يشير": 5376,
      "ضرار": 5377,
      "عو": 5378,
      "شات": 5379,
      "▁التنفيذ": 5380,
      "ّي": 5381,
      "▁تمر": 5382,
      "▁والمست": 5383,
      "قته": 5384,
      "▁الحالية": 5385,
      "▁شهادة": 5386,
      "▁الكامل": 5387,
      "▁المشار": 5388,
      "▁الكبرى": 5389,
      "▁الثنائية": 5390,
      "▁باك": 5391,
      "▁الاشت": 5392,
      "ألة": 5393,
      "رجمة": 5394,
      "▁وأس": 5395,
      "▁ميز": 5396,
      "▁جاه": 5397,
      "رقم": 5398,
      "▁دائما": 5399,
      "▁للخ": 5400,
      "▁طوال": 5401,
      "▁الشت": 5402,
      "ولت": 5403,
      "فيذي": 5404,
      "عن": 5405,
      "فيض": 5406,
      "▁ونحن": 5407,
      "َّا": 5408,
      "ناس": 5409,
      "▁ذو": 5410,
      "▁غيار": 5411,
      "▁تحليل": 5412,
      "▁صندوق": 5413,
      "▁دقائق": 5414,
      "▁الأسواق": 5415,
      "▁نيج": 5416,
      "▁العلاقة": 5417,
      "سمع": 5418,
      "▁شخصية": 5419,
      "▁فيروس": 5420,
      "اعم": 5421,
      "▁كريم": 5422,
      "كلف": 5423,
      "▁الصينية": 5424,
      "▁يحصل": 5425,
      "ارض": 5426,
      "جون": 5427,
      "بيه": 5428,
      "▁تحديث": 5429,
      "▁صار": 5430,
      "غني": 5431,
      "▁ملموسة": 5432,
      "هاء": 5433,
      "▁مشاهدة": 5434,
      "▁ميل": 5435,
      "▁600": 5436,
      ",كسارة": 5437,
      "▁اسعار": 5438,
      "▁تقنية": 5439,
      "▁إرسال": 5440,
      "28": 5441,
      "▁البرا": 5442,
      "واجهة": 5443,
      "ماش": 5444,
      "▁طرف": 5445,
      "▁حاول": 5446,
      "▁مدة": 5447,
      "▁عديدة": 5448,
      "▁طويل": 5449,
      "▁الغذائي": 5450,
      "▁بهم": 5451,
      "▁الموارد": 5452,
      "ضى": 5453,
      "▁الآخرين": 5454,
      "▁الشعبي": 5455,
      "جاء": 5456,
      "كتر": 5457,
      "▁الجمهور": 5458,
      "▁القانونية": 5459,
      "ثاث": 5460,
      "\nس": 5461,
      "▁وتأ": 5462,
      "كرانيا": 5463,
      "▁القدس": 5464,
      "▁الماضية": 5465,
      "بادئ": 5466,
      "▁قريب": 5467,
      "▁إبراهيم": 5468,
      "baba": 5469,
      "▁متوسط": 5470,
      "ضيع": 5471,
      "▁الغرب": 5472,
      "▁29": 5473,
      "▁محرك": 5474,
      "▁الشكل": 5475,
      "▁تغير": 5476,
      "▁الكرب": 5477,
      "ندات": 5478,
      "ان.": 5479,
      "▁الأداء": 5480,
      "▁جمال": 5481,
      "▁تثبيت": 5482,
      "▁النشاط": 5483,
      "روعات": 5484,
      "▁نقص": 5485,
      "صدقاء": 5486,
      "▁الموت": 5487,
      "▁منف": 5488,
      "▁بسيطة": 5489,
      "كلات": 5490,
      "ذات": 5491,
      "▁استمرار": 5492,
      "▁يمثل": 5493,
      "ارا": 5494,
      "وّ": 5495,
      "▁بالر": 5496,
      "▁ضبط": 5497,
      "▁مرك": 5498,
      "og": 5499,
      "▁لقاء": 5500,
      "▁تبحث": 5501,
      "▁للتن": 5502,
      "ِم": 5503,
      "▁ترغب": 5504,
      "▁مبدأ": 5505,
      "3-": 5506,
      "▁منتخب": 5507,
      "بداع": 5508,
      "▁أعرف": 5509,
      "▁رجال": 5510,
      "▁التجاري": 5511,
      "our": 5512,
      "▁وهناك": 5513,
      "وَ": 5514,
      "▁انا": 5515,
      "انية،": 5516,
      "▁العب": 5517,
      "▁المتوسط": 5518,
      "▁الخبر": 5519,
      "▁التطبيقات": 5520,
      "▁شروط": 5521,
      "زق": 5522,
      "▁المحاجر": 5523,
      "▁واضح": 5524,
      "▁تزال": 5525,
      "▁فان": 5526,
      "عمار": 5527,
      "▁يحب": 5528,
      "ÙØ§": 5529,
      "▁طال": 5530,
      "▁أفراد": 5531,
      "كشف": 5532,
      "▁الاح": 5533,
      "▁الأمنية": 5534,
      ".\nوقالت": 5535,
      "▁مقد": 5536,
      "▁الباحث": 5537,
      "▁الحزب": 5538,
      "▁المعرفة": 5539,
      "▁النواب": 5540,
      "▁لضمان": 5541,
      "ذار": 5542,
      "▁يعتمد": 5543,
      "▁الدردشة": 5544,
      "▁ملع": 5545,
      "قاد": 5546,
      "\nما": 5547,
      "ينت": 5548,
      "غرب": 5549,
      "▁الحقيقة": 5550,
      "وره": 5551,
      "▁والتعليم": 5552,
      "ائرات": 5553,
      "▁tph": 5554,
      "إضافة": 5555,
      "ob": 5556,
      "سطس": 5557,
      "▁أُ": 5558,
      "▁الزمن": 5559,
      ".\nوأشار": 5560,
      "▁خمس": 5561,
      "▁أنفس": 5562,
      "▁وفر": 5563,
      "▁قيا": 5564,
      "▁يقع": 5565,
      "وسع": 5566,
      "يوب": 5567,
      "ik": 5568,
      "▁السورية": 5569,
      "ختار": 5570,
      "▁المنظمة": 5571,
      "▁روح": 5572,
      "▁الحقيقي": 5573,
      "▁العلوم": 5574,
      "امات": 5575,
      "▁تعا": 5576,
      "▁الست": 5577,
      "▁منش": 5578,
      "▁مياه": 5579,
      "▁بالف": 5580,
      "▁التدريب": 5581,
      "▁والعمل": 5582,
      "▁القادمة": 5583,
      "70": 5584,
      "▁حزيران": 5585,
      "▁الرابع": 5586,
      "out": 5587,
      "▁الأدوية": 5588,
      "▁الدر": 5589,
      "▁2015": 5590,
      "مرت": 5591,
      "▁الفرنسي": 5592,
      "فف": 5593,
      "▁اعتماد": 5594,
      "▁عالي": 5595,
      "ضغط": 5596,
      "▁النادي": 5597,
      "▁المكتب": 5598,
      "▁محل": 5599,
      "▁الصحيح": 5600,
      "▁سنت": 5601,
      "▁بز": 5602,
      "قى": 5603,
      "▁أربعة": 5604,
      "▁العزيز": 5605,
      "ناسب": 5606,
      "▁سيت": 5607,
      "▁الحا": 5608,
      "▁GitHub.": 5609,
      "▁تقييم": 5610,
      "▁ضرب": 5611,
      "دامة": 5612,
      "▁تكوين": 5613,
      "▁لمح": 5614,
      "روك": 5615,
      "واطن": 5616,
      "▁صحي": 5617,
      "▁تشير": 5618,
      "▁واله": 5619,
      "واجد": 5620,
      "▁الإمام": 5621,
      "وصول": 5622,
      "▁لات": 5623,
      "مطحنة": 5624,
      "▁وظيفة": 5625,
      "لة.": 5626,
      "وأ": 5627,
      "▁المؤتمر": 5628,
      "روفة": 5629,
      "▁عروض": 5630,
      "▁التقرير": 5631,
      "انوني": 5632,
      "َه": 5633,
      "فيدة": 5634,
      "▁الثقافة": 5635,
      "▁التغيير": 5636,
      "29": 5637,
      "▁التخلص": 5638,
      "▁جداً": 5639,
      "▁الصناعي": 5640,
      "▁كلية": 5641,
      "▁الزجاج": 5642,
      "ر،": 5643,
      "▁تصبح": 5644,
      "▁الكالسيوم": 5645,
      "▁شن": 5646,
      "▁بينها": 5647,
      "ساسية": 5648,
      "▁العلمية": 5649,
      "▁الإش": 5650,
      "يقاف": 5651,
      "▁معها": 5652,
      "▁الاهتمام": 5653,
      "سيد": 5654,
      "وريد": 5655,
      "/20": 5656,
      "كومة": 5657,
      "▁مات": 5658,
      "▁تقول": 5659,
      "▁يدل": 5660,
      "35": 5661,
      "عراض": 5662,
      "▁المذك": 5663,
      "▁للأس": 5664,
      "ماذج": 5665,
      "▁معنى": 5666,
      "▁كفاءة": 5667,
      ".\nوكان": 5668,
      "▁والمن": 5669,
      "وحدة": 5670,
      "برنامج": 5671,
      "▁المعلم": 5672,
      "فعال": 5673,
      "َح": 5674,
      "▁مربع": 5675,
      "▁مان": 5676,
      "▁الوج": 5677,
      "طفى": 5678,
      "▁الإنسانية": 5679,
      "▁الهد": 5680,
      "▁العميل": 5681,
      "▁الاب": 5682,
      "▁للأطفال": 5683,
      "▁لعب": 5684,
      "▁الكيميا": 5685,
      "زمات": 5686,
      "فى": 5687,
      "▁أبناء": 5688,
      "▁قصة": 5689,
      "رقة": 5690,
      "▁وانت": 5691,
      "▁الليل": 5692,
      "▁خطوة": 5693,
      "▁مرور": 5694,
      "▁الخطوات": 5695,
      "يابة": 5696,
      "▁توزيع": 5697,
      "كاء": 5698,
      "▁وجد": 5699,
      "▁أصل": 5700,
      "▁تدخل": 5701,
      "جمة": 5702,
      "منى": 5703,
      "ية\n": 5704,
      "▁US": 5705,
      "▁تقع": 5706,
      "▁ده": 5707,
      "▁المحافظة": 5708,
      "ا.": 5709,
      "لقاء": 5710,
      "▁اتجاه": 5711,
      "▁الإست": 5712,
      "▁رك": 5713,
      "ينما": 5714,
      "طلقت": 5715,
      "▁وقف": 5716,
      "▁ضمان": 5717,
      "▁نسب": 5718,
      "▁لمع": 5719,
      "▁بمع": 5720,
      "قوط": 5721,
      "داخل": 5722,
      "6.": 5723,
      "▁التنفيذي": 5724,
      "▁يوليو": 5725,
      "وهات": 5726,
      "خين": 5727,
      "▁التنظيم": 5728,
      "▁دائرة": 5729,
      "▁قيادة": 5730,
      "▁قوي": 5731,
      "▁والان": 5732,
      "▁الساح": 5733,
      "ترات": 5734,
      "▁مشاركة": 5735,
      "َان": 5736,
      "▁العلماء": 5737,
      "▁استراتيجية": 5738,
      "▁تواجه": 5739,
      "▁التقنية": 5740,
      "▁نيجيريا": 5741,
      "▁الجوية": 5742,
      "▁الشيء": 5743,
      "▁ناقل": 5744,
      "▁والأس": 5745,
      "▁الأراضي": 5746,
      "طرح": 5747,
      "ربط": 5748,
      "لين": 5749,
      "▁In": 5750,
      "ندية": 5751,
      "▁برج": 5752,
      "▁المتوقع": 5753,
      "▁الأزمة": 5754,
      "ويا": 5755,
      "1)": 5756,
      "وطن": 5757,
      "ائة": 5758,
      "▁قضية": 5759,
      "▁أستراليا": 5760,
      "▁\"ت": 5761,
      "▁الله،": 5762,
      "▁السير": 5763,
      "▁أدى": 5764,
      "▁المسلحة": 5765,
      "▁طا": 5766,
      "▁الأربعاء": 5767,
      "بان": 5768,
      "▁بفضل": 5769,
      "▁عبدالله": 5770,
      "▁التفكير": 5771,
      "▁الأجنبية": 5772,
      "▁بسعر": 5773,
      "▁St": 5774,
      "▁شيئ": 5775,
      "▁تقليل": 5776,
      "▁نعم": 5777,
      "▁ومس": 5778,
      "▁أمريكا": 5779,
      "ثبت": 5780,
      "حصل": 5781,
      "▁إصلاح": 5782,
      "▁تعتمد": 5783,
      "▁داع": 5784,
      "▁ضعف": 5785,
      "غلال": 5786,
      "▁السريع": 5787,
      "▁وبد": 5788,
      "▁الصيف": 5789,
      "قرة": 5790,
      "▁منتج": 5791,
      "▁الجولة": 5792,
      "▁صب": 5793,
      "▁مشاريع": 5794,
      "ضرورة": 5795,
      "▁مؤك": 5796,
      "زون": 5797,
      "ِب": 5798,
      "وم،": 5799,
      "درد": 5800,
      "▁أثر": 5801,
      "▁المقدمة": 5802,
      "ينيا": 5803,
      "▁تستطيع": 5804,
      "▁سرعة": 5805,
      "▁اذا": 5806,
      "خرا": 5807,
      "▁بعدما": 5808,
      "▁رائع": 5809,
      "هرجان": 5810,
      ".\nوأوضح": 5811,
      "▁النجاح": 5812,
      "وقيت": 5813,
      "امب": 5814,
      "▁لفة": 5815,
      "df": 5816,
      "▁الاصطناعي": 5817,
      "if": 5818,
      "وائية": 5819,
      "▁السكن": 5820,
      "▁تزيد": 5821,
      "▁الذى": 5822,
      "▁يوما": 5823,
      "زايد": 5824,
      "د،": 5825,
      "درس": 5826,
      "\nا": 5827,
      "▁سؤال": 5828,
      "▁تا": 5829,
      "▁التمو": 5830,
      "▁الدراسات": 5831,
      "ؤسسات": 5832,
      "▁الوحيد": 5833,
      "▁التهاب": 5834,
      "▁بينهم": 5835,
      "▁نفسك": 5836,
      "▁تؤدي": 5837,
      "▁بكثير": 5838,
      "▁لتس": 5839,
      "▁الصعب": 5840,
      "▁الإسلامي": 5841,
      "طورة": 5842,
      "رائب": 5843,
      "هيئة": 5844,
      "▁المساعدة": 5845,
      "▁زمن": 5846,
      "تمال": 5847,
      "90": 5848,
      "طريقة": 5849,
      "ارضة": 5850,
      "فعيل": 5851,
      "▁إفريقيا": 5852,
      "قترح": 5853,
      "▁ظروف": 5854,
      "▁العقد": 5855,
      "نتيجة": 5856,
      "▁التض": 5857,
      "▁صخرة": 5858,
      "act": 5859,
      "▁ولو": 5860,
      "▁السما": 5861,
      "▁يشعر": 5862,
      "▁التك": 5863,
      "وانب": 5864,
      "▁وسل": 5865,
      "▁الأرب": 5866,
      "▁يوسف": 5867,
      "▁نسخة": 5868,
      "▁التكلفة": 5869,
      "▁بول": 5870,
      "▁النو": 5871,
      "▁انها": 5872,
      "سيل": 5873,
      "▁اكثر": 5874,
      "▁وترك": 5875,
      "▁كندا": 5876,
      "▁ذلك.": 5877,
      "سس": 5878,
      "▁غر": 5879,
      "اليب": 5880,
      "لقائي": 5881,
      "▁طفل": 5882,
      "▁المطب": 5883,
      "▁التركيز": 5884,
      "Tube": 5885,
      "▁للات": 5886,
      "▁القت": 5887,
      "▁الشعور": 5888,
      "▁خز": 5889,
      "▁مزيد": 5890,
      "ظي": 5891,
      "\nالأ": 5892,
      "نساء": 5893,
      "ابه": 5894,
      "▁الحقوق": 5895,
      "▁متجر": 5896,
      "لو": 5897,
      "\"\n": 5898,
      "▁عقب": 5899,
      "▁الأخبار": 5900,
      "▁المحافظ": 5901,
      "▁سبق": 5902,
      "▁التعليمية": 5903,
      "شخاص": 5904,
      "▁الأسرة": 5905,
      "▁تكر": 5906,
      "▁الشحن": 5907,
      "▁Get": 5908,
      "tps": 5909,
      "▁الخز": 5910,
      "▁العن": 5911,
      "▁تنزيل": 5912,
      "▁سريع": 5913,
      "▁باعتبار": 5914,
      "▁بالقرب": 5915,
      "▁أداة": 5916,
      "▁حزام": 5917,
      "▁تبلغ": 5918,
      "▁وأكثر": 5919,
      "▁المتاحة": 5920,
      "▁المشترك": 5921,
      "▁المدارس": 5922,
      "دمير": 5923,
      "وقعات": 5924,
      "pl": 5925,
      "ابر": 5926,
      "يطاليا": 5927,
      "▁المدن": 5928,
      "▁st": 5929,
      "لاقة": 5930,
      "▁القي": 5931,
      "واتف": 5932,
      "▁كري": 5933,
      "ْب": 5934,
      "الأ": 5935,
      "▁Q": 5936,
      "▁يعود": 5937,
      "▁عشرة": 5938,
      "▁الملا": 5939,
      "نا.": 5940,
      "▁انته": 5941,
      "▁عربي": 5942,
      "▁أطفال": 5943,
      "بحاث": 5944,
      "▁الإطلاق": 5945,
      "▁لكنها": 5946,
      "سعى": 5947,
      "▁والمس": 5948,
      "غرق": 5949,
      "▁أولاً": 5950,
      "▁السكان": 5951,
      "65": 5952,
      "ant": 5953,
      "جتمع": 5954,
      "▁الأردن": 5955,
      "▁المدى": 5956,
      "▁3.": 5957,
      "واط": 5958,
      "تمكن": 5959,
      "صنيع": 5960,
      "▁السؤال": 5961,
      "واني": 5962,
      "▁الخامس": 5963,
      "▁الأكبر": 5964,
      "▁وقع": 5965,
      "قلال": 5966,
      "▁محطات": 5967,
      "ديه": 5968,
      "راكة": 5969,
      "▁صدر": 5970,
      "▁لعام": 5971,
      "سيقى": 5972,
      "▁قواعد": 5973,
      "غام": 5974,
      "▁التأمين": 5975,
      "يان": 5976,
      "▁قصيرة": 5977,
      "▁عال": 5978,
      "متع": 5979,
      "▁بحق": 5980,
      "du": 5981,
      "▁العودة": 5982,
      "▁يتطلب": 5983,
      "▁تدوير": 5984,
      "شاهد": 5985,
      "حول": 5986,
      "▁أنظمة": 5987,
      "/0": 5988,
      "ضاع": 5989,
      "▁الته": 5990,
      "فيه": 5991,
      "▁باستمرار": 5992,
      "داع": 5993,
      "ائحة": 5994,
      "▁المستعملة": 5995,
      "صابات": 5996,
      "▁تجاوز": 5997,
      "واقع": 5998,
      "مادة": 5999,
      "فرد": 6000,
      "▁الثورة": 6001,
      "▁“م": 6002,
      "▁حاج": 6003,
      "حجر": 6004,
      "▁إدخال": 6005,
      "▁إعلان": 6006,
      "▁القوى": 6007,
      "َّم": 6008,
      "▁زين": 6009,
      ",,": 6010,
      "لقي": 6011,
      "▁نست": 6012,
      "▁مزد": 6013,
      "طالب": 6014,
      "▁الدهون": 6015,
      "▁خمسة": 6016,
      "عاة": 6017,
      "شعر": 6018,
      "▁الإشارة": 6019,
      "▁المريض": 6020,
      "ريبية": 6021,
      "يقة": 6022,
      "▁تطور": 6023,
      "قين": 6024,
      "▁كن": 6025,
      "ائعة": 6026,
      "ية:": 6027,
      "▁فس": 6028,
      "▁القضية": 6029,
      "▁سعودي": 6030,
      "ياز": 6031,
      "▁الفوز": 6032,
      "▁الابتد": 6033,
      "▁المثال،": 6034,
      "▁حفظ": 6035,
      "▁الحيوانات": 6036,
      "راغ": 6037,
      "رجال": 6038,
      "▁الدولار": 6039,
      "▁أعراض": 6040,
      "▁سام": 6041,
      "ريقي": 6042,
      "احصل": 6043,
      "اتي": 6044,
      "▁الإسرائيل": 6045,
      "ريبا": 6046,
      "▁ومنها": 6047,
      "ُن": 6048,
      "▁التون": 6049,
      "▁ولن": 6050,
      "▁كا": 6051,
      "▁35": 6052,
      "▁Ali": 6053,
      "▁الأحداث": 6054,
      "▁استخدامه": 6055,
      "بلوما": 6056,
      "ثمارات": 6057,
      "▁د.": 6058,
      "▁غالبًا": 6059,
      "كُمْ": 6060,
      "▁المغربي": 6061,
      "▁المشتركة": 6062,
      "تن": 6063,
      "75": 6064,
      "▁المرج": 6065,
      "تها،": 6066,
      "ّى": 6067,
      "▁إثراء": 6068,
      "▁المخاطر": 6069,
      "44": 6070,
      "s.": 6071,
      "▁الأماكن": 6072,
      "▁الجمعية": 6073,
      "▁الكلام": 6074,
      "▁=": 6075,
      "▁قوله": 6076,
      "ثرة": 6077,
      "▁يسمى": 6078,
      "▁أرد": 6079,
      "▁خطوات": 6080,
      "قه": 6081,
      "▁يومي": 6082,
      "ستيك": 6083,
      "▁سف": 6084,
      "▁المجالات": 6085,
      "سائر": 6086,
      "▁تمثل": 6087,
      "▁الهند.": 6088,
      "▁التأثير": 6089,
      "▁دو": 6090,
      "▁الإسب": 6091,
      "ook": 6092,
      "زاز": 6093,
      "▁العوامل": 6094,
      "انيين": 6095,
      "▁المستمر": 6096,
      "▁واضحة": 6097,
      "▁بض": 6098,
      "لي،": 6099,
      "▁الإعلان": 6100,
      "▁تؤثر": 6101,
      "▁ة": 6102,
      "▁Pro": 6103,
      "▁لشركة": 6104,
      "▁الوزير": 6105,
      "▁والاج": 6106,
      "▁الزواج": 6107,
      "▁بأنها": 6108,
      "ائها": 6109,
      "▁المطلوب": 6110,
      "▁القدر": 6111,
      "▁يز": 6112,
      "▁متابعة": 6113,
      "ّف": 6114,
      "▁أز": 6115,
      "جمات": 6116,
      "▁كتابة": 6117,
      "▁معرض": 6118,
      "▁عاما": 6119,
      "▁التصنيع": 6120,
      "▁re": 6121,
      "▁أربع": 6122,
      "▁إخ": 6123,
      "▁التنا": 6124,
      "ائط": 6125,
      "ائب": 6126,
      "انغ": 6127,
      "▁لتر": 6128,
      "▁رج": 6129,
      "▁مستقبل": 6130,
      "▁منظ": 6131,
      "▁طرح": 6132,
      "دردشة": 6133,
      ".\nيمكن": 6134,
      "▁بالغ": 6135,
      "▁البداية": 6136,
      "▁ويست": 6137,
      "▁الفعل": 6138,
      "▁للبيع.": 6139,
      "▁ناحية": 6140,
      "شنطن": 6141,
      "▁أننا": 6142,
      "▁45": 6143,
      "▁قاد": 6144,
      "▁إج": 6145,
      "▁هام": 6146,
      "جرى": 6147,
      "▁الأسباب": 6148,
      "▁ذوي": 6149,
      "▁فعال": 6150,
      "▁تتضمن": 6151,
      "ess": 6152,
      "َج": 6153,
      "▁الفائ": 6154,
      "▁الأستاذ": 6155,
      "▁تتميز": 6156,
      "▁القهوة": 6157,
      "▁الأوروب": 6158,
      "▁الهيد": 6159,
      "▁تجنب": 6160,
      "فايات": 6161,
      "▁أمراض": 6162,
      "▁الطبي": 6163,
      "▁قيام": 6164,
      "سبوك": 6165,
      "▁الأخضر": 6166,
      "▁ملايين": 6167,
      "▁معا": 6168,
      "ناً": 6169,
      "▁الطوب": 6170,
      "▁المؤمن": 6171,
      "▁أشكال": 6172,
      "▁بصورة": 6173,
      "▁وفاة": 6174,
      "مصنع": 6175,
      "▁لافت": 6176,
      "قتها": 6177,
      "▁YouTube": 6178,
      "حاول": 6179,
      "▁يسبب": 6180,
      "▁المكت": 6181,
      ".\nس": 6182,
      "هـ": 6183,
      "▁إعلام": 6184,
      "▁المجتم": 6185,
      "▁بتاريخ": 6186,
      "▁المصنعين": 6187,
      "▁الكشف": 6188,
      "حتوي": 6189,
      "▁دردشة": 6190,
      "ِ،": 6191,
      "tps://": 6192,
      "▁انتهاء": 6193,
      "الحصول": 6194,
      "ازة": 6195,
      "رافية": 6196,
      "َالَ": 6197,
      "▁خصم": 6198,
      "▁الاسم": 6199,
      ".\nإن": 6200,
      "▁Ø§ÙØ": 6201,
      "▁إصابة": 6202,
      "▁آثار": 6203,
      "▁الوس": 6204,
      "عتها": 6205,
      "▁مقاومة": 6206,
      "».": 6207,
      "▁دورة": 6208,
      "▁الحض": 6209,
      "▁عامًا": 6210,
      "▁70": 6211,
      "▁وزن": 6212,
      "▁الافت": 6213,
      "لاحظة": 6214,
      ".\nوع": 6215,
      "باعة": 6216,
      ":00": 6217,
      "▁العلامة": 6218,
      "▁الأطعمة": 6219,
      "▁استعداد": 6220,
      "▁أشخاص": 6221,
      "وفرة": 6222,
      "▁هات": 6223,
      "▁المكونات": 6224,
      "▁النظ": 6225,
      "▁اتباع": 6226,
      "▁أنَّ": 6227,
      "▁؟\n": 6228,
      "▁لإنتاج": 6229,
      "▁بري": 6230,
      "▁تشكل": 6231,
      "▁فقدان": 6232,
      "▁خصائص": 6233,
      "▁الوحدة": 6234,
      "tph": 6235,
      "▁يعاني": 6236,
      "▁ويجب": 6237,
      "▁إير": 6238,
      "▁}": 6239,
      "▁الأفراد": 6240,
      "▁مؤتمر": 6241,
      "قدرة": 6242,
      "▁الغرفة": 6243,
      "▁خبر": 6244,
      "▁ملعقة": 6245,
      "زاب": 6246,
      "▁المبيعات": 6247,
      "▁وسوف": 6248,
      "▁السرعة": 6249,
      "▁تحصل": 6250,
      "قلب": 6251,
      "ل،": 6252,
      "▁والسل": 6253,
      "▁يمكننا": 6254,
      "وحات": 6255,
      "عاء": 6256,
      "▁تونس": 6257,
      "▁للمست": 6258,
      "▁إجمالي": 6259,
      "▁معين": 6260,
      "▁قت": 6261,
      "▁يجوز": 6262,
      "قعة": 6263,
      "شرق": 6264,
      "▁ايضا": 6265,
      "art": 6266,
      "قاذ": 6267,
      "▁الدقيق": 6268,
      "▁أبريل": 6269,
      "▁بقيمة": 6270,
      "▁(ع": 6271,
      "▁سعد": 6272,
      "▁مين": 6273,
      "▁التركية": 6274,
      "وقت": 6275,
      "▁الاستفادة": 6276,
      "▁عامل": 6277,
      "▁مجالات": 6278,
      "جعل": 6279,
      "▁الكاملة": 6280,
      "48": 6281,
      "خيل": 6282,
      "▁حف": 6283,
      "▁جام": 6284,
      "▁الحبوب": 6285,
      "▁البيضاء": 6286,
      "ه\n": 6287,
      "تمام": 6288,
      "▁انف": 6289,
      "ثق": 6290,
      "رخ": 6291,
      "▁تحقق": 6292,
      "▁السياسة": 6293,
      "▁مسا": 6294,
      "▁الفيروس": 6295,
      "كرر": 6296,
      "▁بقوة": 6297,
      "بالغ": 6298,
      "▁المحتوى": 6299,
      "▁التاس": 6300,
      "▁ليبيا": 6301,
      "شك": 6302,
      "ائري": 6303,
      "▁اتصال": 6304,
      "38": 6305,
      "▁الخبرة": 6306,
      "ول،": 6307,
      "37": 6308,
      "نسبة": 6309,
      "▁لخ": 6310,
      "جام": 6311,
      "وو": 6312,
      "ريكا": 6313,
      "▁الأنشطة": 6314,
      "21": 6315,
      "طاقات": 6316,
      "▁فرع": 6317,
      "▁غذ": 6318,
      "باك": 6319,
      "▁كلام": 6320,
      "▁الشعبية": 6321,
      "دوات": 6322,
      "▁تحرير": 6323,
      "4-": 6324,
      "▁جرام": 6325,
      "▁يبحث": 6326,
      "▁اق": 6327,
      "▁\"الم": 6328,
      "▁مباريات": 6329,
      "كندر": 6330,
      "▁مهما": 6331,
      "▁منتصف": 6332,
      "ائك": 6333,
      "بكات": 6334,
      "متاع": 6335,
      "▁علامات": 6336,
      "ز،": 6337,
      "▁معنا": 6338,
      "▁المباشر": 6339,
      "▁علاقات": 6340,
      ".\nلا": 6341,
      "▁مراكز": 6342,
      "▁شرح": 6343,
      "▁الاثنين": 6344,
      "▁جيدًا": 6345,
      "▁أموال": 6346,
      "▁قليل": 6347,
      "▁يرى": 6348,
      "▁حسين": 6349,
      "▁بوت": 6350,
      "ومع": 6351,
      "▁أست": 6352,
      "▁استخدم": 6353,
      "▁تعديل": 6354,
      "▁الوظائف": 6355,
      "▁التوا": 6356,
      "▁شاهد": 6357,
      "▁إلكتر": 6358,
      "▁بغداد": 6359,
      "روبات": 6360,
      "دران": 6361,
      "اضي": 6362,
      "طرا": 6363,
      "ery": 6364,
      "▁لصالح": 6365,
      "عملاء": 6366,
      "▁للز": 6367,
      "▁التعا": 6368,
      "حدات": 6369,
      "▁الجنسية": 6370,
      "▁طبيب": 6371,
      "▁البيان": 6372,
      "▁وجل": 6373,
      "▁تطبيقات": 6374,
      "▁الصباح": 6375,
      "▁الرحمن": 6376,
      "جهود": 6377,
      "بة،": 6378,
      "▁بالخ": 6379,
      "▁إقامة": 6380,
      "▁تجارة": 6381,
      "▁الصرف": 6382,
      "خمة": 6383,
      "▁الأطراف": 6384,
      "▁شديد": 6385,
      "ive": 6386,
      "▁بلغت": 6387,
      "▁أزمة": 6388,
      "):": 6389,
      "روات": 6390,
      "▁(الم": 6391,
      "ورك": 6392,
      "▁مدريد": 6393,
      "الع": 6394,
      "▁اللاعبين": 6395,
      "انس": 6396,
      "▁العمودية": 6397,
      "▁متطلبات": 6398,
      "▁لتقديم": 6399,
      "▁بسيط": 6400,
      "▁از": 6401,
      "▁تختلف": 6402,
      "”\n": 6403,
      "عيدة": 6404,
      "▁وبعض": 6405,
      "▁توجيه": 6406,
      "▁بالص": 6407,
      "▁فات": 6408,
      "▁التقدم": 6409,
      "▁أغسطس": 6410,
      "▁طبيعي": 6411,
      "▁رأي": 6412,
      "▁90": 6413,
      "وذ": 6414,
      "▁السيطرة": 6415,
      "اطئ": 6416,
      "▁سأ": 6417,
      "ite": 6418,
      "▁تصريحات": 6419,
      "▁الأساس": 6420,
      "▁اتصل": 6421,
      "▁التعرف": 6422,
      "ّة،": 6423,
      "ate": 6424,
      "بهة": 6425,
      "ذاب": 6426,
      "زيج": 6427,
      ".\nالت": 6428,
      "خلاص": 6429,
      "▁منخفضة": 6430,
      "▁الصغير": 6431,
      "▁ممن": 6432,
      "▁جدول": 6433,
      "▁لطحن": 6434,
      "▁الواحد": 6435,
      "تيات": 6436,
      "▁وتد": 6437,
      "▁بمدينة": 6438,
      "ماك": 6439,
      "ِد": 6440,
      "▁رمز": 6441,
      "▁اقرأ": 6442,
      "راتيجيات": 6443,
      "▁الرسوم": 6444,
      "عدم": 6445,
      "▁البطولة": 6446,
      "▁وتر": 6447,
      "▁الرعاية": 6448,
      "▁إت": 6449,
      "▁فقط،": 6450,
      "وقة": 6451,
      "▁مصنعين": 6452,
      "ud": 6453,
      "كاني": 6454,
      "مكان": 6455,
      "▁بدلاً": 6456,
      "▁القسم": 6457,
      "كتاب": 6458,
      "عته": 6459,
      "▁>>": 6460,
      "قيب": 6461,
      "▁بمن": 6462,
      "سبق": 6463,
      "▁الأميركي": 6464,
      "افات": 6465,
      "▁Alibaba": 6466,
      "▁إما": 6467,
      "▁الفكر": 6468,
      "▁تصريح": 6469,
      "▁الموقف": 6470,
      "7.": 6471,
      "▁شارك": 6472,
      "▁إضافية": 6473,
      "▁رسوم": 6474,
      "▁لتش": 6475,
      "▁الالكتر": 6476,
      "▁حا": 6477,
      ".\nأما": 6478,
      "▁القديم": 6479,
      "▁الاعتبار": 6480,
      "▁الشريف": 6481,
      "ش،": 6482,
      "▁فإذا": 6483,
      "▁لبعض": 6484,
      "▁الموظفين": 6485,
      "▁والات": 6486,
      "صري": 6487,
      "▁وتطوير": 6488,
      "▁مول": 6489,
      "▁تسمح": 6490,
      "مالك": 6491,
      "▁مبلغ": 6492,
      "ارقة": 6493,
      "▁فرق": 6494,
      "▁شم": 6495,
      "▁لين": 6496,
      "▁الأدوات": 6497,
      "▁فك": 6498,
      "▁الهيدرولي": 6499,
      "▁ولكنه": 6500,
      "▁ک": 6501,
      "▁النهاية": 6502,
      "▁بعضها": 6503,
      "▁مساعدة": 6504,
      "▁رحلة": 6505,
      "▁الإرها": 6506,
      "▁ويُ": 6507,
      "▁الغيار": 6508,
      "▁المخروط": 6509,
      "▁العمال": 6510,
      "▁الموجود": 6511,
      "▁كتلة": 6512,
      "▁Price": 6513,
      "▁محكمة": 6514,
      "▁بنت": 6515,
      "▁عهد": 6516,
      "▁الثانوية": 6517,
      "فاصيل": 6518,
      "▁يؤثر": 6519,
      "▁نور": 6520,
      "وفة": 6521,
      "راه": 6522,
      "عمليات": 6523,
      "▁يوميا": 6524,
      "عدل": 6525,
      "▁حفل": 6526,
      "▁تشعر": 6527,
      "نيين": 6528,
      "▁الجنوبية": 6529,
      "وبايل": 6530,
      "▁عاد": 6531,
      "غوط": 6532,
      "▁ی": 6533,
      "▁Ch": 6534,
      "▁الارت": 6535,
      "أكمل": 6536,
      ",ت": 6537,
      "▁“ت": 6538,
      "▁الحوار": 6539,
      "▁الكتب": 6540,
      "▁منز": 6541,
      "▁Z": 6542,
      "▁المستثمر": 6543,
      "بك": 6544,
      "▁;": 6545,
      "▁اكتشاف": 6546,
      "▁الالتزام": 6547,
      "▁أوكرانيا": 6548,
      "▁تحضير": 6549,
      "▁المرور": 6550,
      "▁نقوم": 6551,
      "▁الفرنسية": 6552,
      "▁سعود": 6553,
      "ost": 6554,
      "▁التركي": 6555,
      "▁ويد": 6556,
      "▁ثاني": 6557,
      "▁̄": 6558,
      "خاب": 6559,
      "\n\nال": 6560,
      "▁الدنيا": 6561,
      "فاد": 6562,
      "▁الدولوميت": 6563,
      "▁مجاني": 6564,
      "2)": 6565,
      "بدء": 6566,
      "▁اللعب": 6567,
      "36": 6568,
      "▁وتقديم": 6569,
      "▁قب": 6570,
      "▁بمر": 6571,
      "▁تعيين": 6572,
      "▁المقبلة": 6573,
      "▁الجهود": 6574,
      "▁قائد": 6575,
      "▁الحجر.": 6576,
      "رقية": 6577,
      "▁واف": 6578,
      "▁اليومية": 6579,
      "▁كبار": 6580,
      "9.": 6581,
      "ارين": 6582,
      "▁سهلة": 6583,
      "▁كيلو": 6584,
      "▁The": 6585,
      "نك": 6586,
      "▁صرف": 6587,
      "▁شا": 6588,
      "▁الفولا": 6589,
      "▁نظرة": 6590,
      "▁المناخ": 6591,
      "لياف": 6592,
      "ذيب": 6593,
      "يرة،": 6594,
      "▁ولذلك": 6595,
      "▁الزي": 6596,
      "▁الكفاءة": 6597,
      "ity": 6598,
      "ونها": 6599,
      "▁الذه": 6600,
      "▁غال": 6601,
      "▁واب": 6602,
      "▁تي": 6603,
      "▁قرية": 6604,
      "▁الرقمية": 6605,
      "▁مصنعي": 6606,
      "▁لسحق": 6607,
      "▁الاول": 6608,
      "سو": 6609,
      "ناطق": 6610,
      "شري": 6611,
      "▁حض": 6612,
      "▁قليلاً": 6613,
      "▁التزام": 6614,
      "▁المصاب": 6615,
      "▁الإقليم": 6616,
      "ظهرت": 6617,
      "صدير": 6618,
      "100": 6619,
      "ear": 6620,
      "جية": 6621,
      "▁والسيا": 6622,
      "▁فم": 6623,
      "▁جميل": 6624,
      "▁وأنا": 6625,
      "▁الدماغ": 6626,
      "ue": 6627,
      "▁والمر": 6628,
      "▁مراحل": 6629,
      "▁المصادر": 6630,
      "▁مصطفى": 6631,
      "هاي": 6632,
      "▁القضايا": 6633,
      "▁ميد": 6634,
      "▁خرج": 6635,
      "▁الإرهاب": 6636,
      "▁صاد": 6637,
      "▁البلدان": 6638,
      "▁تجمع": 6639,
      "ذكرة": 6640,
      "▁مسار": 6641,
      "ain": 6642,
      "ياط": 6643,
      "▁سلامة": 6644,
      "▁يب": 6645,
      "ونت": 6646,
      "▁السادس": 6647,
      "▁الصيد": 6648,
      "▁كلما": 6649,
      "▁الانتاج": 6650,
      "▁موثوق": 6651,
      "فيروس": 6652,
      "طنة": 6653,
      "▁المقرر": 6654,
      "▁العدد": 6655,
      "▁ومر": 6656,
      "قة.": 6657,
      "▁الأوراق": 6658,
      "▁بيئة": 6659,
      "وريت": 6660,
      "وجل": 6661,
      "سير": 6662,
      "▁ترتيب": 6663,
      "وارع": 6664,
      "شرح": 6665,
      "▁crusher": 6666,
      "▁باكستان": 6667,
      "كية،": 6668,
      "Ø§Ø": 6669,
      "▁عكس": 6670,
      "▁الأقصى": 6671,
      "▁بالرياض": 6672,
      "▁جلسة": 6673,
      "حة،": 6674,
      "▁مجانا": 6675,
      "▁بأس": 6676,
      "املات": 6677,
      "▁حدد": 6678,
      "▁يكفي": 6679,
      "حض": 6680,
      "▁إِل": 6681,
      "▁الفل": 6682,
      "بيد": 6683,
      "ديمية": 6684,
      "▁إشارة": 6685,
      "▁ثقيلة": 6686,
      "نكر": 6687,
      "طبق": 6688,
      "اميك": 6689,
      "▁ووضع": 6690,
      "▁المدنية": 6691,
      "▁ريموند": 6692,
      "صحاب": 6693,
      "▁فما": 6694,
      "▁جميلة": 6695,
      "جلات": 6696,
      "▁الشخصي": 6697,
      "▁مجموعات": 6698,
      "▁موسكو": 6699,
      "▁ترى": 6700,
      "▁موجود": 6701,
      "▁سان": 6702,
      "▁وعدد": 6703,
      "َك": 6704,
      "ًّا": 6705,
      "طرابات": 6706,
      "▁j": 6707,
      ".com/": 6708,
      "▁ولكنها": 6709,
      "▁الأدنى": 6710,
      "▁مدرسة": 6711,
      "▁كول": 6712,
      "▁الرأ": 6713,
      "▁التل": 6714,
      "▁بها،": 6715,
      "ong": 6716,
      "فذ": 6717,
      "▁دقيق": 6718,
      "▁الرائدة": 6719,
      "▁الثلاثة": 6720,
      "▁ذي": 6721,
      "▁الطالب": 6722,
      "▁جمعية": 6723,
      "▁(ت": 6724,
      "▁us": 6725,
      "▁الثابت": 6726,
      "غيرات": 6727,
      "نيسة": 6728,
      "▁المستهلك": 6729,
      "مييز": 6730,
      "▁حملة": 6731,
      "مُ": 6732,
      "اشات": 6733,
      "▁الحماية": 6734,
      "▁ملابس": 6735,
      "▁أين": 6736,
      "▁!": 6737,
      "▁تتطلب": 6738,
      "َمْ": 6739,
      "o.": 6740,
      "▁الاف": 6741,
      "▁مساعد": 6742,
      "▁الشبكة": 6743,
      "▁جاءت": 6744,
      "▁الميك": 6745,
      "يراد": 6746,
      "▁الشراء": 6747,
      "الا": 6748,
      "حيل": 6749,
      "▁يعلم": 6750,
      "▁حس": 6751,
      "▁التحقق": 6752,
      "▁لمس": 6753,
      "\nلا": 6754,
      "▁2012": 6755,
      "▁الصهي": 6756,
      "▁مستشفى": 6757,
      "▁أقصى": 6758,
      "▁النب": 6759,
      "▁الكام": 6760,
      "ليش": 6761,
      "قس": 6762,
      "ومني": 6763,
      "يجار": 6764,
      "▁الاتصالات": 6765,
      "▁البالغ": 6766,
      "▁سياسة": 6767,
      "▁المدر": 6768,
      "▁السلع": 6769,
      "كلم": 6770,
      "▁موسم": 6771,
      "ّب": 6772,
      "▁الأعراض": 6773,
      "▁التحقيق": 6774,
      "▁الألوان": 6775,
      "وضاع": 6776,
      "▁بيد": 6777,
      "▁آسيا": 6778,
      "جيع": 6779,
      "rom": 6780,
      "▁البياني": 6781,
      "َوْ": 6782,
      "ازل": 6783,
      "▁وكأن": 6784,
      "▁صلاة": 6785,
      "▁كأ": 6786,
      "▁الخطوة": 6787,
      "▁أماكن": 6788,
      "▁اتحاد": 6789,
      "قيات": 6790,
      "▁مالية": 6791,
      "▁الخصوص": 6792,
      "▁تضم": 6793,
      "ملت": 6794,
      "▁ضوء": 6795,
      "▁الخشب": 6796,
      "▁المحتمل": 6797,
      "ثابة": 6798,
      "▁الأولية": 6799,
      "▁أسرع": 6800,
      "▁المستخدمين": 6801,
      "▁يفعل": 6802,
      "حلة": 6803,
      "▁مهارات": 6804,
      "43": 6805,
      "▁نهائي": 6806,
      "▁أسفل": 6807,
      "طحن": 6808,
      "▁فحسب": 6809,
      "▁جنب": 6810,
      "▁سكس": 6811,
      "▁استط": 6812,
      "▁قرب": 6813,
      "▁وزيادة": 6814,
      "▁المخد": 6815,
      "ربين": 6816,
      "ver": 6817,
      "كسر": 6818,
      "▁وَال": 6819,
      "▁رش": 6820,
      "شرطة": 6821,
      "▁سما": 6822,
      "▁نجد": 6823,
      "ف،": 6824,
      "▁ضم": 6825,
      "▁عصر": 6826,
      "▁تشرين": 6827,
      "▁الأرج": 6828,
      "▁الشرقية": 6829,
      "▁والمح": 6830,
      "▁كلمات": 6831,
      "▁ملعب": 6832,
      "▁لدعم": 6833,
      "▁الأنا": 6834,
      "ياً،": 6835,
      "عط": 6836,
      "▁توقف": 6837,
      ".\n–": 6838,
      "”.\nو": 6839,
      "▁تبدو": 6840,
      "ّع": 6841,
      "شرت": 6842,
      "ومان": 6843,
      "▁وعن": 6844,
      "▁مفهوم": 6845,
      "▁وحدات": 6846,
      "▁شباب": 6847,
      "▁120": 6848,
      "▁العالم.": 6849,
      "▁مجتمع": 6850,
      "▁التنظيف": 6851,
      "▁مطار": 6852,
      "▁بكم": 6853,
      ".\nبال": 6854,
      "وقد": 6855,
      "▁رحم": 6856,
      "▁بينهما": 6857,
      "▁كاف": 6858,
      "ميق": 6859,
      "لفل": 6860,
      "▁يدخل": 6861,
      "▁الويب": 6862,
      "ح،": 6863,
      "▁الدواء": 6864,
      "▁ليف": 6865,
      "66": 6866,
      "▁بالذكر": 6867,
      "وحيد": 6868,
      "ايا": 6869,
      "▁والله": 6870,
      "▁أيار": 6871,
      "8.": 6872,
      "▁الإدارية": 6873,
      "اكن": 6874,
      "▁الأر": 6875,
      "▁مكونات": 6876,
      "معدات": 6877,
      "▁الصحفي": 6878,
      "▁صحية": 6879,
      "▁المغربية": 6880,
      "▁الشروط": 6881,
      "▁بمثابة": 6882,
      "بيئة": 6883,
      "خبير": 6884,
      "راس": 6885,
      "▁مصل": 6886,
      "▁أمريكي": 6887,
      "▁الفلب": 6888,
      "▁والاجتما": 6889,
      "55": 6890,
      "▁باريس": 6891,
      "فسية": 6892,
      "▁الكلي": 6893,
      "▁السعودية،": 6894,
      "▁الصناعات": 6895,
      "▁اللغ": 6896,
      "ثن": 6897,
      "▁تقدير": 6898,
      "علوم": 6899,
      "ريبي": 6900,
      "\n\nم": 6901,
      "خيصة": 6902,
      "▁رأى": 6903,
      "▁تغذية": 6904,
      "▁الخلايا": 6905,
      "▁\"إ": 6906,
      "▁واستخدام": 6907,
      ".\nون": 6908,
      "▁البرت": 6909,
      "▁فار": 6910,
      "يفا": 6911,
      "▁بانت": 6912,
      "▁عرف": 6913,
      "▁الذهاب": 6914,
      "ؤدي": 6915,
      "▁فيتامين": 6916,
      "▁يعانون": 6917,
      "اضر": 6918,
      "لقد": 6919,
      "▁اول": 6920,
      "▁مراقبة": 6921,
      "رحب": 6922,
      "▁البلدين": 6923,
      "رجى": 6924,
      "8%": 6925,
      "▁و\"": 6926,
      "▁حضور": 6927,
      "ثمان": 6928,
      "شية": 6929,
      "▁الحلقة": 6930,
      "▁الرحم": 6931,
      "ّق": 6932,
      "ويه": 6933,
      "اركت": 6934,
      "▁يتميز": 6935,
      "▁الميلاد": 6936,
      "▁غسالة": 6937,
      "▁Sh": 6938,
      "▁نب": 6939,
      "▁هيكل": 6940,
      "▁والخدمات": 6941,
      "▁الجمع": 6942,
      "▁الانتقال": 6943,
      "▁ند": 6944,
      "▁استهلاك": 6945,
      "▁المعروف": 6946,
      "▁الشمالية": 6947,
      "▁لحم": 6948,
      "▁حاليا": 6949,
      "▁الكلمات": 6950,
      "جميع": 6951,
      "▁لسنة": 6952,
      "▁إنجاز": 6953,
      "▁ميت": 6954,
      "▁النتيجة": 6955,
      "ast": 6956,
      "ينات": 6957,
      "صانع": 6958,
      "▁4.": 6959,
      "ضاءة": 6960,
      "▁يتمتع": 6961,
      "طوبة": 6962,
      "▁ماء": 6963,
      "▁المهندس": 6964,
      "▁متن": 6965,
      "▁متخصص": 6966,
      "ist": 6967,
      "أثير": 6968,
      "ناطي": 6969,
      "▁شرائ": 6970,
      "▁الخلف": 6971,
      "▁يجد": 6972,
      "▁يرغب": 6973,
      "▁تدريب": 6974,
      "نادق": 6975,
      "فيز": 6976,
      "▁وصلت": 6977,
      "جهات": 6978,
      "هَا": 6979,
      "▁خلط": 6980,
      "▁تخزين": 6981,
      "ضب": 6982,
      "▁لمعرفة": 6983,
      "ليون": 6984,
      "▁صديق": 6985,
      "▁انواع": 6986,
      "▁بموجب": 6987,
      "▁2011": 6988,
      "▁المرضى": 6989,
      "▁يقت": 6990,
      "ؤها": 6991,
      "يله": 6992,
      "قاطعة": 6993,
      "ورج": 6994,
      "▁المسجد": 6995,
      "▁احد": 6996,
      "صفح": 6997,
      "▁البرلمان": 6998,
      "▁والض": 6999,
      "▁الإيط": 7000,
      "ديك": 7001,
      "▁الإخ": 7002,
      "▁مميزة": 7003,
      "▁أسماء": 7004,
      "ust": 7005,
      "ال،": 7006,
      "حايا": 7007,
      "شلونة": 7008,
      "**": 7009,
      "ff": 7010,
      "▁تعاني": 7011,
      "▁البنوك": 7012,
      "ِنَّ": 7013,
      "▁وتحديد": 7014,
      "▁فسي": 7015,
      "▁فئة": 7016,
      "▁البحرية": 7017,
      "▁r": 7018,
      "▁ناد": 7019,
      "▁تتبع": 7020,
      "تان": 7021,
      "▁الإسرائيلية": 7022,
      "▁طاقة": 7023,
      "▁ألعاب": 7024,
      "▁بالض": 7025,
      "ساوي": 7026,
      "خدم": 7027,
      "▁وإنما": 7028,
      "▁جدة": 7029,
      "▁غرف": 7030,
      "تمت": 7031,
      "ُول": 7032,
      "▁ربط": 7033,
      "▁ويع": 7034,
      "وست": 7035,
      "َاء": 7036,
      "▁الحرارية": 7037,
      "▁اخ": 7038,
      "th": 7039,
      "▁اللبنانية": 7040,
      "▁السماء": 7041,
      "\nيمكن": 7042,
      "كافحة": 7043,
      "يفون": 7044,
      "▁تكاليف": 7045,
      "▁المسرح": 7046,
      "سجيل": 7047,
      "غان": 7048,
      "▁سيما": 7049,
      "5-": 7050,
      "▁وأضاف": 7051,
      "▁للحفاظ": 7052,
      "▁الجامعات": 7053,
      "▁الاقت": 7054,
      "ذاكرة": 7055,
      "ْع": 7056,
      "خار": 7057,
      "▁البدء": 7058,
      "▁تجارية": 7059,
      "▁الفتاة": 7060,
      "▁ترامب": 7061,
      "▁منجم": 7062,
      "▁نوعية": 7063,
      "▁عليكم": 7064,
      "▁الزراعة": 7065,
      "▁العاملين": 7066,
      "▁أبطال": 7067,
      "▁سبح": 7068,
      "33": 7069,
      "▁قبول": 7070,
      "▁المعي": 7071,
      "▁الثقة": 7072,
      "▁الهلال": 7073,
      "▁السج": 7074,
      "▁ورقة": 7075,
      "ود،": 7076,
      "▁تصنيف": 7077,
      "▁الذكية": 7078,
      "شم": 7079,
      "▁تسليم": 7080,
      "▁الصراع": 7081,
      "▁&": 7082,
      "▁اللواء": 7083,
      "فين": 7084,
      "pt": 7085,
      ":\nال": 7086,
      "▁الثدي": 7087,
      "غار": 7088,
      "▁الخروج": 7089,
      "▁أعلا": 7090,
      "▁شحن": 7091,
      "▁ويح": 7092,
      "▁جه": 7093,
      "بادة": 7094,
      "▁يتمكن": 7095,
      "▁×": 7096,
      "▁قمت": 7097,
      "▁تواصل": 7098,
      "▁خطط": 7099,
      "iz": 7100,
      "▁النائب": 7101,
      "▁مأ": 7102,
      "▁صعوبة": 7103,
      "فذة": 7104,
      "ريا": 7105,
      "يراً": 7106,
      "▁31": 7107,
      "▁الانتهاء": 7108,
      "وتا": 7109,
      "▁المسار": 7110,
      "ee": 7111,
      "▁قابلة": 7112,
      "aw": 7113,
      "▁الدخل": 7114,
      "av": 7115,
      "▁الملفات": 7116,
      "▁وتعزيز": 7117,
      "▁قياس": 7118,
      "▁يو": 7119,
      "500": 7120,
      "▁الكاتب": 7121,
      "ِع": 7122,
      "▁\\": 7123,
      "▁بحضور": 7124,
      "\nوأ": 7125,
      "▁حياته": 7126,
      "جموعات": 7127,
      "▁عما": 7128,
      "سبانيا": 7129,
      "▁العراقية": 7130,
      "▁ملفات": 7131,
      "▁ونت": 7132,
      "▁يعتقد": 7133,
      "زوج": 7134,
      "▁رسمي": 7135,
      "▁القاعدة": 7136,
      "▁بدقة": 7137,
      "▁عائ": 7138,
      "هاجم": 7139,
      "ُهُ": 7140,
      "▁للمس": 7141,
      "▁السهل": 7142,
      "▁الطيران": 7143,
      "▁وتحسين": 7144,
      "▁سياسية": 7145,
      "▁الأهداف": 7146,
      "▁شيوع": 7147,
      "▁تراجع": 7148,
      "▁والي": 7149,
      "ياج": 7150,
      "▁تفعل": 7151,
      "يمكن": 7152,
      "▁بالتعاون": 7153,
      "نون": 7154,
      "ضمام": 7155,
      "وهر": 7156,
      "▁بأكمل": 7157,
      "▁بإن": 7158,
      "▁بعدم": 7159,
      "▁الطبيعة": 7160,
      "▁الرياضة": 7161,
      "رسوم": 7162,
      "▁فتاة": 7163,
      "ويف": 7164,
      "▁لتق": 7165,
      ".\nوال": 7166,
      "صير": 7167,
      "▁%": 7168,
      "gle": 7169,
      "▁واشنطن": 7170,
      "▁مواطن": 7171,
      "▁سلمان": 7172,
      "▁مكة": 7173,
      "▁بريط": 7174,
      "فلت": 7175,
      "وادث": 7176,
      "اً.": 7177,
      "▁العا": 7178,
      "▁الأسد": 7179,
      "▁كسر": 7180,
      "▁وجهة": 7181,
      "▁العصر": 7182,
      "▁والثق": 7183,
      "ows": 7184,
      "▁الفيلم": 7185,
      "▁بمجرد": 7186,
      "ard": 7187,
      "وزيع": 7188,
      "▁النفطية": 7189,
      "▁المفر": 7190,
      "▁لاين": 7191,
      "▁بالتأكيد": 7192,
      "ريطة": 7193,
      "▁تهدف": 7194,
      "▁الكروم": 7195,
      "▁به،": 7196,
      ".\n(": 7197,
      "صادر": 7198,
      "▁الإصلاح": 7199,
      "▁الرابعة": 7200,
      "▁مالك": 7201,
      "▁Com": 7202,
      "▁رئيسي": 7203,
      "ord": 7204,
      "▁الفائدة": 7205,
      "▁رضي": 7206,
      "▁النموذج": 7207,
      "▁القادم": 7208,
      "▁كلم": 7209,
      "▁المميزة": 7210,
      "▁العدوان": 7211,
      "مارسات": 7212,
      "▁الصيانة": 7213,
      "▁المتحدة،": 7214,
      "جزء": 7215,
      "▁سيف": 7216,
      "▁قرارات": 7217,
      "▁أراد": 7218,
      "▁المتقدمة": 7219,
      "ِكَ": 7220,
      "▁يواجه": 7221,
      "▁الأي": 7222,
      "▁التربة": 7223,
      "▁الفرصة": 7224,
      "▁العلامات": 7225,
      "اغ": 7226,
      "▁وربما": 7227,
      "ابير": 7228,
      "▁ومعدات": 7229,
      "▁سكن": 7230,
      "▁للقيام": 7231,
      "ادثة": 7232,
      "▁أض": 7233,
      "مراض": 7234,
      "▁[ال": 7235,
      "▁الفض": 7236,
      "▁حار": 7237,
      "▁الدموية": 7238,
      "تزاز": 7239,
      "▁تتعلق": 7240,
      "صورة": 7241,
      "▁الأميركية": 7242,
      "▁جمهورية": 7243,
      "ميت": 7244,
      "َرْ": 7245,
      "▁سورة": 7246,
      "▁القطع": 7247,
      "ولايات": 7248,
      "▁غضون": 7249,
      "▁عزل": 7250,
      "▁ممثل": 7251,
      "▁تور": 7252,
      "ئوية": 7253,
      "هان": 7254,
      "شأ": 7255,
      "هالي": 7256,
      "▁Al": 7257,
      "▁صي": 7258,
      "▁التمويل": 7259,
      "▁يتضمن": 7260,
      "▁نفسي": 7261,
      "باحث": 7262,
      "▁قادرة": 7263,
      "▁تجار": 7264,
      "▁لغة": 7265,
      "▁خبرة": 7266,
      "49": 7267,
      "▁الصد": 7268,
      "▁اللبناني": 7269,
      "▁لحظة": 7270,
      "و.": 7271,
      "ith": 7272,
      "\nد": 7273,
      "▁منك": 7274,
      "نه": 7275,
      "▁الشاب": 7276,
      "ورها": 7277,
      "39": 7278,
      "ry": 7279,
      "وائر": 7280,
      "▁والآ": 7281,
      "▁له،": 7282,
      "▁عربية": 7283,
      "▁عودة": 7284,
      "ru": 7285,
      "ليد": 7286,
      "▁بجانب": 7287,
      "▁البول": 7288,
      "▁فكر": 7289,
      "▁زر": 7290,
      "▁ببساطة": 7291,
      "▁عط": 7292,
      "▁الطين": 7293,
      "▁الراحة": 7294,
      "iv": 7295,
      "▁مصر،": 7296,
      "ماط": 7297,
      "▁الشديد": 7298,
      "...\n": 7299,
      "▁العنف": 7300,
      "واصفات": 7301,
      "برت": 7302,
      "▁كلّ": 7303,
      "▁الأسئلة": 7304,
      "▁مبيعات": 7305,
      "▁عنصر": 7306,
      "86": 7307,
      "َّذ": 7308,
      "ide": 7309,
      "▁موت": 7310,
      "▁الأوروبية": 7311,
      "▁وتخ": 7312,
      "▁تشت": 7313,
      "▁يعطي": 7314,
      "▁هوا": 7315,
      "▁تفا": 7316,
      "▁الأكا": 7317,
      "شفيات": 7318,
      "▁والأن": 7319,
      "▁مثال": 7320,
      "▁الحاج": 7321,
      "▁الحليب": 7322,
      "▁يشكل": 7323,
      "شارت": 7324,
      "برامج": 7325,
      "▁الخي": 7326,
      "▁مناق": 7327,
      "بوت": 7328,
      "ناطيسي": 7329,
      "نحن": 7330,
      "▁الفا": 7331,
      "▁التقليدية": 7332,
      "▁تماما": 7333,
      "▁أغلب": 7334,
      "ومنيوم": 7335,
      "▁تتمكن": 7336,
      "▁الشمال": 7337,
      "▁يحاول": 7338,
      "الفة": 7339,
      "▁الأعضاء": 7340,
      "▁الموافق": 7341,
      "بتد": 7342,
      "▁ستة": 7343,
      "▁بوك": 7344,
      "▁more": 7345,
      "غنيز": 7346,
      "▁شارع": 7347,
      "▁أقرب": 7348,
      "▁وكيل": 7349,
      "لفزيون": 7350,
      "▁تعيش": 7351,
      "ربات": 7352,
      "وتيوب": 7353,
      "duct": 7354,
      "ادمية": 7355,
      "▁فوز": 7356,
      "▁ليلة": 7357,
      "سلة": 7358,
      "▁نبات": 7359,
      "وائح": 7360,
      "▁لذلك،": 7361,
      "/h": 7362,
      "▁الحسن": 7363,
      "▁أصدر": 7364,
      "ؤه": 7365,
      "▁الباز": 7366,
      "نات": 7367,
      "▁للغ": 7368,
      "▁الانق": 7369,
      "▁الرابط": 7370,
      "تملة": 7371,
      "▁معق": 7372,
      "▁حمد": 7373,
      "▁أحداث": 7374,
      "▁بعنوان": 7375,
      "كاتب": 7376,
      "▁pe": 7377,
      "▁السوداء": 7378,
      "▁مزود": 7379,
      "▁ماي": 7380,
      "ريقية": 7381,
      "si": 7382,
      "َةِ": 7383,
      "▁سك": 7384,
      "▁الدكت": 7385,
      "▁شعبية": 7386,
      "▁المنازل": 7387,
      "▁نظرًا": 7388,
      "\nش": 7389,
      "▁قيد": 7390,
      "▁محددة": 7391,
      "▁الفساد": 7392,
      "▁مصالح": 7393,
      "▁يمنع": 7394,
      "هى": 7395,
      "▁بالطبع": 7396,
      "▁197": 7397,
      "▁الضرائب": 7398,
      "▁عسكرية": 7399,
      "▁مؤسسات": 7400,
      "▁التعبير": 7401,
      "▁يضمن": 7402,
      ".\nالأ": 7403,
      "▁لنفس": 7404,
      "شيخ": 7405,
      "دريب": 7406,
      "▁ويكي": 7407,
      "▁الأفكار": 7408,
      "عال": 7409,
      "▁إغلاق": 7410,
      "▁أوراق": 7411,
      "▁مشيرا": 7412,
      "يداع": 7413,
      "َذ": 7414,
      "▁x": 7415,
      "▁كلها": 7416,
      "وضة": 7417,
      "شى": 7418,
      "▁صل": 7419,
      "▁إِ": 7420,
      "▁محلية": 7421,
      "▁الحرة": 7422,
      "ارئ": 7423,
      "▁رغ": 7424,
      "▁تعود": 7425,
      "▁سحب": 7426,
      "▁تكنولوجيا": 7427,
      "▁جماعة": 7428,
      "▁الطويل": 7429,
      "حكام": 7430,
      "خصة": 7431,
      "▁al": 7432,
      "▁الخبراء": 7433,
      "����": 7434,
      "▁الأصول": 7435,
      "▁لمواجهة": 7436,
      "▁الآثار": 7437,
      "▁النحو": 7438,
      "▁الألمانية": 7439,
      "جري": 7440,
      "▁الرؤية": 7441,
      "▁الجير": 7442,
      "▁تأسيس": 7443,
      "▁تذكر": 7444,
      "نيه": 7445,
      "▁المركزية": 7446,
      "▁خلفية": 7447,
      "▁الملح": 7448,
      "خطوة": 7449,
      "لج": 7450,
      "▁النفسية": 7451,
      "▁التحت": 7452,
      "▁الوث": 7453,
      "▁السياحة": 7454,
      "قيد": 7455,
      "البة": 7456,
      "▁لمنع": 7457,
      "▁الزراعية": 7458,
      "ly": 7459,
      "ابا": 7460,
      "▁كانون": 7461,
      "▁ودعم": 7462,
      "▁تأخذ": 7463,
      "▁هن": 7464,
      "▁بيروت": 7465,
      "▁بعمل": 7466,
      "▁الرياضي": 7467,
      "▁مورد": 7468,
      "▁والمش": 7469,
      "▁النه": 7470,
      "▁أحب": 7471,
      "▁لمت": 7472,
      "قسم": 7473,
      "سه": 7474,
      "سيارات": 7475,
      "ack": 7476,
      "▁دينار": 7477,
      "▁يتيح": 7478,
      "▁الحظ": 7479,
      "▁تمتلك": 7480,
      "ax": 7481,
      "واريخ": 7482,
      "▁لعلاج": 7483,
      "ليلة": 7484,
      "▁ورئيس": 7485,
      "شمل": 7486,
      "▁أور": 7487,
      "طارات": 7488,
      "؟\n-": 7489,
      "▁الذرة": 7490,
      "▁الترا": 7491,
      "▁برئاسة": 7492,
      "▁مصغرة": 7493,
      "▁بتقديم": 7494,
      "▁المطحنة": 7495,
      "▁شركتنا": 7496,
      "▁بكر": 7497,
      "▁التغذية": 7498,
      "▁جدوى": 7499,
      "▁ميزة": 7500,
      "▁البيض": 7501,
      "▁th": 7502,
      "وارئ": 7503,
      "▁موظف": 7504,
      "▁كف": 7505,
      "طفل": 7506,
      "▁النهائية": 7507,
      "ماعيل": 7508,
      "▁المرة": 7509,
      "▁تحول": 7510,
      "▁السينما": 7511,
      "]\n": 7512,
      "▁قضايا": 7513,
      "جت": 7514,
      "بيان": 7515,
      "مائة": 7516,
      ".\nا": 7517,
      "▁قليلة": 7518,
      "اجم": 7519,
      "▁العظيم": 7520,
      "2022": 7521,
      "▁الخطوط": 7522,
      "فاوضات": 7523,
      "▁للبيع,": 7524,
      "ظى": 7525,
      "▁لحماية": 7526,
      "▁'": 7527,
      "▁الإعداد": 7528,
      "َّى": 7529,
      ".\nوذكر": 7530,
      "▁الاعتماد": 7531,
      "▁النقاط": 7532,
      "▁وتحقيق": 7533,
      "▁الترب": 7534,
      "▁فائ": 7535,
      "▁المعدة": 7536,
      "▁العضلات": 7537,
      "▁فج": 7538,
      "واه": 7539,
      "قلق": 7540,
      "▁الأمة": 7541,
      "▁سهل": 7542,
      "▁الروح": 7543,
      "▁فضلا": 7544,
      "▁سري": 7545,
      "▁فرد": 7546,
      "▁مطرقة": 7547,
      "▁التمر": 7548,
      "▁نكون": 7549,
      "▁ابو": 7550,
      "▁الهجوم": 7551,
      "▁مواصفات": 7552,
      "▁تتمتع": 7553,
      "▁عائلة": 7554,
      "▁كرات": 7555,
      "قاق": 7556,
      "▁النَّ": 7557,
      "▁واع": 7558,
      "▁ويل": 7559,
      "هت": 7560,
      "▁طبيعة": 7561,
      "▁لشراء": 7562,
      "▁ليت": 7563,
      "كشاف": 7564,
      "▁العهد": 7565,
      "وضيح": 7566,
      "▁حديد": 7567,
      "▁المتحدث": 7568,
      "▁الاكت": 7569,
      "oogle": 7570,
      "▁اليهود": 7571,
      ".\nهذا": 7572,
      "▁المستشفى": 7573,
      "▁لها،": 7574,
      "▁توصيل": 7575,
      "▁معاي": 7576,
      "ؤسسة": 7577,
      "ؤكد": 7578,
      "▁ومنت": 7579,
      "▁الميد": 7580,
      "▁مسلم": 7581,
      "▁حضر": 7582,
      "▁الحيوية": 7583,
      "per": 7584,
      "ضاً": 7585,
      "▁الفم": 7586,
      "▁الملكية": 7587,
      "▁الفضاء": 7588,
      "▁عَلَيْ": 7589,
      "▁المحيط": 7590,
      "▁Pl": 7591,
      "ah": 7592,
      "قليمي": 7593,
      "▁تشهد": 7594,
      "▁الرئا": 7595,
      "▁بعدها": 7596,
      "w.": 7597,
      "ئاب": 7598,
      "▁نفسه،": 7599,
      "▁الإطار": 7600,
      "بلا": 7601,
      "▁تأجير": 7602,
      "▁مقدم": 7603,
      "▁ببعض": 7604,
      "▁المحرك": 7605,
      "▁الغبار": 7606,
      "▁ثال": 7607,
      "هيد": 7608,
      "▁الشرعية": 7609,
      "▁مثالي": 7610,
      "لتزم": 7611,
      "▁تعالى:": 7612,
      "نة،": 7613,
      "▁بعضهم": 7614,
      "▁المعم": 7615,
      "▁افتتاح": 7616,
      "▁لإعادة": 7617,
      "▁حصلت": 7618,
      "قائمة": 7619,
      "▁ففي": 7620,
      "▁الجزيرة": 7621,
      "▁إنّ": 7622,
      "خلال": 7623,
      "▁مكون": 7624,
      "▁استعمال": 7625,
      "▁تركيز": 7626,
      ".\nيتم": 7627,
      "▁عباس": 7628,
      "▁الهواتف": 7629,
      "▁الأصلي": 7630,
      "جوز": 7631,
      "▁الدراسي": 7632,
      "شاشة": 7633,
      "▁المراه": 7634,
      "هيار": 7635,
      "▁الفولاذ": 7636,
      "وله": 7637,
      "▁التابع": 7638,
      "هدد": 7639,
      "▁سوري": 7640,
      "▁التخطيط": 7641,
      "▁السلامة": 7642,
      "طع": 7643,
      "▁الساخن": 7644,
      "▁للمستخدم": 7645,
      "ٍ،": 7646,
      "▁الغربي": 7647,
      "▁اليس": 7648,
      "▁بناءً": 7649,
      "▁ومش": 7650,
      "▁جهد": 7651,
      "ني،": 7652,
      "▁مكعب": 7653,
      "فراد": 7654,
      "▁الأنواع": 7655,
      "▁الاسلام": 7656,
      "▁المعنية": 7657,
      "ظبي": 7658,
      "▁سلم": 7659,
      "▁انس": 7660,
      "▁انقر": 7661,
      "▁اثنين": 7662,
      "▁الولادة": 7663,
      "ساط": 7664,
      "▁تعب": 7665,
      "▁سورية": 7666,
      "▁القومي": 7667,
      "▁بمس": 7668,
      "▁مستمر": 7669,
      "▁الناتج": 7670,
      "▁تقريبًا": 7671,
      "▁الطا": 7672,
      "شيط": 7673,
      "▁إلخ": 7674,
      "▁الصاد": 7675,
      "▁اللهم": 7676,
      "▁مرب": 7677,
      "▁فوري": 7678,
      "▁لاستخدام": 7679,
      "▁أفكار": 7680,
      "▁يمتلك": 7681,
      "▁الماس": 7682,
      "▁المرتبطة": 7683,
      "▁com": 7684,
      "▁المقاوم": 7685,
      "▁شعار": 7686,
      "انى": 7687,
      "ينو": 7688,
      "▁مخاطر": 7689,
      "▁نن": 7690,
      "ظهار": 7691,
      "وضحت": 7692,
      "▁حرص": 7693,
      "▁خي": 7694,
      "indows": 7695,
      "▁الهر": 7696,
      "▁الأمين": 7697,
      "▁التحالف": 7698,
      "67": 7699,
      "▁هى": 7700,
      "▁تخصيص": 7701,
      "▁الذكاء": 7702,
      "▁بأسعار": 7703,
      "▁سلوك": 7704,
      "▁التخصص": 7705,
      "صوص": 7706,
      "▁السطح": 7707,
      "اوف": 7708,
      "▁استبدال": 7709,
      "▁المسيح": 7710,
      "▁الإيراني": 7711,
      ":0": 7712,
      "▁نمط": 7713,
      "▁الشارع": 7714,
      "فيق": 7715,
      "▁82": 7716,
      "▁العقود": 7717,
      "▁للجميع": 7718,
      "achin": 7719,
      "▁ظهرت": 7720,
      "▁واقع": 7721,
      "عايير": 7722,
      "▁الآية": 7723,
      "▁ht": 7724,
      "▁مقدمة": 7725,
      "▁عقود": 7726,
      "▁الحمراء": 7727,
      "▁الإضاف": 7728,
      "▁الظهر": 7729,
      "▁الضر": 7730,
      "▁جوز": 7731,
      "▁الكهربائي": 7732,
      ".\nبعد": 7733,
      "▁الرد": 7734,
      "-20": 7735,
      "▁عوامل": 7736,
      "▁ch": 7737,
      "وكالة": 7738,
      "▁معهم": 7739,
      "▁كنا": 7740,
      "▁موجودة": 7741,
      "ّت": 7742,
      "▁2000": 7743,
      "▁والإن": 7744,
      "▁جوجل": 7745,
      "▁تأكيد": 7746,
      "▁المقالة": 7747,
      "▁التسويق": 7748,
      "▁تنمية": 7749,
      "هادات": 7750,
      "▁تبقى": 7751,
      "ضائع": 7752,
      "روي": 7753,
      "▁الاختبار": 7754,
      "▁الشتاء": 7755,
      "▁وَل": 7756,
      "أمل": 7757,
      "▁لنقل": 7758,
      "2021": 7759,
      "▁العروض": 7760,
      "قدام": 7761,
      "▁أمل": 7762,
      "▁ومد": 7763,
      "▁مقاطع": 7764,
      "▁ثمن": 7765,
      "▁ورق": 7766,
      "▁مراجعة": 7767,
      "▁برشلونة": 7768,
      "▁price": 7769,
      "▁تجديد": 7770,
      "▁الربيع": 7771,
      "▁كربونات": 7772,
      "َأ": 7773,
      "▁تضمن": 7774,
      "لاقات": 7775,
      "▁وأنه": 7776,
      "▁شرطة": 7777,
      "ذى": 7778,
      "▁لند": 7779,
      "▁يشمل": 7780,
      "▁منازل": 7781,
      "▁استش": 7782,
      "▁الدرجة": 7783,
      "▁الفنانة": 7784,
      "▁الكيميائية": 7785,
      "▁لأس": 7786,
      ".\nوكانت": 7787,
      "▁المنزلية": 7788,
      "▁و”": 7789,
      "▁العام،": 7790,
      "▁المائة": 7791,
      "▁الاخ": 7792,
      "▁وسيلة": 7793,
      "▁بالماء": 7794,
      "▁رعاية": 7795,
      "\nإذا": 7796,
      "▁متط": 7797,
      "▁هند": 7798,
      "كاة": 7799,
      "▁العش": 7800,
      "▁صفوف": 7801,
      "\n(": 7802,
      "بيانات": 7803,
      "▁الأطباء": 7804,
      "ft": 7805,
      "▁السابع": 7806,
      "▁الدينية": 7807,
      "▁المعارضة": 7808,
      "........": 7809,
      "▁خال": 7810,
      "▁الخبز": 7811,
      "▁وجدت": 7812,
      "▁يرجى": 7813,
      "وقال": 7814,
      "▁خطأ": 7815,
      "▁التجربة": 7816,
      "▁يأخذ": 7817,
      "راقب": 7818,
      "▁سهولة": 7819,
      "▁تابع": 7820,
      "▁العادي": 7821,
      "▁الليم": 7822,
      "▁والتق": 7823,
      "▁اك": 7824,
      "▁كله": 7825,
      "▁اخر": 7826,
      "وعي": 7827,
      "▁مور": 7828,
      "اردة": 7829,
      "بقاء": 7830,
      "حته": 7831,
      "▁حصول": 7832,
      "▁كثيرا": 7833,
      "▁سوء": 7834,
      "▁أخرى.": 7835,
      "▁زا": 7836,
      "▁اتفاقية": 7837,
      "سى": 7838,
      "▁ar": 7839,
      "وفق": 7840,
      "▁الوك": 7841,
      "▁للمت": 7842,
      "▁اجل": 7843,
      "فة،": 7844,
      "زو": 7845,
      "▁مثير": 7846,
      "خصائص": 7847,
      "▁إيطاليا": 7848,
      "▁مفر": 7849,
      "▁أون": 7850,
      "▁أعد": 7851,
      "▁الفلسطينيين": 7852,
      "طرية": 7853,
      "▁فري": 7854,
      "▁يحي": 7855,
      "ُد": 7856,
      "▁المذكورة": 7857,
      "88": 7858,
      "يرًا": 7859,
      "▁(ب": 7860,
      "جمال": 7861,
      "▁لتجهيز": 7862,
      "▁غياب": 7863,
      "▁الصلبة": 7864,
      "ex": 7865,
      "td": 7866,
      "▁أقدم": 7867,
      "رادة": 7868,
      "▁آمن": 7869,
      "يمون": 7870,
      "are": 7871,
      "كتابة": 7872,
      "3)": 7873,
      "▁المعالجة": 7874,
      "▁جبل": 7875,
      "قاعد": 7876,
      "صرة": 7877,
      "▁الخضراء": 7878,
      "صيب": 7879,
      ".\nوتابع": 7880,
      "▁زوجها": 7881,
      "ستمر": 7882,
      "▁وعندما": 7883,
      "▁مصر.": 7884,
      "▁أَن": 7885,
      ".\n2.": 7886,
      "عمق": 7887,
      "وزير": 7888,
      "▁سلام": 7889,
      "▁الرج": 7890,
      "تام": 7891,
      "▁فشل": 7892,
      "▁العقاري": 7893,
      "ائية،": 7894,
      "▁يتحدث": 7895,
      "▁الجيد": 7896,
      "▁السيدة": 7897,
      "طول": 7898,
      "▁لتحسين": 7899,
      "▁طبيعية": 7900,
      "▁سياسي": 7901,
      "▁تسعى": 7902,
      "▁وتوفير": 7903,
      "▁More\n": 7904,
      "▁إلغاء": 7905,
      "▁ونا": 7906,
      "▁الاستراتيجية": 7907,
      "▁يدفع": 7908,
      "اريو": 7909,
      "▁الملكي": 7910,
      "▁الأكس": 7911,
      "▁الحص": 7912,
      "ْتُ": 7913,
      "عه": 7914,
      "▁عليه،": 7915,
      "▁الثقافية": 7916,
      "▁فلم": 7917,
      "▁جراء": 7918,
      ".\nاقرأ": 7919,
      "▁(يونيو": 7920,
      "hing": 7921,
      "▁غرامة": 7922,
      "▁مقتل": 7923,
      "▁محطم.": 7924,
      "▁باللغة": 7925,
      "ین": 7926,
      "▁And": 7927,
      "▁عبدالعزيز": 7928,
      "ْس": 7929,
      "▁تويتر": 7930,
      "ect": 7931,
      "▁الشؤون": 7932,
      "كنت": 7933,
      "▁ويف": 7934,
      "▁الانس": 7935,
      "▁العناية": 7936,
      "▁لتعزيز": 7937,
      "▁الرغبة": 7938,
      "فاتيح": 7939,
      "▁الربح": 7940,
      "▁مقت": 7941,
      "▁الوقود": 7942,
      "عيين": 7943,
      "▁الذكر": 7944,
      "▁معايير": 7945,
      "▁تصوير": 7946,
      "ركان": 7947,
      "▁المحدودة": 7948,
      "▁فعاليات": 7949,
      "▁الانف": 7950,
      "▁بجميع": 7951,
      "▁بحلول": 7952,
      "ئة،": 7953,
      "▁بتوقيت": 7954,
      "▁أسلوب": 7955,
      "47": 7956,
      "▁العمل،": 7957,
      "ديس": 7958,
      "▁تقارير": 7959,
      "eng": 7960,
      "▁ÙØ": 7961,
      "سيك": 7962,
      "▁الرسول": 7963,
      "▁ولل": 7964,
      "▁Ar": 7965,
      "▁متى": 7966,
      "▁32": 7967,
      "▁يشت": 7968,
      "▁“إ": 7969,
      "▁وفقاً": 7970,
      "▁الخش": 7971,
      "رافق": 7972,
      "▁الصحافة": 7973,
      "▁يضم": 7974,
      "▁يجري": 7975,
      "▁العملة": 7976,
      "▁للمن": 7977,
      "▁فاصل": 7978,
      "▁يضع": 7979,
      "آكل": 7980,
      "▁العاملة": 7981,
      "▁الأرز": 7982,
      ".\nعلى": 7983,
      "▁موسى": 7984,
      "▁واخت": 7985,
      "▁للوصول": 7986,
      "▁اون": 7987,
      "سيج": 7988,
      "▁وتف": 7989,
      "▁الحدث": 7990,
      "▁عام،": 7991,
      "\nإن": 7992,
      "▁سعة": 7993,
      "▁سياق": 7994,
      "▁المسؤولية": 7995,
      "▁الكتابة": 7996,
      "▁خفض": 7997,
      "حسن": 7998,
      "▁السلوك": 7999
    },
    "merges": [
      [
        "ا",
        "ل"
      ],
      [
        "▁",
        "ال"
      ],
      [
        "▁",
        "م"
      ],
      [
        "▁",
        "و"
      ],
      [
        "▁",
        "ب"
      ],
      [
        "▁",
        "ف"
      ],
      [
        "▁",
        "ل"
      ],
      [
        "▁",
        "أ"
      ],
      [
        "ا",
        "ت"
      ],
      [
        "▁ال",
        "م"
      ],
      [
        "ي",
        "ة"
      ],
      [
        "▁",
        "ت"
      ],
      [
        "▁",
        "ع"
      ],
      [
        "ا",
        "ر"
      ],
      [
        "▁ف",
        "ي"
      ],
      [
        "ا",
        "ن"
      ],
      [
        "▁م",
        "ن"
      ],
      [
        "▁",
        "ي"
      ],
      [
        "ي",
        "ن"
      ],
      [
        "ل",
        "ى"
      ],
      [
        "ا",
        "م"
      ],
      [
        "▁",
        "ك"
      ],
      [
        "▁",
        "إ"
      ],
      [
        "ه",
        "ا"
      ],
      [
        "ي",
        "ر"
      ],
      [
        "▁ال",
        "ت"
      ],
      [
        ".",
        "\n"
      ],
      [
        "▁و",
        "ال"
      ],
      [
        "و",
        "ل"
      ],
      [
        "▁ال",
        "أ"
      ],
      [
        "س",
        "ت"
      ],
      [
        "و",
        "ن"
      ],
      [
        "▁",
        "ح"
      ],
      [
        "ر",
        "ا"
      ],
      [
        "ن",
        "ا"
      ],
      [
        "ر",
        "ي"
      ],
      [
        "▁ع",
        "لى"
      ],
      [
        "▁",
        "س"
      ],
      [
        "▁",
        "ه"
      ],
      [
        "ل",
        "ا"
      ],
      [
        "▁ال",
        "ع"
      ],
      [
        "م",
        "ا"
      ],
      [
        "ل",
        "ي"
      ],
      [
        "▁",
        "ق"
      ],
      [
        "د",
        "ي"
      ],
      [
        "▁ل",
        "ل"
      ],
      [
        "▁",
        "ا"
      ],
      [
        "و",
        "ا"
      ],
      [
        "▁ال",
        "ح"
      ],
      [
        "و",
        "ر"
      ],
      [
        "▁",
        "ن"
      ],
      [
        "▁أ",
        "ن"
      ],
      [
        "▁",
        "ج"
      ],
      [
        "د",
        "ة"
      ],
      [
        "ي",
        "ا"
      ],
      [
        "▁ال",
        "س"
      ],
      [
        "ب",
        "ي"
      ],
      [
        "▁",
        "،"
      ],
      [
        "ا",
        "ب"
      ],
      [
        "ع",
        "د"
      ],
      [
        "▁",
        "خ"
      ],
      [
        "▁",
        "ش"
      ],
      [
        "و",
        "م"
      ],
      [
        "ل",
        "ة"
      ],
      [
        "ل",
        "ك"
      ],
      [
        "▁ال",
        "ج"
      ],
      [
        "ا",
        "ئ"
      ],
      [
        "ار",
        "ة"
      ],
      [
        "▁ب",
        "ال"
      ],
      [
        "▁",
        "د"
      ],
      [
        "ه",
        "م"
      ],
      [
        "▁إ",
        "لى"
      ],
      [
        "▁ال",
        "ف"
      ],
      [
        "ا",
        "ء"
      ],
      [
        "▁",
        "ر"
      ],
      [
        "ر",
        "ة"
      ],
      [
        "ع",
        "ة"
      ],
      [
        "▁م",
        "ع"
      ],
      [
        "▁ع",
        "ن"
      ],
      [
        "ا",
        "د"
      ],
      [
        "▁ال",
        "ق"
      ],
      [
        "ر",
        "ك"
      ],
      [
        "ذ",
        "ا"
      ],
      [
        "▁ال",
        "ش"
      ],
      [
        "▁ال",
        "ب"
      ],
      [
        "م",
        "ي"
      ],
      [
        "م",
        "ل"
      ],
      [
        "▁ال",
        "ك"
      ],
      [
        "▁",
        "ص"
      ],
      [
        "▁ال",
        "إ"
      ],
      [
        "▁",
        "ط"
      ],
      [
        "م",
        "ن"
      ],
      [
        "ا",
        "ف"
      ],
      [
        "و",
        "ق"
      ],
      [
        "▁ال",
        "ص"
      ],
      [
        "▁ال",
        "د"
      ],
      [
        "▁ال",
        "ن"
      ],
      [
        "ً",
        "ا"
      ],
      [
        "ر",
        "ب"
      ],
      [
        "ق",
        "ة"
      ],
      [
        "ك",
        "ن"
      ],
      [
        "▁ال",
        "ا"
      ],
      [
        "▁ال",
        "خ"
      ],
      [
        "م",
        "ة"
      ],
      [
        "ر",
        "و"
      ],
      [
        "ي",
        "ل"
      ],
      [
        "ي",
        "د"
      ],
      [
        ".",
        "."
      ],
      [
        "ت",
        "م"
      ],
      [
        "▁ال",
        "ر"
      ],
      [
        "▁م",
        "ح"
      ],
      [
        "ا",
        "ح"
      ],
      [
        "س",
        "ي"
      ],
      [
        "▁",
        "2"
      ],
      [
        "س",
        "ب"
      ],
      [
        "و",
        "د"
      ],
      [
        "ف",
        "ي"
      ],
      [
        "ع",
        "ل"
      ],
      [
        "ق",
        "د"
      ],
      [
        "ذ",
        "ه"
      ],
      [
        "▁أ",
        "و"
      ],
      [
        "▁",
        "1"
      ],
      [
        "▁الت",
        "ي"
      ],
      [
        "▁م",
        "ا"
      ],
      [
        "ن",
        "ت"
      ],
      [
        "▁و",
        "ت"
      ],
      [
        "ك",
        "ل"
      ],
      [
        "ا",
        "ع"
      ],
      [
        "ب",
        "ر"
      ],
      [
        "و",
        "ي"
      ],
      [
        "ج",
        "ر"
      ],
      [
        "س",
        "ارة"
      ],
      [
        "ق",
        "ي"
      ],
      [
        "ع",
        "ر"
      ],
      [
        "▁ال",
        "ط"
      ],
      [
        "ن",
        "ي"
      ],
      [
        "▁",
        "غ"
      ],
      [
        "و",
        "ب"
      ],
      [
        "▁",
        "("
      ],
      [
        "ذ",
        "لك"
      ],
      [
        "▁ل",
        "ا"
      ],
      [
        "ح",
        "ن"
      ],
      [
        "▁ال",
        "ل"
      ],
      [
        "ح",
        "ت"
      ],
      [
        "▁ال",
        "ذ"
      ],
      [
        "خ",
        "د"
      ],
      [
        "ي",
        "ف"
      ],
      [
        "ا",
        "ص"
      ],
      [
        "▁",
        "آ"
      ],
      [
        "و",
        "ج"
      ],
      [
        "ت",
        "ي"
      ],
      [
        "▁",
        "ان"
      ],
      [
        "م",
        "كن"
      ],
      [
        "س",
        "م"
      ],
      [
        "ل",
        "م"
      ],
      [
        "▁ك",
        "سارة"
      ],
      [
        "▁م",
        "ص"
      ],
      [
        "▁ل",
        "م"
      ],
      [
        "ا",
        "ج"
      ],
      [
        "ت",
        "ح"
      ],
      [
        "ا",
        "ً"
      ],
      [
        "م",
        "ر"
      ],
      [
        "▁ا",
        "ست"
      ],
      [
        "ار",
        "ات"
      ],
      [
        "ب",
        "ل"
      ],
      [
        "ك",
        "ون"
      ],
      [
        "ي",
        "س"
      ],
      [
        "0",
        "0"
      ],
      [
        "و",
        "ف"
      ],
      [
        "▁و",
        "م"
      ],
      [
        "▁ه",
        "ذا"
      ],
      [
        "خ",
        "ر"
      ],
      [
        "ل",
        "ال"
      ],
      [
        "ص",
        "ل"
      ],
      [
        "▁أ",
        "ي"
      ],
      [
        "دي",
        "د"
      ],
      [
        "ج",
        "م"
      ],
      [
        "▁و",
        "أ"
      ],
      [
        "ف",
        "ة"
      ],
      [
        "ير",
        "ة"
      ],
      [
        "س",
        "ا"
      ],
      [
        "ح",
        "د"
      ],
      [
        "▁م",
        "ت"
      ],
      [
        "ية",
        "،"
      ],
      [
        "▁ال",
        "و"
      ],
      [
        "▁",
        "\""
      ],
      [
        "▁ك",
        "ان"
      ],
      [
        "ي",
        "ت"
      ],
      [
        "ك",
        "ر"
      ],
      [
        "ح",
        "ة"
      ],
      [
        "ع",
        "م"
      ],
      [
        "ب",
        "ة"
      ],
      [
        "و",
        "ع"
      ],
      [
        "ق",
        "ت"
      ],
      [
        "▁ه",
        "ذه"
      ],
      [
        "▁ع",
        "لي"
      ],
      [
        "ال",
        "م"
      ],
      [
        "را",
        "ء"
      ],
      [
        "ط",
        "ة"
      ],
      [
        "▁ك",
        "ل"
      ],
      [
        "خ",
        "ت"
      ],
      [
        "ع",
        "ت"
      ],
      [
        ".\n",
        "و"
      ],
      [
        "ب",
        "د"
      ],
      [
        "ه",
        "ر"
      ],
      [
        "ش",
        "ر"
      ],
      [
        "ق",
        "ل"
      ],
      [
        "س",
        "ل"
      ],
      [
        "▁وال",
        "م"
      ],
      [
        "ه",
        "د"
      ],
      [
        "▁ت",
        "ح"
      ],
      [
        "▁ال",
        "ث"
      ],
      [
        "ن",
        "د"
      ],
      [
        "ان",
        "ي"
      ],
      [
        "ال",
        "ي"
      ],
      [
        "▁",
        "ث"
      ],
      [
        "ج",
        "ل"
      ],
      [
        "بي",
        "ع"
      ],
      [
        "ث",
        "ر"
      ],
      [
        "▁",
        "ز"
      ],
      [
        "أ",
        "ن"
      ],
      [
        "▁ه",
        "و"
      ],
      [
        "▁2",
        "0"
      ],
      [
        "س",
        "ة"
      ],
      [
        "ف",
        "ا"
      ],
      [
        "ن",
        "ع"
      ],
      [
        "▁ي",
        "مكن"
      ],
      [
        "▁الذ",
        "ي"
      ],
      [
        "ه",
        "ي"
      ],
      [
        "▁الم",
        "ت"
      ],
      [
        "خ",
        "ص"
      ],
      [
        "ك",
        "ت"
      ],
      [
        "▁ت",
        "ع"
      ],
      [
        "▁ب",
        "ين"
      ],
      [
        "▁الم",
        "ح"
      ],
      [
        "ل",
        "ب"
      ],
      [
        "▁",
        ".."
      ],
      [
        "▁",
        "ذلك"
      ],
      [
        "▁م",
        "ط"
      ],
      [
        "و",
        "س"
      ],
      [
        "\n",
        "-"
      ],
      [
        "رك",
        "ة"
      ],
      [
        "▁",
        "ض"
      ],
      [
        "ست",
        "خد"
      ],
      [
        "ب",
        "ا"
      ],
      [
        "▁و",
        "ي"
      ],
      [
        "ع",
        "ا"
      ],
      [
        "ول",
        "ة"
      ],
      [
        ".\n",
        "-"
      ],
      [
        "و",
        "ت"
      ],
      [
        "خ",
        "ل"
      ],
      [
        "ي",
        "ات"
      ],
      [
        "د",
        "ر"
      ],
      [
        "▁إ",
        "ن"
      ],
      [
        "▁ب",
        "عد"
      ],
      [
        "ف",
        "ض"
      ],
      [
        "▁ل",
        "ت"
      ],
      [
        "▁ال",
        "ي"
      ],
      [
        "ف",
        "س"
      ],
      [
        "د",
        "ا"
      ],
      [
        "▁خ",
        "لال"
      ],
      [
        "ر",
        "ض"
      ],
      [
        "▁",
        "-"
      ],
      [
        "▁ت",
        "م"
      ],
      [
        "ال",
        "ة"
      ],
      [
        "ار",
        "ي"
      ],
      [
        "▁أ",
        "ك"
      ],
      [
        "▁",
        "“"
      ],
      [
        "ي",
        "م"
      ],
      [
        "ك",
        "ان"
      ],
      [
        "ل",
        "ف"
      ],
      [
        "ت",
        "ه"
      ],
      [
        "▁ال",
        "ه"
      ],
      [
        "ك",
        "م"
      ],
      [
        "ق",
        "ا"
      ],
      [
        "ك",
        "س"
      ],
      [
        "ال",
        "ية"
      ],
      [
        "ع",
        "ض"
      ],
      [
        "ع",
        "ب"
      ],
      [
        "▁ب",
        "ش"
      ],
      [
        "إ",
        "ن"
      ],
      [
        "د",
        "م"
      ],
      [
        "ن",
        "ة"
      ],
      [
        "ري",
        "ق"
      ],
      [
        "ر",
        "ق"
      ],
      [
        "▁",
        "."
      ],
      [
        "و",
        "ات"
      ],
      [
        "▁ت",
        "ق"
      ],
      [
        "▁ه",
        "ي"
      ],
      [
        "ا",
        "ض"
      ],
      [
        "▁ي",
        "ت"
      ],
      [
        "▁ال",
        "غ"
      ],
      [
        "▁ب",
        "ن"
      ],
      [
        "▁الح",
        "جر"
      ],
      [
        "▁م",
        "ش"
      ],
      [
        "ي",
        "ث"
      ],
      [
        "▁الم",
        "ن"
      ],
      [
        "َ",
        "ّ"
      ],
      [
        "ج",
        "ة"
      ],
      [
        "ز",
        "ي"
      ],
      [
        "i",
        "n"
      ],
      [
        "ص",
        "ر"
      ],
      [
        "▁وال",
        "ت"
      ],
      [
        "ع",
        "ي"
      ],
      [
        "ط",
        "م"
      ],
      [
        "حن",
        "ة"
      ],
      [
        "اف",
        "ة"
      ],
      [
        "▁الل",
        "ه"
      ],
      [
        "ث",
        "ل"
      ],
      [
        "▁ب",
        "م"
      ],
      [
        "ور",
        "ة"
      ],
      [
        "ام",
        "ة"
      ],
      [
        "و",
        "ض"
      ],
      [
        "ب",
        "ار"
      ],
      [
        "ج",
        "ه"
      ],
      [
        "▁الأ",
        "م"
      ],
      [
        "▁و",
        "ه"
      ],
      [
        "ح",
        "ق"
      ],
      [
        "▁أ",
        "م"
      ],
      [
        "ح",
        "م"
      ],
      [
        "▁",
        "3"
      ],
      [
        "ث",
        "ير"
      ],
      [
        "▁و",
        "ب"
      ],
      [
        "▁م",
        "س"
      ],
      [
        "و",
        "ية"
      ],
      [
        "▁س",
        "ي"
      ],
      [
        "▁لل",
        "م"
      ],
      [
        "ق",
        "ط"
      ],
      [
        "▁ال",
        "ز"
      ],
      [
        "مي",
        "ع"
      ],
      [
        "ئ",
        "يس"
      ],
      [
        "ق",
        "ر"
      ],
      [
        "و",
        "ى"
      ],
      [
        "▁ق",
        "د"
      ],
      [
        "د",
        "ين"
      ],
      [
        "ام",
        "ل"
      ],
      [
        "ت",
        "ها"
      ],
      [
        "▁مح",
        "طم"
      ],
      [
        "عد",
        "ات"
      ],
      [
        "▁ت",
        "ت"
      ],
      [
        "▁",
        "ذ"
      ],
      [
        "نا",
        "ء"
      ],
      [
        "را",
        "ئ"
      ],
      [
        "▁الم",
        "ش"
      ],
      [
        "ط",
        "ر"
      ],
      [
        "و",
        "ز"
      ],
      [
        "ن",
        "ية"
      ],
      [
        "▁و",
        "ا"
      ],
      [
        "▁الأ",
        "س"
      ],
      [
        "▁مط",
        "حنة"
      ],
      [
        "▁ت",
        "ص"
      ],
      [
        "▁ال",
        "آ"
      ],
      [
        "و",
        "ان"
      ],
      [
        "ح",
        "ي"
      ],
      [
        "ز",
        "ة"
      ],
      [
        "▁م",
        "ست"
      ],
      [
        "ج",
        "ب"
      ],
      [
        "▁ح",
        "يث"
      ],
      [
        "▁ت",
        "ن"
      ],
      [
        "▁ت",
        "ج"
      ],
      [
        "▁ب",
        "ي"
      ],
      [
        "▁آ",
        "لة"
      ],
      [
        "ا",
        "ه"
      ],
      [
        "▁عن",
        "د"
      ],
      [
        "ئ",
        "ة"
      ],
      [
        "▁ب",
        "ت"
      ],
      [
        "e",
        "r"
      ],
      [
        "ان",
        "ية"
      ],
      [
        "ف",
        "ع"
      ],
      [
        "\n",
        "ال"
      ],
      [
        "و",
        "ري"
      ],
      [
        "د",
        "د"
      ],
      [
        "▁ع",
        "ام"
      ],
      [
        "▁ي",
        "تم"
      ],
      [
        "ف",
        "ر"
      ],
      [
        "ذه",
        "ب"
      ],
      [
        "ص",
        "ول"
      ],
      [
        "▁الم",
        "ص"
      ],
      [
        "▁الم",
        "ست"
      ],
      [
        "ل",
        "ات"
      ],
      [
        "ك",
        "ي"
      ],
      [
        "ت",
        "ر"
      ],
      [
        "▁",
        ":"
      ],
      [
        "و",
        "ة"
      ],
      [
        "▁ب",
        "ا"
      ],
      [
        "س",
        "ية"
      ],
      [
        "▁ع",
        "مل"
      ],
      [
        "▁ت",
        "ش"
      ],
      [
        "▁لل",
        "بيع"
      ],
      [
        "▁و",
        "س"
      ],
      [
        "▁غ",
        "ير"
      ],
      [
        "▁ك",
        "ما"
      ],
      [
        "فض",
        "ل"
      ],
      [
        "ه",
        "،"
      ],
      [
        "ت",
        "ى"
      ],
      [
        "▁ال",
        "ان"
      ],
      [
        "وق",
        "ع"
      ],
      [
        "ف",
        "ق"
      ],
      [
        "▁ب",
        "د"
      ],
      [
        "ط",
        "ي"
      ],
      [
        "o",
        "n"
      ],
      [
        "ف",
        "ت"
      ],
      [
        "▁ق",
        "بل"
      ],
      [
        "▁أ",
        "س"
      ],
      [
        "▁الا",
        "ست"
      ],
      [
        "▁بش",
        "كل"
      ],
      [
        "a",
        "n"
      ],
      [
        "▁الي",
        "وم"
      ],
      [
        "و",
        "ك"
      ],
      [
        "ب",
        "ح"
      ],
      [
        "▁الم",
        "ع"
      ],
      [
        "▁الع",
        "مل"
      ],
      [
        "▁أي",
        "ض"
      ],
      [
        "ا",
        "ز"
      ],
      [
        "▁الم",
        "س"
      ],
      [
        "▁ل",
        "ه"
      ],
      [
        "▁ي",
        "ع"
      ],
      [
        "ب",
        "ات"
      ],
      [
        "▁ه",
        "نا"
      ],
      [
        "▁ك",
        "ب"
      ],
      [
        "ار",
        "ت"
      ],
      [
        "ـ",
        "ـ"
      ],
      [
        "▁أك",
        "ثر"
      ],
      [
        "ل",
        "ق"
      ],
      [
        "ستخد",
        "م"
      ],
      [
        "▁ب",
        "ر"
      ],
      [
        "و",
        "عة"
      ],
      [
        "أ",
        "س"
      ],
      [
        "سب",
        "ة"
      ],
      [
        "ق",
        "ال"
      ],
      [
        "▁ال",
        "نا"
      ],
      [
        "▁إ",
        "ذا"
      ],
      [
        "ر",
        "ت"
      ],
      [
        "▁ح",
        "تى"
      ],
      [
        "عد",
        "ين"
      ],
      [
        "▁ب",
        "عض"
      ],
      [
        "ص",
        "ف"
      ],
      [
        "قد",
        "م"
      ],
      [
        "لي",
        "م"
      ],
      [
        ".\n",
        "ال"
      ],
      [
        "▁ال",
        "ض"
      ],
      [
        "ع",
        "ية"
      ],
      [
        "رب",
        "ية"
      ],
      [
        "خر",
        "ى"
      ],
      [
        "▁ل",
        "ي"
      ],
      [
        "▁و",
        "لا"
      ],
      [
        "▁ب",
        "ح"
      ],
      [
        "▁و",
        "ج"
      ],
      [
        "▁",
        "5"
      ],
      [
        "ر",
        "ات"
      ],
      [
        "و",
        "دة"
      ],
      [
        "ص",
        "ة"
      ],
      [
        "▁مص",
        "نع"
      ],
      [
        "▁أن",
        "ه"
      ],
      [
        "▁",
        "4"
      ],
      [
        "ر",
        "د"
      ],
      [
        "▁",
        "ست"
      ],
      [
        "▁لل",
        "ت"
      ],
      [
        "ل",
        "س"
      ],
      [
        "▁ط",
        "حن"
      ],
      [
        "اص",
        "ة"
      ],
      [
        "ظ",
        "ام"
      ],
      [
        "▁م",
        "ثل"
      ],
      [
        "ق",
        "ات"
      ],
      [
        "ج",
        "ات"
      ],
      [
        "▁و",
        "ع"
      ],
      [
        "غ",
        "ير"
      ],
      [
        "▁ت",
        "أ"
      ],
      [
        "▁ب",
        "ل"
      ],
      [
        "ر",
        "ح"
      ],
      [
        "▁",
        "نا"
      ],
      [
        "▁الع",
        "الم"
      ],
      [
        "▁م",
        "د"
      ],
      [
        "ك",
        "ة"
      ],
      [
        "▁و",
        "إ"
      ],
      [
        "ي",
        "ج"
      ],
      [
        "▁..",
        "."
      ],
      [
        "▁وال",
        "أ"
      ],
      [
        "ك",
        "ا"
      ],
      [
        "▁م",
        "ج"
      ],
      [
        "2",
        "0"
      ],
      [
        "ع",
        "ار"
      ],
      [
        "▁ي",
        "كون"
      ],
      [
        "▁20",
        "1"
      ],
      [
        "م",
        "ت"
      ],
      [
        "▁الف",
        "ك"
      ],
      [
        "▁الم",
        "وا"
      ],
      [
        "▁و",
        "اح"
      ],
      [
        "r",
        "e"
      ],
      [
        "▁و",
        "ز"
      ],
      [
        "ر",
        "ف"
      ],
      [
        "ب",
        "ت"
      ],
      [
        "▁و",
        "ح"
      ],
      [
        "▁و",
        "ك"
      ],
      [
        "ب",
        "ط"
      ],
      [
        "ل",
        "ام"
      ],
      [
        "ول",
        "ي"
      ],
      [
        "ية",
        "."
      ],
      [
        "ا",
        "ط"
      ],
      [
        "▁",
        ".\n"
      ],
      [
        "▁ع",
        "م"
      ],
      [
        "▁ال",
        "ذهب"
      ],
      [
        "ب",
        "ن"
      ],
      [
        "▁ب",
        "ه"
      ],
      [
        "▁و",
        "ل"
      ],
      [
        "لك",
        "ن"
      ],
      [
        "اب",
        "ة"
      ],
      [
        "▁ج",
        "ميع"
      ],
      [
        "دي",
        "دة"
      ],
      [
        "ز",
        "ل"
      ],
      [
        "ض",
        "ع"
      ],
      [
        "▁و",
        "من"
      ],
      [
        "دي",
        "م"
      ],
      [
        "رك",
        "ات"
      ],
      [
        "وم",
        "ة"
      ],
      [
        "م",
        "د"
      ],
      [
        "ال",
        "ت"
      ],
      [
        "▁خ",
        "ط"
      ],
      [
        "ين",
        "،"
      ],
      [
        "ت",
        "ما"
      ],
      [
        "ها",
        "،"
      ],
      [
        "ول",
        "ا"
      ],
      [
        "ن",
        "س"
      ],
      [
        "▁م",
        "خ"
      ],
      [
        "▁ي",
        "وم"
      ],
      [
        "▁است",
        "خد"
      ],
      [
        "▁علي",
        "ه"
      ],
      [
        "ط",
        "ن"
      ],
      [
        "▁",
        "ات"
      ],
      [
        "▁ت",
        "ط"
      ],
      [
        "▁ف",
        "إن"
      ],
      [
        "▁ف",
        "ى"
      ],
      [
        "ا",
        "س"
      ],
      [
        "قي",
        "ق"
      ],
      [
        "▁ال",
        "ات"
      ],
      [
        "لي",
        "ل"
      ],
      [
        "ر",
        "ج"
      ],
      [
        "م",
        "ال"
      ],
      [
        "▁ل",
        "أ"
      ],
      [
        "ط",
        "ف"
      ],
      [
        "ب",
        "ع"
      ],
      [
        "ع",
        "ود"
      ],
      [
        "ي",
        "ب"
      ],
      [
        "▁ال",
        "بي"
      ],
      [
        "ظ",
        "ر"
      ],
      [
        "ان",
        "ة"
      ],
      [
        "▁و",
        "ن"
      ],
      [
        "ش",
        "ة"
      ],
      [
        "▁الت",
        "ج"
      ],
      [
        "▁ت",
        "حت"
      ],
      [
        "▁و",
        "لكن"
      ],
      [
        "ث",
        "ة"
      ],
      [
        "▁ب",
        "أ"
      ],
      [
        "▁مص",
        "ر"
      ],
      [
        "▁خ",
        "ام"
      ],
      [
        "▁ي",
        "ق"
      ],
      [
        "ه",
        "ل"
      ],
      [
        "▁كان",
        "ت"
      ],
      [
        "▁الت",
        "ح"
      ],
      [
        "▁الم",
        "د"
      ],
      [
        "ع",
        "ات"
      ],
      [
        "a",
        "t"
      ],
      [
        "و",
        "ار"
      ],
      [
        "را",
        "ض"
      ],
      [
        "ك",
        "ية"
      ],
      [
        "▁",
        "t"
      ],
      [
        "e",
        "n"
      ],
      [
        "▁ث",
        "م"
      ],
      [
        "ص",
        "د"
      ],
      [
        "▁ن",
        "فس"
      ],
      [
        "▁ت",
        "د"
      ],
      [
        "م",
        "و"
      ],
      [
        "a",
        "r"
      ],
      [
        "▁م",
        "وا"
      ],
      [
        "ار",
        "ية"
      ],
      [
        "ر",
        "س"
      ],
      [
        "▁الم",
        "نا"
      ],
      [
        "لا",
        "ء"
      ],
      [
        "▁ي",
        "جب"
      ],
      [
        "را",
        "ق"
      ],
      [
        "▁م",
        "ؤ"
      ],
      [
        "▁الم",
        "تح"
      ],
      [
        "ب",
        "ية"
      ],
      [
        "ون",
        "ي"
      ],
      [
        "▁استخد",
        "ام"
      ],
      [
        "ش",
        "ار"
      ],
      [
        "و",
        "ال"
      ],
      [
        "▁هنا",
        "ك"
      ],
      [
        "▁ت",
        "س"
      ],
      [
        "▁الم",
        "ج"
      ],
      [
        "▁و",
        "ق"
      ],
      [
        "▁الع",
        "ام"
      ],
      [
        "▁",
        "–"
      ],
      [
        "▁",
        "C"
      ],
      [
        "من",
        "ت"
      ],
      [
        "وم",
        "ات"
      ],
      [
        "▁الت",
        "ع"
      ],
      [
        "▁م",
        "عدات"
      ],
      [
        "ري",
        "د"
      ],
      [
        "▁",
        "S"
      ],
      [
        "سب",
        "ب"
      ],
      [
        "▁وه",
        "و"
      ],
      [
        "▁ل",
        "أن"
      ],
      [
        "ا",
        "عة"
      ],
      [
        "ض",
        "افة"
      ],
      [
        "را",
        "ج"
      ],
      [
        "▁ال",
        "ى"
      ],
      [
        "ف",
        "ل"
      ],
      [
        "رو",
        "ط"
      ],
      [
        "ئ",
        "ي"
      ],
      [
        "ط",
        "قة"
      ],
      [
        "▁20",
        "2"
      ],
      [
        "ام",
        "ج"
      ],
      [
        "▁",
        "M"
      ],
      [
        "▁ال",
        "وق"
      ],
      [
        "▁ش",
        "ي"
      ],
      [
        "ال",
        "ات"
      ],
      [
        "\n",
        "ت"
      ],
      [
        "ب",
        "ه"
      ],
      [
        "يا",
        "دة"
      ],
      [
        "▁",
        "A"
      ],
      [
        "جم",
        "وعة"
      ],
      [
        "▁ل",
        "كن"
      ],
      [
        "و",
        "ص"
      ],
      [
        "ون",
        "ة"
      ],
      [
        "لا",
        "ح"
      ],
      [
        "مي",
        "ل"
      ],
      [
        "▁الك",
        "رة"
      ],
      [
        "وا",
        "ء"
      ],
      [
        "رو",
        "ع"
      ],
      [
        "نت",
        "اج"
      ],
      [
        "ر",
        "ن"
      ],
      [
        "عم",
        "ال"
      ],
      [
        "و",
        "ح"
      ],
      [
        "▁الب",
        "ح"
      ],
      [
        "▁س",
        "عر"
      ],
      [
        "▁ل",
        "ك"
      ],
      [
        "ط",
        "ا"
      ],
      [
        "عر",
        "ف"
      ],
      [
        "▁الم",
        "نت"
      ],
      [
        "▁س",
        "حق"
      ],
      [
        "ج",
        "د"
      ],
      [
        "▁ح",
        "ول"
      ],
      [
        "▁الت",
        "ن"
      ],
      [
        "▁",
        "6"
      ],
      [
        "▁الم",
        "ط"
      ],
      [
        "▁",
        "ظ"
      ],
      [
        "a",
        "l"
      ],
      [
        "ز",
        "يد"
      ],
      [
        "▁ش",
        "ركة"
      ],
      [
        "جل",
        "س"
      ],
      [
        "ائ",
        "ل"
      ],
      [
        "ج",
        "تما"
      ],
      [
        "▁ر",
        "ئيس"
      ],
      [
        "▁ع",
        "بد"
      ],
      [
        "ع",
        "مل"
      ],
      [
        "▁",
        "«"
      ],
      [
        "م",
        "ار"
      ],
      [
        ".\nو",
        "أ"
      ],
      [
        "▁بال",
        "م"
      ],
      [
        "ا",
        "خل"
      ],
      [
        "ار",
        "ج"
      ],
      [
        "▁الص",
        "ين"
      ],
      [
        "▁أ",
        "حد"
      ],
      [
        ":",
        "\n"
      ],
      [
        "رك",
        "ز"
      ],
      [
        "▁ق",
        "ال"
      ],
      [
        "▁س",
        "ن"
      ],
      [
        "و",
        "ير"
      ],
      [
        "▁ع",
        "بر"
      ],
      [
        "▁الس",
        "ي"
      ],
      [
        "س",
        "ات"
      ],
      [
        "▁ت",
        "كون"
      ],
      [
        "غ",
        "يرة"
      ],
      [
        "▁الم",
        "ؤ"
      ],
      [
        "س",
        "ارات"
      ],
      [
        "▁ف",
        "قط"
      ],
      [
        "▁م",
        "خت"
      ],
      [
        "▁ق",
        "ط"
      ],
      [
        "ا",
        "ة"
      ],
      [
        "ان",
        "ات"
      ],
      [
        "ق",
        "ع"
      ],
      [
        "اري",
        "خ"
      ],
      [
        "▁الع",
        "م"
      ],
      [
        "دين",
        "ة"
      ],
      [
        "▁ب",
        "ها"
      ],
      [
        "ق",
        "م"
      ],
      [
        "▁ع",
        "دد"
      ],
      [
        "▁أ",
        "ب"
      ],
      [
        "س",
        "اب"
      ],
      [
        "▁",
        "c"
      ],
      [
        "▁",
        "P"
      ],
      [
        "ان",
        "ون"
      ],
      [
        "ش",
        "ف"
      ],
      [
        "▁م",
        "ق"
      ],
      [
        "o",
        "r"
      ],
      [
        "\n",
        "م"
      ],
      [
        "▁ت",
        "ر"
      ],
      [
        "ه",
        "ور"
      ],
      [
        "▁اله",
        "ند"
      ],
      [
        "▁أ",
        "د"
      ],
      [
        "▁ب",
        "أن"
      ],
      [
        "▁ل",
        "إ"
      ],
      [
        "▁الد",
        "ول"
      ],
      [
        "i",
        "t"
      ],
      [
        "وا",
        "ئ"
      ],
      [
        "▁الس",
        "يا"
      ],
      [
        "ستخد",
        "ام"
      ],
      [
        "ين",
        "ة"
      ],
      [
        "▁ي",
        "ح"
      ],
      [
        "و",
        "ث"
      ],
      [
        "▁ب",
        "ك"
      ],
      [
        "▁عمل",
        "ية"
      ],
      [
        "▁ي",
        "ن"
      ],
      [
        "▁و",
        "في"
      ],
      [
        "ري",
        "قة"
      ],
      [
        "▁المتح",
        "دة"
      ],
      [
        "ف",
        "اع"
      ],
      [
        "▁ان",
        "ت"
      ],
      [
        "▁ل",
        "ن"
      ],
      [
        "ل",
        "ت"
      ],
      [
        "▁الع",
        "ربية"
      ],
      [
        "▁ج",
        "ن"
      ],
      [
        "لا",
        "ق"
      ],
      [
        "قت",
        "ص"
      ],
      [
        "ين",
        "ي"
      ],
      [
        "ك",
        "د"
      ],
      [
        "▁لل",
        "أ"
      ],
      [
        "▁أ",
        "ص"
      ],
      [
        "▁أ",
        "فضل"
      ],
      [
        "▁أ",
        "ع"
      ],
      [
        "ري",
        "اض"
      ],
      [
        "▁1",
        "9"
      ],
      [
        "▁ك",
        "ت"
      ],
      [
        "▁أيض",
        "ًا"
      ],
      [
        "▁بال",
        "ت"
      ],
      [
        "▁",
        "ام"
      ],
      [
        "▁مح",
        "مد"
      ],
      [
        "▁ب",
        "س"
      ],
      [
        "عل",
        "م"
      ],
      [
        "ظ",
        "م"
      ],
      [
        "مي",
        "م"
      ],
      [
        "سل",
        "ام"
      ],
      [
        "ج",
        "راء"
      ],
      [
        "ش",
        "ي"
      ],
      [
        "▁",
        "p"
      ],
      [
        "▁الأ",
        "ول"
      ],
      [
        "▁ح",
        "د"
      ],
      [
        "▁أ",
        "خرى"
      ],
      [
        "▁أ",
        "ف"
      ],
      [
        "▁د",
        "ول"
      ],
      [
        "▁م",
        "ما"
      ],
      [
        "ق",
        "ب"
      ],
      [
        "ش",
        "رة"
      ],
      [
        "▁الس",
        "عود"
      ],
      [
        "ج",
        "ز"
      ],
      [
        "ض",
        "اف"
      ],
      [
        "o",
        "u"
      ],
      [
        "▁الذ",
        "ين"
      ],
      [
        "▁الت",
        "عدين"
      ],
      [
        "▁ب",
        "إ"
      ],
      [
        "عا",
        "دة"
      ],
      [
        "▁في",
        "ها"
      ],
      [
        "عر",
        "ض"
      ],
      [
        "▁ذ",
        "ات"
      ],
      [
        "▁الأ",
        "خ"
      ],
      [
        "غ",
        "ي"
      ],
      [
        "ظ",
        "يف"
      ],
      [
        "▁الر",
        "ئيس"
      ],
      [
        "م",
        "لك"
      ],
      [
        "▁وال",
        "تي"
      ],
      [
        "ل",
        "ع"
      ],
      [
        "▁..",
        ".\n"
      ],
      [
        "ا",
        "دة"
      ],
      [
        "م",
        "ان"
      ],
      [
        "ل",
        "فة"
      ],
      [
        "ظ",
        "ة"
      ],
      [
        "▁م",
        "لي"
      ],
      [
        "▁لل",
        "ح"
      ],
      [
        "بي",
        "ق"
      ],
      [
        "e",
        "s"
      ],
      [
        "ري",
        "ب"
      ],
      [
        "▁الم",
        "ر"
      ],
      [
        "ال",
        "ب"
      ],
      [
        "▁من",
        "ت"
      ],
      [
        "غ",
        "ط"
      ],
      [
        "▁ل",
        "ها"
      ],
      [
        "▁ح",
        "جر"
      ],
      [
        "▁الوق",
        "ت"
      ],
      [
        "ير",
        "ي"
      ],
      [
        "و",
        "ط"
      ],
      [
        "▁د",
        "ون"
      ],
      [
        "ل",
        "ه"
      ],
      [
        "يا",
        "ة"
      ],
      [
        "▁ك",
        "يف"
      ],
      [
        "▁ال",
        "وا"
      ],
      [
        "د",
        "ارة"
      ],
      [
        "ال",
        "ح"
      ],
      [
        "▁ت",
        "ف"
      ],
      [
        "ذ",
        "ي"
      ],
      [
        "ج",
        "ن"
      ],
      [
        "▁إ",
        "لي"
      ],
      [
        "ّ",
        "ة"
      ],
      [
        "م",
        "س"
      ],
      [
        "▁يمكن",
        "ك"
      ],
      [
        "ائ",
        "ر"
      ],
      [
        "ح",
        "ية"
      ],
      [
        "▁ي",
        "د"
      ],
      [
        "مي",
        "ز"
      ],
      [
        "ظ",
        "هر"
      ],
      [
        "أ",
        "ة"
      ],
      [
        "▁الع",
        "ديد"
      ],
      [
        "و",
        "ه"
      ],
      [
        "ي",
        "ز"
      ],
      [
        "ها",
        "ز"
      ],
      [
        "ض",
        "ر"
      ],
      [
        "▁كب",
        "ير"
      ],
      [
        "ما",
        "ء"
      ],
      [
        "▁الج",
        "م"
      ],
      [
        "▁و",
        "هي"
      ],
      [
        "▁في",
        "ه"
      ],
      [
        "▁",
        "دي"
      ],
      [
        "▁أ",
        "ش"
      ],
      [
        "ائ",
        "ية"
      ],
      [
        "▁ش",
        "خص"
      ],
      [
        "i",
        "c"
      ],
      [
        "▁",
        "7"
      ],
      [
        "س",
        "ن"
      ],
      [
        "لا",
        "ً"
      ],
      [
        "ف",
        "ات"
      ],
      [
        "▁الأ",
        "و"
      ],
      [
        "▁",
        "8"
      ],
      [
        "▁",
        "G"
      ],
      [
        "ح",
        "و"
      ],
      [
        "ب",
        "ق"
      ],
      [
        "ر",
        "بي"
      ],
      [
        "▁الج",
        "ز"
      ],
      [
        "▁الح",
        "ديد"
      ],
      [
        "\n",
        "\n"
      ],
      [
        "a",
        "c"
      ],
      [
        "لا",
        "ج"
      ],
      [
        "▁ق",
        "ر"
      ],
      [
        "▁الم",
        "غ"
      ],
      [
        "عت",
        "بر"
      ],
      [
        "دي",
        "ث"
      ],
      [
        "▁ل",
        "دي"
      ],
      [
        "ان",
        "ب"
      ],
      [
        "ق",
        "بل"
      ],
      [
        "in",
        "g"
      ],
      [
        "ك",
        "ثر"
      ],
      [
        "▁",
        "/"
      ],
      [
        "▁وال",
        "ح"
      ],
      [
        "وا",
        "ع"
      ],
      [
        "خ",
        "ط"
      ],
      [
        "م",
        "ية"
      ],
      [
        "ه",
        "ما"
      ],
      [
        "▁ل",
        "ح"
      ],
      [
        "ملك",
        "ة"
      ],
      [
        "قي",
        "قة"
      ],
      [
        "ي",
        "ار"
      ],
      [
        ".\n",
        "ت"
      ],
      [
        "ك",
        "و"
      ],
      [
        "سا",
        "عد"
      ],
      [
        "▁ط",
        "ن"
      ],
      [
        "وف",
        "ر"
      ],
      [
        "▁إ",
        "لا"
      ],
      [
        "▁الح",
        "ك"
      ],
      [
        "▁ب",
        "ط"
      ],
      [
        "▁1",
        "0"
      ],
      [
        "▁و",
        "قد"
      ],
      [
        "ي",
        "ش"
      ],
      [
        "▁أ",
        "ول"
      ],
      [
        "▁م",
        "جموعة"
      ],
      [
        "د",
        "ى"
      ],
      [
        "▁م",
        "وقع"
      ],
      [
        "س",
        "ين"
      ],
      [
        "▁ف",
        "ر"
      ],
      [
        "▁ي",
        "ش"
      ],
      [
        "َ",
        "ل"
      ],
      [
        "▁وال",
        "ع"
      ],
      [
        "▁الو",
        "ز"
      ],
      [
        "اد",
        "ر"
      ],
      [
        "▁المح",
        "م"
      ],
      [
        "را",
        "ف"
      ],
      [
        "▁ح",
        "ق"
      ],
      [
        "لا",
        "ب"
      ],
      [
        "غ",
        "ة"
      ],
      [
        "▁بال",
        "إ"
      ],
      [
        "▁ج",
        "د"
      ],
      [
        "▁ل",
        "لا"
      ],
      [
        "▁السعود",
        "ية"
      ],
      [
        "ائ",
        "ي"
      ],
      [
        "ح",
        "ا"
      ],
      [
[...]
